<pad>	0
<unk>	0
[CLS]	0
[SEP]	0
[MASK]	0
<0x00>	0
<0x01>	0
<0x02>	0
<0x03>	0
<0x04>	0
<0x05>	0
<0x06>	0
<0x07>	0
<0x08>	0
<0x09>	0
<0x0A>	0
<0x0B>	0
<0x0C>	0
<0x0D>	0
<0x0E>	0
<0x0F>	0
<0x10>	0
<0x11>	0
<0x12>	0
<0x13>	0
<0x14>	0
<0x15>	0
<0x16>	0
<0x17>	0
<0x18>	0
<0x19>	0
<0x1A>	0
<0x1B>	0
<0x1C>	0
<0x1D>	0
<0x1E>	0
<0x1F>	0
<0x20>	0
<0x21>	0
<0x22>	0
<0x23>	0
<0x24>	0
<0x25>	0
<0x26>	0
<0x27>	0
<0x28>	0
<0x29>	0
<0x2A>	0
<0x2B>	0
<0x2C>	0
<0x2D>	0
<0x2E>	0
<0x2F>	0
<0x30>	0
<0x31>	0
<0x32>	0
<0x33>	0
<0x34>	0
<0x35>	0
<0x36>	0
<0x37>	0
<0x38>	0
<0x39>	0
<0x3A>	0
<0x3B>	0
<0x3C>	0
<0x3D>	0
<0x3E>	0
<0x3F>	0
<0x40>	0
<0x41>	0
<0x42>	0
<0x43>	0
<0x44>	0
<0x45>	0
<0x46>	0
<0x47>	0
<0x48>	0
<0x49>	0
<0x4A>	0
<0x4B>	0
<0x4C>	0
<0x4D>	0
<0x4E>	0
<0x4F>	0
<0x50>	0
<0x51>	0
<0x52>	0
<0x53>	0
<0x54>	0
<0x55>	0
<0x56>	0
<0x57>	0
<0x58>	0
<0x59>	0
<0x5A>	0
<0x5B>	0
<0x5C>	0
<0x5D>	0
<0x5E>	0
<0x5F>	0
<0x60>	0
<0x61>	0
<0x62>	0
<0x63>	0
<0x64>	0
<0x65>	0
<0x66>	0
<0x67>	0
<0x68>	0
<0x69>	0
<0x6A>	0
<0x6B>	0
<0x6C>	0
<0x6D>	0
<0x6E>	0
<0x6F>	0
<0x70>	0
<0x71>	0
<0x72>	0
<0x73>	0
<0x74>	0
<0x75>	0
<0x76>	0
<0x77>	0
<0x78>	0
<0x79>	0
<0x7A>	0
<0x7B>	0
<0x7C>	0
<0x7D>	0
<0x7E>	0
<0x7F>	0
<0x80>	0
<0x81>	0
<0x82>	0
<0x83>	0
<0x84>	0
<0x85>	0
<0x86>	0
<0x87>	0
<0x88>	0
<0x89>	0
<0x8A>	0
<0x8B>	0
<0x8C>	0
<0x8D>	0
<0x8E>	0
<0x8F>	0
<0x90>	0
<0x91>	0
<0x92>	0
<0x93>	0
<0x94>	0
<0x95>	0
<0x96>	0
<0x97>	0
<0x98>	0
<0x99>	0
<0x9A>	0
<0x9B>	0
<0x9C>	0
<0x9D>	0
<0x9E>	0
<0x9F>	0
<0xA0>	0
<0xA1>	0
<0xA2>	0
<0xA3>	0
<0xA4>	0
<0xA5>	0
<0xA6>	0
<0xA7>	0
<0xA8>	0
<0xA9>	0
<0xAA>	0
<0xAB>	0
<0xAC>	0
<0xAD>	0
<0xAE>	0
<0xAF>	0
<0xB0>	0
<0xB1>	0
<0xB2>	0
<0xB3>	0
<0xB4>	0
<0xB5>	0
<0xB6>	0
<0xB7>	0
<0xB8>	0
<0xB9>	0
<0xBA>	0
<0xBB>	0
<0xBC>	0
<0xBD>	0
<0xBE>	0
<0xBF>	0
<0xC0>	0
<0xC1>	0
<0xC2>	0
<0xC3>	0
<0xC4>	0
<0xC5>	0
<0xC6>	0
<0xC7>	0
<0xC8>	0
<0xC9>	0
<0xCA>	0
<0xCB>	0
<0xCC>	0
<0xCD>	0
<0xCE>	0
<0xCF>	0
<0xD0>	0
<0xD1>	0
<0xD2>	0
<0xD3>	0
<0xD4>	0
<0xD5>	0
<0xD6>	0
<0xD7>	0
<0xD8>	0
<0xD9>	0
<0xDA>	0
<0xDB>	0
<0xDC>	0
<0xDD>	0
<0xDE>	0
<0xDF>	0
<0xE0>	0
<0xE1>	0
<0xE2>	0
<0xE3>	0
<0xE4>	0
<0xE5>	0
<0xE6>	0
<0xE7>	0
<0xE8>	0
<0xE9>	0
<0xEA>	0
<0xEB>	0
<0xEC>	0
<0xED>	0
<0xEE>	0
<0xEF>	0
<0xF0>	0
<0xF1>	0
<0xF2>	0
<0xF3>	0
<0xF4>	0
<0xF5>	0
<0xF6>	0
<0xF7>	0
<0xF8>	0
<0xF9>	0
<0xFA>	0
<0xFB>	0
<0xFC>	0
<0xFD>	0
<0xFE>	0
<0xFF>	0
.	-3.3593
,	-3.45575
▁את	-4.51124
▁של	-4.62694
:	-4.85696
▁לא	-4.89115
▁על	-4.92168
"	-5.0571
>	-5.09644
▁<	-5.16919
'	-5.3296
?	-5.3567
-	-5.38401
▁זה	-5.41116
▁-	-5.44095
▁עם	-5.47779
ה	-5.66316
!	-5.67199
▁@	-5.72933
...	-5.74831
▁מה	-5.75208
▁"	-5.77105
▁כל	-5.78037
▁	-5.80104
▁אני	-5.80732
▁(	-5.87371
▁ב	-5.87764
▁the	-5.96175
▁ו	-5.98131
▁הוא	-6.03431
url	-6.03702
▁גם	-6.05961
s	-6.08102
ו	-6.08772
)	-6.09112
ים	-6.09342
▁שלך	-6.11041
▁יש	-6.1459
י	-6.15699
▁או	-6.17056
▁לי	-6.19593
▁ל	-6.21208
▁ה	-6.24673
▁כי	-6.27381
ת	-6.27749
/	-6.35443
▁טוב	-6.40245
▁,	-6.42135
▁אם	-6.42328
i	-6.43562
▁to	-6.44148
▁אבל	-6.45946
phone	-6.46816
▁מ	-6.47402
▁יותר	-6.48042
▁and	-6.50979
ל	-6.51285
b	-6.5219
▁ש	-6.54312
▁רק	-6.5509
▁היא	-6.55201
▁היה	-6.58097
▁עוד	-6.60473
▁of	-6.60523
ות	-6.60939
▁.	-6.61495
▁שלי	-6.61836
▁a	-6.65981
▁התגובה	-6.67982
_	-6.68998
▁אין	-6.69163
▁תגי	-6.69747
▁HTML	-6.70545
▁מותרים	-6.70718
▁לך	-6.70947
▁עד	-6.79632
▁ישראל	-6.80406
ם	-6.82668
▁אחד	-6.83081
▁כמו	-6.83403
▁מי	-6.86182
▁יום	-6.87865
▁הזה	-6.89127
▁הם	-6.89274
▁היום	-6.8942
▁in	-6.93028
▁כדי	-6.95083
▁אתה	-6.95586
▁אז	-6.95854
▁|	-6.96876
▁כבר	-6.96892
▁כך	-6.97039
▁כמה	-6.97134
▁מאוד	-6.9881
ר	-6.99446
▁שלא	-7.00167
▁לו	-7.01331
▁/	-7.044
▁בין	-7.04894
▁?	-7.08528
▁shared	-7.12347
▁ולא	-7.12618
▁זו	-7.13617
▁בן	-7.14347
▁להיות	-7.15836
▁אותו	-7.16395
▁כ	-7.17587
▁אל	-7.17978
▁#	-7.19008
▁בית	-7.19891
ב	-7.19995
▁לפני	-7.20002
▁שם	-7.20867
▁בכל	-7.21131
▁שלנו	-7.21524
▁תודה	-7.22322
▁וה	-7.2408
▁איזה	-7.24614
▁הכי	-7.24836
▁הרבה	-7.24977
▁איך	-7.26993
▁!	-7.27461
▁–	-7.28722
▁לנו	-7.28759
▁1	-7.29927
▁is	-7.31526
!!!	-7.32081
▁2	-7.32696
".	-7.34357
▁לכם	-7.35701
▁האם	-7.359
▁אחרי	-7.37612
▁אנחנו	-7.37725
ן	-7.37776
א	-7.37864
!!	-7.38266
▁לכל	-7.38461
▁'	-7.39626
▁ראש	-7.42037
▁ג	-7.42115
▁ביותר	-7.42584
▁כאן	-7.43317
▁לאחר	-7.43485
▁ממש	-7.44175
▁צריך	-7.4422
▁for	-7.44276
▁with	-7.44782
מ	-7.47767
▁3	-7.49645
▁זאת	-7.50357
▁לה	-7.5048
▁:	-7.50924
▁למה	-7.50932
▁מזל	-7.51107
▁שהוא	-7.5126
▁שלו	-7.52307
▁שיש	-7.52449
▁כן	-7.52741
▁לעשות	-7.54732
’	-7.5482
▁עכשיו	-7.55063
▁אותך	-7.55284
▁חיים	-7.56272
▁שאני	-7.57418
▁שני	-7.57484
▁בבית	-7.57835
▁בו	-7.58591
▁I	-7.58891
▁שנה	-7.59101
▁רוצה	-7.59862
▁ללא	-7.60397
▁אתם	-7.6058
▁ועוד	-7.60672
▁להם	-7.60813
▁אביב	-7.61102
▁הכל	-7.61511
ד	-7.61551
▁שה	-7.61964
▁שנים	-7.62451
▁אותי	-7.62608
▁אפשר	-7.6297
▁אנשים	-7.63237
ש	-7.65358
▁פשוט	-7.66092
▁היו	-7.6653
▁אחת	-7.66777
▁יכול	-7.67487
▁you	-7.67642
▁פעם	-7.67884
ח	-7.68642
▁יהיה	-7.68686
▁בני	-7.69023
▁...	-7.70373
▁4	-7.71663
▁חדש	-7.7227
;	-7.72438
▁אך	-7.725
▁that	-7.73221
▁וגם	-7.74201
▁אשר	-7.74298
נו	-7.74851
▁דבר	-7.75362
▁יפה	-7.75396
1	-7.76104
=	-7.76312
▁on	-7.76322
▁אותה	-7.77043
▁טובה	-7.77454
▁בישראל	-7.78801
ס	-7.79751
▁נגד	-7.79923
▁שזה	-7.80616
▁אותם	-7.8067
▁מקום	-7.81106
▁שלום	-7.81278
▁במקום	-7.81528
▁א	-7.81637
▁י	-7.82275
▁The	-7.82446
▁אדם	-7.82982
▁5	-7.84124
▁דרך	-7.84284
▁נתניהו	-7.84482
▁משהו	-7.84755
▁נראה	-7.84905
▁ת	-7.85389
▁:)	-7.86417
▁ידי	-7.8686
▁ביום	-7.88532
▁אחר	-7.88592
▁פה	-7.8897
▁זמן	-7.89311
▁ניתן	-7.89317
▁באמת	-7.89415
▁תמיד	-7.89449
▁מספר	-7.89449
▁בת	-7.89475
▁בלי	-7.90579
▁שבת	-7.90612
▁וב	-7.9104
כ	-7.91744
▁*	-7.91812
▁post	-7.92349
▁ול	-7.92794
▁הממשלה	-7.93718
▁•	-7.9437
▁אמר	-7.95321
▁במהלך	-7.95671
▁קצת	-7.95676
▁שלכם	-7.9704
▁מול	-7.97903
▁העיר	-7.98104
▁בעולם	-7.98579
▁are	-7.98768
▁בוקר	-7.99521
▁לראות	-7.99837
▁at	-7.99975
▁ראשון	-8.00114
▁גדול	-8.00506
▁שלהם	-8.01297
ית	-8.01612
▁אולי	-8.01741
▁10	-8.01817
▁חלק	-8.0185
▁it	-8.03183
....	-8.03553
▁לב	-8.0422
▁קשה	-8.04897
▁הרב	-8.05266
▁תל	-8.0549
).	-8.05842
▁שלה	-8.06413
▁הבית	-8.06541
אני	-8.06984
ג	-8.07142
▁המדינה	-8.074
▁בה	-8.07791
??	-8.08031
▁כזה	-8.08513
▁החברה	-8.08931
▁v	-8.09167
▁ילדים	-8.09203
▁הזמן	-8.09257
▁נכון	-8.09497
",	-8.0969
▁ככה	-8.097
▁עבודה	-8.10329
▁ואני	-8.10602
לא	-8.10661
!!!!	-8.10705
▁שבוע	-8.11049
t	-8.11076
▁הייתי	-8.11188
▁שהם	-8.11572
▁לפי	-8.12301
▁המון	-8.1242
▁עדיין	-8.12757
▁or	-8.14472
▁בהצלחה	-8.1476
▁פי	-8.1505
▁חדשות	-8.15148
▁באתר	-8.15396
▁אף	-8.15405
או	-8.15502
▁??	-8.15578
▁שהיא	-8.15613
▁מסעדה	-8.15888
▁הייתה	-8.15933
▁חברת	-8.15999
▁נוספים	-8.1604
▁לקבל	-8.16056
▁חברים	-8.16183
a	-8.17646
▁בר	-8.18071
▁be	-8.18347
▁your	-8.1868
▁שר	-8.18858
▁ח	-8.19238
▁בלבד	-8.19355
▁כולל	-8.19444
▁וזה	-8.1947
▁new	-8.19665
▁השנה	-8.19785
▁בגלל	-8.20718
▁שעות	-8.20718
▁שוב	-8.2089
▁אוכל	-8.20957
▁צילום	-8.21185
ך	-8.21583
▁8	-8.2171
▁יודע	-8.21813
▁אלא	-8.21813
▁חשוב	-8.21925
▁עושה	-8.2204
▁ד	-8.22255
▁אוהבת	-8.22555
2	-8.22995
▁בכלל	-8.23637
▁מלא	-8.24195
▁as	-8.24437
▁שאתה	-8.24519
▁בארץ	-8.24777
”	-8.25141
▁באופן	-8.25208
▁6	-8.25309
videos	-8.25434
▁סוף	-8.26138
▁מיליון	-8.26195
▁עבור	-8.26383
▁שמח	-8.26985
▁אומר	-8.27101
▁7	-8.27586
▁)	-8.28216
▁בדיוק	-8.28341
▁השבוע	-8.2835
▁אנו	-8.28738
▁לבית	-8.29033
▁כולם	-8.29151
▁ירושלים	-8.29266
▁photo	-8.29631
▁דברים	-8.29815
▁החיים	-8.29872
▁כאשר	-8.30203
▁ע	-8.30458
▁כהן	-8.30818
▁שירות	-8.30955
>/	-8.31042
▁רוצים	-8.31094
▁הבא	-8.31368
▁קשר	-8.31397
▁מחיר	-8.31401
▁הספר	-8.32001
▁הכבוד	-8.32227
▁הראשון	-8.32327
▁ערב	-8.32655
▁ואת	-8.32705
▁משרד	-8.32848
▁מתוך	-8.33221
▁שקל	-8.33435
▁מכל	-8.3398
▁אתמול	-8.34098
▁»	-8.34602
▁רבה	-8.34906
▁אי	-8.35123
▁הארץ	-8.35224
d	-8.35369
▁יכולים	-8.3543
▁העולם	-8.35594
▁במיוחד	-8.35692
▁בא	-8.36034
▁החדש	-8.3652
▁מחר	-8.36568
▁בריאות	-8.36623
▁by	-8.36742
▁שח	-8.36831
▁מדובר	-8.37107
▁ימים	-8.37518
▁רב	-8.37699
▁אותנו	-8.37953
▁!!!	-8.37972
▁חינם	-8.38194
▁מדהים	-8.38284
▁להגיע	-8.38439
▁כש	-8.38622
▁פחות	-8.3867
▁יחד	-8.38684
ing	-8.38713
מה	-8.38922
3	-8.38948
▁בשעה	-8.39156
▁from	-8.39583
▁אפילו	-8.39808
▁have	-8.40569
▁מישהו	-8.40599
(	-8.40655
▁..	-8.4106
יה	-8.41331
״	-8.41719
▁video	-8.41784
▁אלה	-8.42112
4	-8.42394
▁הזו	-8.42605
▁was	-8.42769
▁!!	-8.4284
▁this	-8.42964
▁די	-8.43138
▁בעיר	-8.43412
▁הגיע	-8.43492
*	-8.43732
▁20	-8.43852
▁הזאת	-8.43869
▁added	-8.44013
),	-8.44214
עוד	-8.44366
▁ספר	-8.44874
▁בדרך	-8.44885
▁לפרטים	-8.45201
▁איפה	-8.45208
▁צ	-8.45513
▁מגיע	-8.45742
<	-8.46491
▁יו	-8.46613
▁הגדול	-8.4803
▁רבים	-8.48034
▁הפרופיל	-8.48349
▁בעלי	-8.48653
▁האחרון	-8.48779
▁משה	-8.49475
▁הילדים	-8.49491
▁בזמן	-8.5022
▁באמצעות	-8.50237
▁שאת	-8.50398
▁העבודה	-8.50812
▁אחרת	-8.50882
▁חיפה	-8.51029
▁עושים	-8.5106
▁אוהב	-8.51108
ק	-8.51116
▁הן	-8.51283
▁ברק	-8.51394
&	-8.51426
▁המשפט	-8.515
▁קל	-8.51621
▁עליו	-8.5167
▁שום	-8.51747
▁שיר	-8.52212
▁הבוקר	-8.52235
▁אהבה	-8.52368
▁רכב	-8.52431
ע	-8.52456
זה	-8.52482
▁מעולה	-8.52514
יש	-8.52541
▁בעקבות	-8.52676
▁will	-8.52701
צ	-8.53242
▁photos	-8.53365
▁אור	-8.5371
▁המשטרה	-8.54127
▁שי	-8.54415
▁דקות	-8.54501
▁אלו	-8.54776
▁הערב	-8.55061
▁can	-8.55098
▁חבר	-8.5525
▁שהיה	-8.55362
▁שיהיה	-8.55543
e	-8.55714
▁דוד	-8.55829
▁והוא	-8.55873
▁יכולה	-8.5629
▁תוך	-8.56517
▁בשביל	-8.56596
▁בתחום	-8.56685
▁גדולה	-8.5715
▁נשים	-8.57599
▁Hotel	-8.57778
''	-8.57789
▁וכל	-8.57947
▁ים	-8.58058
▁שאין	-8.58518
▁A	-8.58813
▁ועל	-8.58841
▁אלי	-8.58883
▁כתב	-8.59324
▁חדשה	-8.59521
▁12	-8.59566
־	-8.5957
▁הכנסת	-8.59643
▁מערכת	-8.59688
▁לוי	-8.59765
▁יד	-8.59832
▁איש	-8.5984
▁חי	-8.59942
▁“	-8.60069
▁an	-8.60153
ט	-8.60315
▁מאד	-8.60381
▁ברור	-8.60606
▁לתת	-8.60608
ed	-8.61066
▁בנושא	-8.61178
▁בהם	-8.61301
▁0	-8.61309
▁ואז	-8.61513
▁מדי	-8.6198
▁שישי	-8.62434
▁כסף	-8.62864
><	-8.62932
▁שב	-8.63007
▁תהיה	-8.63272
▁טיפול	-8.63707
7	-8.63754
▁בירושלים	-8.63966
▁האלה	-8.64089
▁אתכם	-8.64146
▁לקראת	-8.64365
▁למצוא	-8.64449
▁מזה	-8.64661
▁מידע	-8.64726
▁לכולם	-8.65056
▁אמא	-8.65071
▁למי	-8.65087
▁נ	-8.65193
▁במסגרת	-8.65233
▁קטן	-8.65313
▁החל	-8.65317
תי	-8.65807
▁בתל	-8.66119
▁באזור	-8.66268
▁למרות	-8.66283
▁כיף	-8.66374
▁מתי	-8.66396
▁חדרים	-8.66464
▁דעת	-8.66518
▁בתוך	-8.66755
▁+	-8.66791
▁ז	-8.66956
▁מעניין	-8.66993
email	-8.67026
ון	-8.67087
▁לפחות	-8.67121
▁מעל	-8.67303
▁טלפון	-8.67315
▁לדעת	-8.67393
▁טובים	-8.67422
▁שווה	-8.67871
▁חג	-8.68225
▁כאלה	-8.6833
▁היתה	-8.68493
y	-8.68729
5	-8.69018
▁מנת	-8.69052
▁חחח	-8.69306
▁עולה	-8.70266
▁מכבי	-8.70294
▁הראשונה	-8.70604
▁צה	-8.70635
▁שונים	-8.70643
▁השני	-8.70645
▁ומה	-8.70793
▁אצל	-8.70835
▁9	-8.7088
▁חברה	-8.70974
▁אחרים	-8.71016
▁מיוחד	-8.71051
▁אלף	-8.71101
▁דולר	-8.71152
אין	-8.71243
▁גן	-8.71395
▁שכל	-8.71544
▁15	-8.71718
▁מאז	-8.71875
▁מעט	-8.72083
▁ועד	-8.72104
▁שתי	-8.72234
▁רואה	-8.72404
▁נוסף	-8.7244
0	-8.72442
▁אמן	-8.7253
▁צריכים	-8.72702
▁&	-8.73126
D	-8.73289
▁היי	-8.73303
▁₪	-8.73422
▁בצורה	-8.73824
▁30	-8.73832
▁המקום	-8.74158
▁צריכה	-8.74443
▁הדרך	-8.74572
▁לבדוק	-8.74897
#	-8.7545
▁הודעה	-8.75604
▁מים	-8.75773
▁מצב	-8.75801
▁מילים	-8.75816
▁אושר	-8.7585
▁החינוך	-8.75907
▁בחינם	-8.76038
▁חדשים	-8.76442
8	-8.76514
▁לגבי	-8.76535
▁צוות	-8.76552
▁ויש	-8.76558
▁חחחח	-8.76672
▁תמונות	-8.76736
▁שבע	-8.76811
▁בסוף	-8.76941
▁כמעט	-8.7726
▁בעל	-8.77774
▁ניסיון	-8.77779
▁חוות	-8.77799
▁חוק	-8.78017
▁אשמח	-8.78134
▁has	-8.78144
▁יודעת	-8.78387
▁ראשי	-8.78393
▁not	-8.7859
▁כנראה	-8.78851
▁חודש	-8.79069
▁מרכז	-8.79446
▁group	-8.79778
▁בטוח	-8.80029
▁לקחת	-8.80084
▁????	-8.80345
אם	-8.80412
▁עולם	-8.8053
▁שקלים	-8.80828
▁עצמו	-8.80894
▁חושב	-8.81077
▁אתר	-8.81121
▁ר	-8.81135
▁חודשים	-8.8117
▁our	-8.81184
▁קורה	-8.8122
יו	-8.81685
▁שבו	-8.81914
▁מספיק	-8.81961
▁מס	-8.82038
▁חצי	-8.82086
▁their	-8.82602
▁חברות	-8.82834
▁בבקשה	-8.82997
יות	-8.83003
▁הפועל	-8.83097
▁פרטים	-8.83173
▁החולים	-8.83234
▁כלל	-8.83361
▁שלמה	-8.8342
▁ילד	-8.83475
▁החדשה	-8.83966
▁במרכז	-8.84007
▁מהם	-8.84033
▁לזה	-8.8407
▁ענק	-8.84354
▁כמובן	-8.84512
▁הביטחון	-8.84527
כל	-8.84533
▁שעה	-8.84549
▁רגע	-8.84751
▁לילדים	-8.84795
▁טעים	-8.85004
▁טל	-8.85056
▁מבין	-8.85384
▁איתי	-8.85911
▁להגיב	-8.86012
▁כדאי	-8.86033
▁עו	-8.8615
▁ליד	-8.86294
▁אבי	-8.86489
m	-8.8679
▁״	-8.86843
▁בשבוע	-8.86861
▁תמונה	-8.8719
▁נמצא	-8.87257
▁נהדר	-8.87305
c	-8.87351
▁ביבי	-8.87372
▁בסדר	-8.87406
▁קצר	-8.87421
▁לצאת	-8.87487
▁הטוב	-8.87517
▁11	-8.87749
▁קרא	-8.87827
▁גל	-8.88055
▁!!!!	-8.8808
▁בנוסף	-8.88152
n	-8.88164
▁יא	-8.88179
▁ברחוב	-8.88207
▁סתם	-8.88239
▁שאנחנו	-8.88245
▁חמישי	-8.88317
▁הלב	-8.88469
▁מלון	-8.88531
▁יקרה	-8.88755
▁This	-8.88859
▁type	-8.88975
▁הבאה	-8.89138
▁לשעבר	-8.89228
▁בעיקר	-8.89441
▁24	-8.89552
▁ומ	-8.89553
▁הדבר	-8.89634
▁we	-8.89685
A	-8.89857
▁יקר	-8.90018
▁ק	-8.90158
▁מוזמנים	-8.90186
▁השר	-8.90658
▁בעלות	-8.90922
▁לכן	-8.91274
▁מגוון	-8.91302
▁מתאים	-8.91604
▁רבות	-8.91666
▁לדבר	-8.91927
▁שאתם	-8.92041
▁מנהל	-8.92147
▁רמת	-8.92435
6	-8.92643
▁יודעים	-8.92677
▁כפי	-8.92928
S	-8.93054
▁כלום	-8.93107
▁הציבור	-8.93125
9	-8.93146
▁במשך	-8.93239
▁מומלץ	-8.93242
▁הקרוב	-8.93673
▁מציע	-8.93703
▁וכן	-8.93784
▁ואם	-8.9388
▁הולך	-8.93945
▁בחיים	-8.94024
▁משחק	-8.94053
▁במצב	-8.94091
▁להגיד	-8.94124
▁לבן	-8.94127
▁תגובות	-8.94242
▁משפחה	-8.943
▁צפו	-8.94333
▁בימים	-8.94415
▁מעבר	-8.94548
▁המשפחה	-8.94651
▁יהודה	-8.94659
▁יצא	-8.94714
▁החוק	-8.9481
▁עובד	-8.94828
▁ספק	-8.95273
▁מקסים	-8.95307
▁מן	-8.95402
▁הישראלי	-8.95627
▁ולכן	-8.95634
▁קפה	-8.95823
▁ללכת	-8.95885
▁אוויר	-8.95907
▁מושלם	-8.96169
ז	-8.9644
▁לקרוא	-8.96552
▁בהחלט	-8.96586
▁לפנות	-8.96682
▁אוהבים	-8.96827
▁שלישי	-8.96887
▁בואו	-8.96965
▁all	-8.97449
▁שנת	-8.97878
10	-8.97937
▁but	-8.9831
▁מכירה	-8.98417
▁חייב	-8.98433
▁כוח	-8.98462
▁האחרונות	-8.98819
▁מקווה	-8.98872
▁לישראל	-8.98908
▁הרכב	-8.98944
▁חברי	-8.99144
▁פנים	-8.99278
▁שמחה	-8.99467
▁גבוהה	-8.99598
▁מדהימה	-8.99619
יי	-8.99893
▁חבל	-9.00026
▁השם	-9.00063
▁קודם	-9.00166
▁האוכל	-9.00189
▁מראש	-9.00387
▁14	-9.00645
▁ממנו	-9.00976
▁יעקב	-9.00979
▁לשמוע	-9.01131
▁וחצי	-9.01146
▁המלון	-9.02029
▁למען	-9.02071
צילום	-9.02178
▁יהיו	-9.02214
▁בשל	-9.0234
▁הולדת	-9.02513
▁הנכס	-9.02691
▁נו	-9.02809
▁בתי	-9.02891
▁בלתי	-9.03012
▁יצחק	-9.03039
▁לאורך	-9.03273
▁המחיר	-9.03309
▁Israel	-9.03313
▁במחיר	-9.03373
▁כאילו	-9.03669
▁השיר	-9.03689
▁כגון	-9.0372
▁הבחירות	-9.0377
▁דירה	-9.03828
▁דווקא	-9.0397
▁מרגש	-9.04103
▁100	-9.04152
▁בראש	-9.04252
▁ליום	-9.04282
▁more	-9.04315
▁היהודי	-9.0447
מי	-9.04489
▁אנשי	-9.04519
ץ	-9.04586
▁רשת	-9.04746
▁בי	-9.04825
▁13	-9.0486
▁they	-9.04911
▁נעים	-9.04996
o	-9.05156
▁שגם	-9.05204
▁country	-9.05271
▁אישית	-9.05394
▁האמת	-9.05435
▁עיצוב	-9.05441
▁תחת	-9.05487
▁אישי	-9.05575
▁בפייסבוק	-9.05605
▁בנימין	-9.05668
▁כלי	-9.0567
▁L	-9.05674
▁מחדש	-9.05761
▁18	-9.05857
▁לחץ	-9.06033
▁בקרוב	-9.06035
▁הדין	-9.06062
▁בבוקר	-9.06137
▁קבל	-9.06169
▁קרה	-9.06282
▁שעבר	-9.063
▁למכירה	-9.0631
▁מר	-9.06319
▁שלושה	-9.06419
▁האחרונה	-9.0656
▁מסך	-9.06614
▁בשנה	-9.06628
▁לעדכן	-9.06645
▁חד	-9.07057
▁לגמרי	-9.07221
▁לצד	-9.07264
▁פעילות	-9.07359
▁ביחד	-9.07409
▁גיל	-9.07509
▁להבין	-9.07588
▁הדברים	-9.07606
▁חזק	-9.07822
▁הקבוצה	-9.07879
▁משנה	-9.07887
▁לעולם	-9.07968
▁בשנת	-9.08103
▁אחי	-9.0812
▁למקום	-9.08226
▁בעוד	-9.08229
▁מלאה	-9.08371
▁נשיא	-9.08451
▁עי	-9.08498
▁מגישה	-9.08511
▁לעמוד	-9.08598
▁לילה	-9.08733
▁השירות	-9.08756
▁שמש	-9.08766
▁עובדים	-9.0877
▁לעזור	-9.088
▁עליה	-9.0888
▁מבית	-9.08919
▁version	-9.08981
▁והיא	-9.09019
▁חחחחח	-9.09032
▁ללמוד	-9.09056
▁יוצא	-9.09117
▁נוספת	-9.09262
▁לכך	-9.09575
▁דין	-9.0963
▁להמשיך	-9.09664
▁ברוך	-9.09677
▁טובות	-9.09707
▁פעולה	-9.10075
לה	-9.10627
▁חובה	-9.10899
▁16	-9.10944
▁הלילה	-9.10995
er	-9.11035
▁one	-9.11223
▁הנה	-9.11225
פ	-9.11241
▁פעמים	-9.11427
▁שצריך	-9.11429
▁אח	-9.11434
▁אינו	-9.1151
▁ואין	-9.11616
▁אמיתי	-9.11683
▁גבר	-9.11907
▁50	-9.12028
▁לאחרונה	-9.12036
▁region	-9.12155
▁לציון	-9.12515
▁האחרונים	-9.12537
▁לעבוד	-9.12554
.....	-9.12682
▁עיריית	-9.12874
ני	-9.1298
▁עשרות	-9.13148
▁לשם	-9.13181
▁האירוע	-9.13409
▁אליו	-9.13595
▁אישה	-9.13883
אז	-9.13963
▁איתך	-9.13988
▁שימוש	-9.14021
▁הנשיא	-9.14225
▁מקומות	-9.14444
את	-9.14596
▁חוץ	-9.14597
r	-9.146
▁עסקים	-9.14611
▁בהמשך	-9.1475
▁עליך	-9.14786
▁ס	-9.14882
▁אבא	-9.15254
▁הפעם	-9.15411
▁S	-9.15506
▁אחלה	-9.1559
▁מדינת	-9.15619
▁קטנה	-9.15799
▁יוסי	-9.15972
▁my	-9.16162
▁מת	-9.16178
▁תקווה	-9.16204
▁קבוצת	-9.16207
▁מאיר	-9.16502
▁בזה	-9.16535
▁לאכול	-9.16663
▁If	-9.16807
▁יוסף	-9.1685
▁בפרטי	-9.16851
▁מדינה	-9.16905
▁כעת	-9.17062
▁מהממת	-9.1714
▁משום	-9.17275
^	-9.17447
▁בחודש	-9.17496
אל	-9.17611
▁בעיה	-9.17647
▁הרי	-9.17796
=3	-9.17861
▁קו	-9.17958
▁ספורט	-9.1798
▁קול	-9.18029
▁עצמי	-9.18215
▁about	-9.18254
▁^	-9.1839
▁רואים	-9.18447
▁his	-9.18497
▁יאיר	-9.18598
▁לאתר	-9.18767
▁17	-9.18814
▁לקנות	-9.19054
▁25	-9.19161
▁חשבון	-9.19322
????	-9.19333
▁כמוך	-9.19568
▁כוחות	-9.19611
▁מתאימה	-9.19653
▁ארוחת	-9.19909
▁מאת	-9.19911
▁התורה	-9.19955
▁ברחבי	-9.19984
▁ככל	-9.20004
▁קרוב	-9.20064
▁ראיתי	-9.20095
▁לחזור	-9.20116
▁בבעלותך	-9.20185
▁ערוץ	-9.20289
▁בניהולך	-9.20348
▁out	-9.20362
▁אומרים	-9.20465
▁העונה	-9.20578
▁It	-9.20618
▁כבוד	-9.20637
▁רוב	-9.20647
▁לחצו	-9.20712
▁up	-9.20799
▁לבין	-9.20836
▁צפיות	-9.20901
▁אלפי	-9.20906
▁הגיעו	-9.212
▁דירות	-9.21219
▁כולנו	-9.21526
▁הפנים	-9.21566
▁חדר	-9.21652
▁המשחק	-9.21813
▁הישראלית	-9.21863
▁מחפשים	-9.2198
▁האתר	-9.21987
▁ראשונה	-9.21991
▁מצד	-9.21998
▁נכתב	-9.22197
▁מנכ	-9.22421
▁יופי	-9.22571
▁לבד	-9.22857
▁פרסום	-9.22927
▁40	-9.23167
על	-9.2337
▁גבוה	-9.23479
▁להביא	-9.23495
▁פרטי	-9.23663
▁חם	-9.23683
▁לעומת	-9.23734
▁במקרה	-9.23798
▁איתו	-9.23809
▁יהודים	-9.24219
▁לייק	-9.24231
▁so	-9.24501
▁;	-9.24505
▁במרחק	-9.24663
▁שינוי	-9.24739
▁עבר	-9.24772
▁לפיד	-9.2491
▁ליהנות	-9.24969
▁ארגון	-9.25
אבל	-9.25031
▁also	-9.25339
▁לומר	-9.25424
▁פתח	-9.25459
▁שאלה	-9.25464
▁ורק	-9.25621
▁אפשרות	-9.25766
▁המלצה	-9.25797
▁מאות	-9.25832
▁באר	-9.25887
▁ימי	-9.25915
▁מחכה	-9.25959
▁הבריאות	-9.26014
▁המועצה	-9.26095
ly	-9.26192
▁־	-9.26201
▁בערב	-9.26203
▁הבעיה	-9.26361
▁במדינה	-9.26412
▁המצב	-9.26415
▁היינו	-9.26717
▁אימייל	-9.26737
▁Photos	-9.26993
▁אייל	-9.27028
C	-9.27074
▁רע	-9.27165
▁והם	-9.27246
▁עשה	-9.27254
▁לשנות	-9.27285
▁time	-9.27354
k	-9.27464
▁תהנו	-9.27562
▁נפלא	-9.27632
▁עלייך	-9.27682
▁אירוע	-9.28037
▁60	-9.28078
▁אכן	-9.28107
▁חניה	-9.28363
▁בג	-9.28412
▁זהו	-9.28464
▁מקצועי	-9.28466
▁רביעי	-9.28523
▁which	-9.28534
▁אולם	-9.28603
▁עליהם	-9.28643
▁הילד	-9.28731
▁תושבי	-9.28799
▁עלי	-9.28839
▁מבצע	-9.2886
▁בשוק	-9.2903
▁ברמה	-9.29093
יים	-9.29125
▁האדם	-9.29346
▁Timeline	-9.29432
▁איזו	-9.29448
▁מיוחדת	-9.29564
▁כיום	-9.29639
▁מחפש	-9.29719
נ	-9.29803
▁לאור	-9.2998
id	-9.29993
כם	-9.30045
▁בנות	-9.3009
▁כרגע	-9.30122
M	-9.30181
▁מקבל	-9.30306
▁היית	-9.30309
▁RT	-9.30314
▁he	-9.30491
▁שונות	-9.30574
▁אש	-9.30655
▁סיפור	-9.30704
▁מאשר	-9.30736
▁פרץ	-9.30775
▁כפר	-9.30897
▁בהתאם	-9.30942
▁אומרת	-9.31112
▁הצוות	-9.31173
▁משפט	-9.31194
▁העם	-9.31242
▁השנים	-9.31257
▁בקרב	-9.31313
▁מיליארד	-9.31494
▁מילה	-9.31593
▁אלינו	-9.31643
▁בפני	-9.31713
▁בעבר	-9.31788
▁ברשת	-9.31819
▁גולן	-9.3183
f	-9.31858
▁הליכוד	-9.3186
B	-9.31901
▁דף	-9.3192
▁עלינו	-9.31928
▁<3	-9.32305
▁לנסות	-9.32314
▁שלוש	-9.32481
▁נוספות	-9.32577
▁בצפון	-9.32701
▁צורך	-9.32837
il	-9.32839
▁ואף	-9.32842
▁וכו	-9.32913
▁מיני	-9.33063
▁נחמד	-9.3317
▁אצלנו	-9.33357
▁בטח	-9.33395
▁זוג	-9.33475
▁נפש	-9.33691
▁פקס	-9.3373
com	-9.33746
▁היקר	-9.33908
▁המשך	-9.33917
▁ני	-9.34272
נה	-9.34311
▁מהר	-9.344
▁טלוויזיה	-9.34422
▁>>	-9.34434
▁איכות	-9.34524
▁בעניין	-9.34536
▁יהודי	-9.34645
▁הצלחה	-9.34712
מן	-9.34725
▁הביתה	-9.34776
▁ט	-9.34779
ין	-9.34894
▁במלון	-9.3492
▁יקרים	-9.34971
▁לשמור	-9.35077
▁קרן	-9.35187
▁חסר	-9.35198
▁חייבים	-9.35267
▁האוויר	-9.35404
▁In	-9.35444
▁התקשורת	-9.35486
▁למעלה	-9.35603
ינו	-9.3563
▁תוכלו	-9.35712
▁ליצור	-9.35956
▁וואו	-9.36011
▁אירועים	-9.36261
▁מידי	-9.36365
▁שנות	-9.36402
▁חן	-9.36454
▁שירותי	-9.36617
▁ברכב	-9.36642
▁—	-9.36657
▁מדבר	-9.3702
▁לבחור	-9.37082
+	-9.37101
▁ממשלה	-9.37113
׳	-9.37263
▁בך	-9.37314
▁לעבור	-9.37382
▁לחיות	-9.37455
▁אחריות	-9.3746
▁עניין	-9.37658
▁כה	-9.3767
▁do	-9.37865
fi	-9.37914
▁מנסה	-9.37925
▁הבנתי	-9.38063
▁לשתף	-9.38152
▁עזה	-9.38232
▁עצוב	-9.3833
▁ההורים	-9.38498
▁מחירים	-9.38632
▁....	-9.38663
▁וואלה	-9.38838
▁לאומי	-9.38897
▁לפעמים	-9.39153
▁B	-9.39154
▁בנט	-9.39154
▁הורים	-9.39193
▁מכיר	-9.39228
▁תגובה	-9.39235
▁לקוחות	-9.39309
▁פ	-9.3946
גם	-9.39501
▁לבצע	-9.396
▁2015	-9.39609
▁עבודות	-9.39626
▁בושה	-9.39898
▁נשמע	-9.39906
▁לראשונה	-9.39923
▁בשם	-9.40036
▁תוכנית	-9.40169
▁הים	-9.40273
]	-9.40362
▁להישאר	-9.40634
▁כיצד	-9.40773
▁סרטון	-9.4082
P	-9.40861
▁who	-9.40886
▁המרכז	-9.40979
רק	-9.41028
▁her	-9.41419
תודה	-9.41458
▁לבוא	-9.41614
▁להעביר	-9.41749
▁like	-9.42036
▁העירייה	-9.4205
▁been	-9.42089
▁ערך	-9.42143
יום	-9.42148
▁New	-9.42186
I	-9.42268
▁ארה	-9.42448
▁ההודעה	-9.42452
▁אורי	-9.42693
‐	-9.42704
▁בזכות	-9.42709
▁הגדולה	-9.42732
=1	-9.4288
▁עזרה	-9.4291
כי	-9.43079
▁בלב	-9.43098
▁דרוש	-9.43189
▁נא	-9.43483
ף	-9.43516
ידי	-9.43552
▁להשתמש	-9.43584
▁ישראלי	-9.43627
▁שהיו	-9.43637
re	-9.43792
▁21	-9.44011
▁אמש	-9.44037
▁מערכות	-9.44038
▁סוג	-9.44142
▁דומה	-9.44149
▁השאלה	-9.44156
▁מכן	-9.44164
▁האוצר	-9.44227
▁19	-9.44316
▁הפוסט	-9.44382
▁בעזרת	-9.44556
x	-9.44657
▁מד	-9.45084
▁אשדוד	-9.45198
▁להיכנס	-9.45204
▁הקשר	-9.45211
▁בשבת	-9.45281
▁נקודות	-9.45361
???	-9.45608
▁ומי	-9.45627
▁©	-9.45661
▁שכן	-9.45791
▁מיד	-9.45825
▁ידע	-9.45862
▁הבאים	-9.45931
▁חשבתי	-9.45972
▁ניהול	-9.45983
▁סבא	-9.46021
▁בחיפה	-9.46149
▁להוסיף	-9.46168
▁אחוז	-9.46174
▁עומד	-9.46213
▁מיכל	-9.46232
▁לרבות	-9.4627
▁למשל	-9.46277
▁חינוך	-9.46389
▁רחוב	-9.46411
▁חולים	-9.46456
▁[	-9.46469
▁במשרד	-9.46495
▁שנתיים	-9.46605
▁אגב	-9.46652
▁בתור	-9.4666
▁C	-9.4669
▁הליכה	-9.46694
▁22	-9.4671
▁לשלוח	-9.46732
▁We	-9.4679
▁העליון	-9.46843
▁ועדת	-9.46997
▁רוח	-9.47175
▁דניאל	-9.47312
▁בחום	-9.47322
▁בעצם	-9.47435
▁מתחיל	-9.47454
▁האנשים	-9.47518
▁כתובת	-9.47602
▁איראן	-9.47695
▁מתחת	-9.47803
▁שבה	-9.47885
▁השמאל	-9.48136
▁חושבת	-9.4816
▁לעבודה	-9.482
▁מקרה	-9.48235
▁עונה	-9.48243
▁מגיעים	-9.48246
▁גדולים	-9.48299
▁להפוך	-9.48347
▁מחפשת	-9.48393
▁לשלם	-9.48396
▁שתפו	-9.48546
▁עקב	-9.48571
▁:-)	-9.48608
▁במה	-9.48617
לי	-9.48651
נים	-9.4885
▁קיים	-9.48856
▁הג	-9.48865
▁M	-9.48922
▁השרון	-9.49027
▁תיק	-9.49277
▁Ben	-9.49304
▁מחוץ	-9.49366
▁עדיף	-9.49598
▁דו	-9.49603
בר	-9.49608
▁בשעות	-9.49617
▁2017	-9.49648
▁if	-9.49693
▁אינה	-9.49713
▁אמרה	-9.50038
▁מאמין	-9.50257
▁הר	-9.50493
▁בגיל	-9.50596
▁שאפשר	-9.50629
▁חחחחחח	-9.50679
co	-9.50682
▁נמוך	-9.50797
▁120	-9.50859
▁אה	-9.50869
▁חשמל	-9.50916
▁עצמה	-9.50958
▁לאנשים	-9.50984
▁קיבל	-9.51077
▁חיי	-9.51114
G	-9.51154
▁אהבתי	-9.51182
▁שרון	-9.51186
▁גיא	-9.51227
▁מירי	-9.51286
▁בלילה	-9.51287
▁המים	-9.51302
▁תקשורת	-9.51324
▁חייבת	-9.51615
1<	-9.51631
▁שיער	-9.51669
▁חוזר	-9.51758
▁כול	-9.51769
▁עין	-9.51878
▁ברמת	-9.52155
▁לדעתי	-9.52164
▁ממני	-9.52215
▁מצחיק	-9.523
▁when	-9.52301
▁הנחה	-9.52336
▁מציעים	-9.52337
▁לאורחים	-9.52341
▁בחברה	-9.52463
▁להתחיל	-9.52678
T	-9.52692
▁נמצאים	-9.52734
▁אמת	-9.52768
▁מוצרים	-9.52797
▁כניסה	-9.5281
▁קטנים	-9.52833
▁אילת	-9.52929
▁זכויות	-9.52956
▁אברהם	-9.52961
▁נושא	-9.52966
▁רפואה	-9.5297
▁another	-9.53017
▁סופר	-9.53019
▁אלון	-9.53037
▁אסור	-9.53038
▁השבת	-9.53162
▁קבלת	-9.53207
▁לחשוב	-9.53234
events	-9.53249
▁הי	-9.53259
▁others	-9.53386
▁לפתוח	-9.53497
▁רקע	-9.53568
K	-9.53628
▁❤	-9.53641
▁נחת	-9.53651
▁גרם	-9.53695
▁בעת	-9.53902
▁פתוח	-9.53972
▁לחלוטין	-9.53978
▁צבע	-9.54052
▁מלך	-9.54068
▁החוץ	-9.5407
▁טראמפ	-9.54124
▁מתנה	-9.5426
▁להזמין	-9.54297
▁להשיג	-9.54395
▁ניר	-9.54569
html	-9.54611
▁שקט	-9.54703
עם	-9.54732
▁בקלות	-9.54745
▁חח	-9.54749
▁נעשה	-9.54777
▁בע	-9.54837
▁לוח	-9.54865
p	-9.54898
▁האימייל	-9.54945
▁ילדה	-9.55042
▁כוס	-9.5508
▁קורס	-9.5509
▁ועם	-9.551
▁ואנחנו	-9.55108
▁הגוף	-9.55142
▁כזו	-9.55175
▁צפוי	-9.55236
▁שכר	-9.55354
▁וכמובן	-9.55377
▁אצלי	-9.55406
אנחנו	-9.55531
▁ליברמן	-9.55596
▁באהבה	-9.55621
▁רפואי	-9.55642
▁נשמה	-9.55793
E	-9.55804
▁היחידה	-9.55915
▁מוצרי	-9.55986
▁באותו	-9.5604
▁שחור	-9.56066
▁בחוץ	-9.56081
תם	-9.56117
▁יעוץ	-9.56182
▁some	-9.56264
h	-9.56274
▁אחרות	-9.56286
▁בפעם	-9.56409
▁לטובת	-9.56452
▁לשבת	-9.56651
▁נהדרת	-9.56758
▁מאחורי	-9.56836
▁כתבה	-9.56861
▁נמסר	-9.56988
▁בשטח	-9.57009
▁שרק	-9.57077
▁בשנים	-9.57081
▁מהמם	-9.57113
▁כרטיסים	-9.57117
▁הראש	-9.57129
יהם	-9.57135
▁רשות	-9.572
▁כלפי	-9.57215
בית	-9.57265
▁שוק	-9.57292
▁התמונה	-9.57348
▁הירקון	-9.57394
▁ממנה	-9.57446
▁נתניה	-9.57465
▁ממשלת	-9.57494
▁בסיס	-9.57505
▁הרשמי	-9.57524
g	-9.57566
▁פורסם	-9.57573
▁השנייה	-9.57574
▁שונה	-9.57606
▁D	-9.57716
▁there	-9.57721
▁שיתוף	-9.57729
▁בנק	-9.57732
▁other	-9.57776
▁ישר	-9.57829
▁ממליץ	-9.57854
▁תקופה	-9.57891
▁עיר	-9.57891
▁להוציא	-9.57924
▁היתר	-9.58028
▁יפים	-9.58093
▁לעוד	-9.58097
▁אותן	-9.58238
▁עלה	-9.58331
▁were	-9.58359
▁מדוע	-9.58439
▁ממה	-9.58462
▁what	-9.58719
▁שיניים	-9.58769
▁שמן	-9.58842
▁מוכן	-9.5887
▁שכבר	-9.58902
▁מראה	-9.58903
▁הזדמנות	-9.58947
▁לעבר	-9.59002
▁ידידותי	-9.59018
▁עשו	-9.59051
▁המ	-9.59051
▁get	-9.59101
▁מנות	-9.59153
▁had	-9.59175
▁שרה	-9.59233
▁just	-9.59386
l	-9.59424
▁הסכם	-9.59609
▁אבו	-9.59622
▁יאללה	-9.59847
▁them	-9.59906
▁אמרתי	-9.59906
▁הברית	-9.59916
▁website	-9.60001
▁הזכויות	-9.60047
▁פרק	-9.60131
▁הכסף	-9.60137
▁בכך	-9.60159
▁$	-9.60381
▁חזרה	-9.60486
▁הקיץ	-9.60497
▁איתן	-9.60551
▁יוצג	-9.60571
▁ציבור	-9.6061
▁הפרטים	-9.60703
▁בשר	-9.60727
▁בדרום	-9.60749
▁דיווח	-9.60775
▁שוקולד	-9.60821
וש	-9.60847
▁would	-9.60859
▁בסך	-9.60892
▁גברים	-9.61018
▁ביטוח	-9.61069
▁סיבה	-9.61085
▁התוכנית	-9.61137
▁וי	-9.61165
▁לבקר	-9.6125
▁קבוצה	-9.61274
▁הינו	-9.61315
▁כשה	-9.61316
▁קוראים	-9.61344
▁23	-9.61367
▁דור	-9.61407
▁סביב	-9.61479
▁קובץ	-9.61593
▁תא	-9.61612
▁תרבות	-9.61645
▁בעד	-9.61835
▁ציוצים	-9.61937
▁טעם	-9.61971
▁אורחים	-9.62017
▁שמו	-9.62051
▁כזאת	-9.62077
▁אלוף	-9.62092
▁בכנסת	-9.62134
▁היטב	-9.62136
▁במערכת	-9.62187
▁בגין	-9.6229
▁משפחת	-9.62301
▁לשים	-9.62331
▁למנוע	-9.62357
▁הסיפור	-9.62379
▁אמור	-9.62384
▁שאלות	-9.6241
▁first	-9.6243
▁להרחיב	-9.62553
▁אמרו	-9.62611
▁נשאר	-9.62689
הוא	-9.6271
▁וש	-9.62716
▁נותן	-9.62796
▁מהבית	-9.62917
▁הללו	-9.62954
▁מקבלים	-9.62973
▁מזון	-9.63225
▁נורא	-9.63328
▁שאם	-9.63333
▁אזור	-9.63354
▁מציעה	-9.63378
▁בתוכנית	-9.63399
Shared	-9.63406
▁מושלמת	-9.63738
▁אהובה	-9.6382
▁כרטיס	-9.63832
▁שבועות	-9.63871
▁לקבלת	-9.63887
▁Cohen	-9.63911
▁ועכשיו	-9.64085
▁בתגובה	-9.64109
▁לישון	-9.64248
▁כח	-9.64282
▁בנו	-9.64426
▁לכתוב	-9.64432
▁באמצע	-9.64552
▁חולה	-9.64585
▁במידה	-9.64646
▁מבינה	-9.64671
▁נתן	-9.64722
▁פיתוח	-9.64812
▁גורם	-9.64831
▁מיוחדים	-9.64835
▁בשיתוף	-9.64881
▁החדשות	-9.64941
▁me	-9.65002
▁יהודית	-9.65036
▁חמאס	-9.65094
▁מצוין	-9.65095
▁כנגד	-9.65138
▁עדן	-9.65183
▁לכבוד	-9.65189
▁בריא	-9.65209
▁חנות	-9.65332
▁גמר	-9.65384
▁מכשירים	-9.65451
▁ארוך	-9.65612
▁המערכת	-9.65767
▁גאה	-9.65842
▁ברגע	-9.6594
▁רבי	-9.65968
▁עצמם	-9.66033
▁משחקים	-9.6608
▁פרס	-9.66195
▁ואפילו	-9.66218
▁said	-9.66228
▁חושבים	-9.6625
▁1.	-9.6626
▁דרעי	-9.66306
▁קורא	-9.66343
▁רחב	-9.66399
▁צהריים	-9.66403
▁שמעון	-9.66403
▁מתן	-9.66462
פי	-9.66546
▁לעיל	-9.66567
▁אריאל	-9.66569
▁בחדר	-9.66578
▁into	-9.66636
▁מזמן	-9.66651
▁פרסומת	-9.66798
▁סמוך	-9.66949
▁דן	-9.66961
▁עתיד	-9.67032
▁לציין	-9.67069
▁בוא	-9.67097
▁הצטרפו	-9.67123
▁אמיר	-9.67246
▁היקרה	-9.67258
▁יובל	-9.67329
▁You	-9.6738
▁הסרט	-9.6749
▁90	-9.6751
▁המצורף	-9.67539
▁פרויקט	-9.67556
▁ציון	-9.67584
▁בכפר	-9.67592
▁תורה	-9.67643
▁לצפות	-9.67673
▁מפלגת	-9.67684
▁ממך	-9.67719
▁קובי	-9.67762
▁עובר	-9.6796
▁לצורך	-9.6796
▁תכנית	-9.68038
▁מסר	-9.68075
▁גנץ	-9.68179
הם	-9.6823
>/?	-9.68364
▁כמות	-9.68405
L	-9.68499
▁פני	-9.68674
▁בארה	-9.68785
▁אדום	-9.68835
▁לרכוש	-9.68843
▁מסמך	-9.68848
▁הלימודים	-9.68849
▁מרגיש	-9.68865
▁סרט	-9.68873
▁לראש	-9.68989
▁מוזיקה	-9.69082
▁אריה	-9.6912
▁להכיר	-9.69161
▁אישור	-9.69184
▁חוסר	-9.69206
▁צודק	-9.69525
V	-9.69695
▁i	-9.69699
▁צעיר	-9.69861
▁לבנות	-9.69883
▁please	-9.69909
▁למטיילים	-9.69917
▁בחירה	-9.69981
▁דירת	-9.70016
▁מדברים	-9.701
▁מטר	-9.70127
▁מהיר	-9.70146
▁הנוער	-9.70155
12	-9.70286
▁its	-9.70331
▁הממוצע	-9.70404
▁דה	-9.70446
▁מחכים	-9.70511
')	-9.7058
▁2014	-9.70613
▁עסק	-9.70773
▁הפייסבוק	-9.70778
in	-9.7084
▁Bar	-9.70914
▁בתחילת	-9.70996
▁שטוח	-9.71012
▁מאחלת	-9.71025
▁ביקורת	-9.71029
▁להציע	-9.71069
▁T	-9.71201
▁המשפטית	-9.71234
▁ימין	-9.71253
▁פרופ	-9.71268
▁משטרת	-9.71431
▁פוסט	-9.71444
▁סדר	-9.71492
\	-9.71518
▁משמעותי	-9.71649
▁users	-9.7166
▁ליאור	-9.71695
▁שינה	-9.71771
▁נכנס	-9.71829
▁תשלום	-9.71863
▁איתנו	-9.71888
▁מקסימה	-9.72075
▁למעשה	-9.72214
▁הפעילות	-9.72241
▁מתוק	-9.72367
▁שיעור	-9.7239
▁שעברה	-9.72423
▁2.	-9.72455
?!	-9.72462
▁שטח	-9.72477
▁אלוהים	-9.72491
▁51261	-9.72596
▁יכולת	-9.7262
▁פתרון	-9.72695
X	-9.72716
▁הרכבת	-9.72768
▁over	-9.72799
▁פעיל	-9.72807
▁מוקדם	-9.72978
▁אודות	-9.73079
▁''	-9.73081
▁צעירים	-9.73102
▁אליה	-9.73115
▁הולכים	-9.73177
כן	-9.73224
▁שת	-9.7324
▁למשפחות	-9.73279
▁תהליך	-9.73334
▁מעלה	-9.73358
▁המחירים	-9.73359
▁V	-9.73431
▁עמית	-9.7354
▁ובנוסף	-9.73568
▁than	-9.73597
▁מנהלת	-9.73643
▁הלוואי	-9.73737
▁יואב	-9.73761
▁תוצאות	-9.73784
▁ן	-9.73794
▁עץ	-9.73929
▁איתם	-9.7393
▁השאר	-9.73984
down	-9.73984
▁עליי	-9.73999
▁לטיפול	-9.74026
▁עליכם	-9.74055
ve	-9.74058
▁הולכת	-9.74072
ינג	-9.74076
▁היחיד	-9.74201
▁שמה	-9.74284
▁עופר	-9.74393
▁מאי	-9.74449
▁אותכם	-9.74449
▁מענה	-9.74498
▁2018	-9.74535
▁להתמודד	-9.74538
▁ישראלים	-9.7462
▁שחקן	-9.74752
▁בצד	-9.74793
שבת	-9.7495
▁ידוע	-9.74964
▁שמונה	-9.74974
▁הסרטון	-9.74997
סגור	-9.75002
▁שולחן	-9.75032
▁לבני	-9.75043
▁בטלפון	-9.75095
▁how	-9.75155
▁לחיים	-9.75175
▁בעיות	-9.75347
▁00.	-9.75415
▁מועדון	-9.7543
▁כללי	-9.7556
▁כלבים	-9.75571
▁בכדי	-9.75595
▁להצטרף	-9.75616
▁דר	-9.75633
▁קדימה	-9.75652
▁האיש	-9.75724
▁כנסת	-9.75754
▁people	-9.7579
▁לפעול	-9.75812
▁הימין	-9.75886
▁במשחק	-9.7597
▁רחוק	-9.75996
▁האינטרנט	-9.76056
▁מזכיר	-9.76081
▁וכך	-9.76122
▁גביר	-9.76164
▁דני	-9.76199
▁ביצוע	-9.76205
▁70	-9.76265
▁בפתח	-9.76265
▁עצמך	-9.76293
▁הגיעה	-9.76305
▁פעמיים	-9.76316
▁שניה	-9.76382
▁גוף	-9.76501
▁רה	-9.76543
▁נוער	-9.76621
▁כשהוא	-9.7665
▁מעולם	-9.76666
▁גורמים	-9.76699
▁בשלב	-9.7672
▁2016	-9.76744
▁תושב	-9.76753
▁הצעת	-9.76767
▁no	-9.76772
▁//	-9.76781
▁לעלות	-9.76801
▁שמאל	-9.7685
▁רון	-9.76854
▁באירוע	-9.76858
בי	-9.76942
▁ערבים	-9.77018
▁בגן	-9.77034
▁במטרה	-9.7712
▁עדי	-9.77205
▁ארץ	-9.7721
▁אנא	-9.77337
▁עידן	-9.77413
▁ואמר	-9.77481
▁make	-9.77572
▁טיול	-9.77582
▁אינם	-9.77633
▁חרדים	-9.77636
▁אורן	-9.77652
▁יורק	-9.77742
▁מהירה	-9.77817
▁פייסבוק	-9.77838
▁drop	-9.77843
▁הטיפול	-9.77862
▁מפני	-9.7788
▁צבא	-9.77963
13	-9.78016
▁ענקית	-9.78107
▁לנשים	-9.78194
▁קשור	-9.782
▁התנועה	-9.78281
▁לחברה	-9.78451
▁H	-9.78457
▁יחידות	-9.78535
▁הטובים	-9.7863
▁מתה	-9.78666
▁הכתבה	-9.78745
▁2019	-9.78745
▁המידע	-9.78785
▁דרכים	-9.7889
▁שחר	-9.78891
:)	-9.78919
▁הבן	-9.79008
▁הוועדה	-9.79012
▁עורך	-9.79074
al	-9.7908
▁select	-9.79081
▁נעימה	-9.79151
לחץ	-9.79172
▁סיום	-9.79251
▁משמעותית	-9.79307
▁אליך	-9.79312
▁אילן	-9.79362
7340,	-9.79367
כתובת	-9.79414
▁פרי	-9.79566
▁פתיחת	-9.79598
▁appropriate	-9.79688
▁גישה	-9.79707
▁עמוד	-9.7972
▁נוף	-9.79781
▁זוהר	-9.79786
▁ארבעה	-9.79839
▁אליי	-9.79878
▁כלב	-9.79882
▁קלה	-9.79883
F	-9.79943
▁אירופה	-9.79978
▁ובכל	-9.80005
▁קרית	-9.80019
עד	-9.80054
▁מועצת	-9.80113
▁שירותים	-9.80116
▁השהות	-9.80119
▁השלישי	-9.80181
▁תמיכה	-9.80248
▁נמצאת	-9.80257
▁חיל	-9.80274
▁מכירים	-9.8031
▁טרור	-9.80321
▁menu	-9.80334
▁שירים	-9.80417
▁התעופה	-9.80498
▁לקנייה	-9.80534
▁link	-9.8063
11	-9.80696
▁נקי	-9.80702
▁דרושים	-9.80705
▁בבחירות	-9.80906
▁בערך	-9.80991
▁רצון	-9.81055
▁כושר	-9.81062
▁הינה	-9.81166
▁200	-9.81234
▁מגיעה	-9.81283
נית	-9.81305
▁הקודם	-9.81313
▁לדרך	-9.81359
▁מדינות	-9.81475
▁החברים	-9.81559
▁תנאי	-9.81635
▁שרוצה	-9.8165
▁ההחלטה	-9.81799
▁לשחק	-9.81839
▁שמורות	-9.81864
▁אווירה	-9.82008
▁מתכון	-9.82028
▁פיננסיים	-9.82062
▁מצפה	-9.82078
▁יוצאת	-9.82129
▁עור	-9.8219
▁הנראה	-9.82265
▁בטוחה	-9.82283
חחחחחחחחחחחחחחחח	-9.82284
▁ואולי	-9.82332
▁הוסיף	-9.82366
אי	-9.82405
▁P	-9.82423
▁צור	-9.82426
▁פתאום	-9.8243
▁ביקור	-9.82458
es	-9.82467
▁G	-9.82509
▁הסיבה	-9.82557
▁רצח	-9.82599
▁בינוני	-9.82795
▁העובדים	-9.82807
▁feeling	-9.8288
▁באה	-9.82966
▁הכול	-9.82968
▁בעבודה	-9.82995
▁חוויה	-9.83003
▁p	-9.83022
The	-9.83031
▁אלופה	-9.83059
▁דגם	-9.83068
▁סביר	-9.83107
▁איתה	-9.83141
נות	-9.83306
▁בערוץ	-9.83352
▁טעות	-9.83399
▁הסביבה	-9.83471
▁שירה	-9.83687
▁כאלו	-9.83736
▁העסק	-9.83755
▁resident	-9.83819
▁עורכי	-9.83846
▁תוכל	-9.83873
▁הרגע	-9.83923
▁וזאת	-9.83925
▁לנצח	-9.83933
▁מין	-9.83975
▁דרום	-9.84102
▁תואר	-9.84116
▁נשמח	-9.84116
▁חיילים	-9.84124
▁סגן	-9.84144
▁מקור	-9.84177
▁J	-9.84217
▁זהב	-9.84298
▁26	-9.84307
▁הרשת	-9.84355
▁בכיר	-9.84377
▁המרכזית	-9.84438
▁E	-9.84442
▁ואתה	-9.84484
▁ארבע	-9.84496
▁מלכה	-9.84553
▁שקד	-9.84597
▁addressed	-9.84768
▁סיכוי	-9.84806
▁קמ	-9.84818
▁המשרד	-9.84819
▁משטרה	-9.84836
u	-9.84866
▁הלא	-9.84988
▁מבלי	-9.85079
▁ירוק	-9.85151
▁Tripadvisor	-9.85165
z	-9.85167
▁זכות	-9.85224
▁מסעדות	-9.85227
▁יגיע	-9.85382
▁work	-9.85427
▁הלאומי	-9.85452
man	-9.85533
H	-9.85585
▁מפקד	-9.85815
▁בהן	-9.85843
▁הרשות	-9.85862
▁חכם	-9.85921
▁אחותי	-9.85923
▁לאן	-9.86011
▁האלו	-9.86023
▁הודיע	-9.86025
▁בחירות	-9.86119
▁החברות	-9.86127
▁ספרים	-9.86169
▁עובדי	-9.86284
▁מוכר	-9.86312
▁יעל	-9.86439
▁ושוב	-9.86457
▁ות	-9.86512
▁מאוחר	-9.86518
▁הספורט	-9.86534
▁מנחם	-9.86606
▁התרבות	-9.86636
▁לספר	-9.86804
▁חיה	-9.86839
▁ממליצה	-9.8698
▁סדרת	-9.87065
gt	-9.87107
▁ברכה	-9.87114
▁וכמה	-9.8735
▁מצוינת	-9.87372
▁הנושא	-9.87385
▁באמור	-9.87431
▁מקצוע	-9.87481
▁27	-9.87584
▁well	-9.87614
▁קר	-9.87714
▁בנוגע	-9.87715
▁מקצועית	-9.87802
❤	-9.87807
▁ישי	-9.8787
▁חופש	-9.87955
זו	-9.87968
▁חולון	-9.8798
▁סיפר	-9.87986
▁שאר	-9.88011
▁תשובה	-9.88083
R	-9.88184
▁ואיך	-9.88188
▁אמיתית	-9.88235
▁מתחילים	-9.88243
▁מיכאל	-9.8832
▁העובדה	-9.88378
▁two	-9.88448
▁היפה	-9.88534
▁מצליח	-9.8858
▁חמש	-9.88582
▁שיותר	-9.88722
וב	-9.88778
ישראל	-9.88894
▁טרי	-9.88923
▁לעצור	-9.8904
▁שתהיה	-9.89065
▁מביא	-9.89176
▁only	-9.89182
▁השלום	-9.89221
▁הזוג	-9.8928
▁חיות	-9.89285
▁החשמל	-9.89337
▁לחפש	-9.89364
▁אפשרי	-9.89409
▁רופא	-9.89416
▁de	-9.89418
▁28	-9.89499
▁להוריד	-9.89567
▁מותר	-9.89639
▁הפרויקט	-9.89658
▁להפסיק	-9.89671
▁הצעות	-9.89682
▁ושל	-9.89706
▁הרפורמה	-9.89775
▁תעשה	-9.8979
▁לרגל	-9.89799
▁וואי	-9.89812
▁בבתי	-9.89813
▁לג	-9.89861
▁ציוד	-9.89867
▁ביטחון	-9.90044
▁אבן	-9.90065
יק	-9.9009
▁רוני	-9.90132
אן	-9.90132
▁מזרחי	-9.90135
▁והן	-9.90204
▁מיזוג	-9.90224
▁חלב	-9.90233
▁לארץ	-9.90253
▁חחחחחחח	-9.90278
▁↑	-9.903
▁מוצר	-9.90301
▁דם	-9.90322
▁מסוג	-9.90372
▁יח	-9.90432
▁והכי	-9.90627
▁יחסית	-9.90652
▁מור	-9.90658
▁צו	-9.90698
▁פרטית	-9.90712
▁כלומר	-9.9077
▁במקביל	-9.90794
▁לציבור	-9.908
▁רועי	-9.908
▁תקציב	-9.9081
▁מצויין	-9.90816
▁איציק	-9.90833
|	-9.90873
▁בידי	-9.90906
▁מטעם	-9.90931
▁במספר	-9.91004
▁הזמר	-9.91028
▁לפגוע	-9.91051
▁K	-9.91094
▁החלטה	-9.91124
▁מאיתנו	-9.91152
▁שמ	-9.91172
▁האישה	-9.91338
▁חדרי	-9.91546
▁לשיר	-9.91575
▁שמואל	-9.916
▁הדירה	-9.916
▁טבע	-9.91645
▁יין	-9.91701
▁מג	-9.91727
של	-9.9175
▁נוח	-9.91762
▁המלך	-9.91791
▁any	-9.91819
▁איכותי	-9.91819
▁ראוי	-9.91968
▁מבחינת	-9.91976
▁אסף	-9.92033
▁טבעי	-9.92044
▁מבינים	-9.92048
▁וכי	-9.92094
▁need	-9.92108
▁הכניסה	-9.92129
▁עלייה	-9.92129
▁כלים	-9.92132
▁כייף	-9.92208
▁האש	-9.92272
▁קומה	-9.92337
▁ירי	-9.92339
▁בשבילך	-9.92343
▁גדולות	-9.92371
▁רציתי	-9.92371
▁החליט	-9.92513
▁מוגבל	-9.9255
▁חומר	-9.92555
▁צהל	-9.92604
▁בעלת	-9.92702
▁החשוד	-9.92718
▁הימים	-9.92724
th	-9.92739
▁באינטרנט	-9.92798
שני	-9.92799
▁התלמידים	-9.9289
▁ישיבה	-9.92904
▁להגיש	-9.92908
ההה	-9.9292
v	-9.9294
▁m	-9.92971
▁שזו	-9.9298
▁הרצליה	-9.9309
▁אשקלון	-9.93142
▁להכין	-9.93212
▁מזג	-9.93382
▁התמונות	-9.93419
▁בתמונה	-9.93479
▁80	-9.93482
רים	-9.93517
▁very	-9.93519
▁סוגי	-9.93578
▁מוטי	-9.93674
▁מבצעים	-9.93695
▁המלצות	-9.93724
20	-9.93787
▁ידעתי	-9.938
ll	-9.93899
▁most	-9.93906
▁ישירות	-9.93923
▁באירופה	-9.93925
▁אתרים	-9.93977
▁בניגוד	-9.94059
or	-9.9408
▁לזכות	-9.94126
▁עשיתי	-9.94202
▁אלימות	-9.9427
▁ייעוץ	-9.94281
▁לבעלי	-9.94385
▁ולאחר	-9.94386
▁באותה	-9.944
▁מסכים	-9.94471
▁האלבום	-9.94473
▁ממשיך	-9.94528
▁האזינו	-9.94671
▁הקרובים	-9.94725
▁מפגש	-9.94851
▁שיווק	-9.94867
▁רעיון	-9.94952
▁שופטים	-9.94965
▁להשכרה	-9.95022
▁קבוצות	-9.95051
▁מבחר	-9.95123
▁הפך	-9.95154
▁ב־	-9.95176
▁תלוי	-9.95215
▁use	-9.95263
▁המפלגה	-9.95282
▁הטבע	-9.95299
▁after	-9.9531
▁He	-9.95356
▁כאמור	-9.95375
▁כחלון	-9.9545
▁היהודים	-9.95493
▁שנייה	-9.95526
▁הנשים	-9.9558
▁רגב	-9.95582
▁הצדדים	-9.95595
▁מישהי	-9.9567
▁הקמת	-9.95673
▁מנוע	-9.95746
▁אמנם	-9.95789
▁שער	-9.95819
▁בפנים	-9.95828
▁הגדולים	-9.95862
▁מנדטים	-9.95885
▁אישום	-9.95893
▁השעות	-9.95948
▁להתחבר	-9.9596
▁השניים	-9.96044
▁500	-9.96065
▁2013	-9.96109
אנו	-9.96133
▁F	-9.96138
▁בריכה	-9.96221
▁אליהו	-9.96262
▁קבלה	-9.96316
▁נס	-9.96334
▁השימוש	-9.964
▁תת	-9.96404
▁לטפל	-9.96406
▁בתקופה	-9.96489
▁הסוף	-9.96523
קה	-9.96537
▁רגל	-9.96539
▁מרכזי	-9.96574
▁חלום	-9.96647
▁איתמר	-9.9668
▁מחקר	-9.96762
▁us	-9.96794
▁יהי	-9.96908
▁העסקה	-9.96954
▁מאמינה	-9.96997
▁לאחד	-9.97013
▁דובר	-9.97019
▁צדק	-9.97026
▁שמדובר	-9.97052
▁לשנה	-9.97111
▁דיון	-9.97153
▁האח	-9.97163
▁ברחובות	-9.97226
▁נגמר	-9.9728
קו	-9.97371
▁התחבורה	-9.97373
▁מצווה	-9.9748
▁משפחות	-9.97504
▁אלעד	-9.97518
▁ובעיקר	-9.97546
▁הטובה	-9.97556
▁=	-9.97574
▁נהג	-9.976
Y	-9.97627
▁לתפקיד	-9.97744
▁רחובות	-9.97753
▁עומר	-9.97863
▁וידאו	-9.97873
w	-9.97885
▁עוזר	-9.97898
▁במשטרה	-9.9797
▁מאור	-9.98075
▁ממשיכים	-9.98113
▁כולו	-9.98126
▁שלומי	-9.98135
▁ציוני	-9.98151
▁יבוא	-9.98155
▁good	-9.98297
▁תנו	-9.98299
▁שמי	-9.98345
וני	-9.98435
▁שילוב	-9.98444
▁שיא	-9.98447
▁המלא	-9.98499
▁למדינה	-9.98522
▁ביטון	-9.98631
▁זוכה	-9.98652
▁בשני	-9.98673
▁פורום	-9.98703
▁ברכות	-9.98754
▁כואב	-9.98853
▁עובדת	-9.98864
▁year	-9.98893
▁הרצוג	-9.98927
▁הביקור	-9.98938
▁יוני	-9.98976
▁אמנות	-9.99011
▁מתוקה	-9.9904
▁סט	-9.99115
▁ניתוח	-9.99125
▁ביניהם	-9.99163
▁חייל	-9.9919
▁שניתן	-9.99196
▁these	-9.99244
▁כחלק	-9.99253
▁בואי	-9.99264
▁סוכר	-9.99302
▁now	-9.99313
▁ביממה	-9.99315
▁לסייע	-9.99353
▁לוין	-9.99443
▁המחאה	-9.99494
▁יוכל	-9.99545
▁הטרור	-9.99555
▁המסעדה	-9.9958
▁בינתיים	-9.99652
▁החרדי	-9.997
▁יעשה	-9.99753
▁בשכונת	-9.99755
▁השונים	-9.9978
▁לגלות	-9.9981
▁פתרונות	-10.001
▁מאפשר	-10.001
▁התושבים	-10.0011
▁בסופו	-10.0012
▁בפועל	-10.0017
▁Update	-10.0021
▁שתמיד	-10.0021
▁זוכר	-10.0022
-3	-10.0032
מת	-10.0032
▁העיקר	-10.0046
▁ארוכה	-10.0056
▁ויותר	-10.0082
▁פעולות	-10.0083
▁מטבח	-10.0084
▁חמישה	-10.0088
▁השהייה	-10.0091
▁Inn	-10.0102
▁דק	-10.0106
▁לגרום	-10.0117
▁הקהל	-10.0119
▁35	-10.0123
N	-10.0129
▁מחירי	-10.0135
▁way	-10.0136
▁בחשבון	-10.014
▁בסרטון	-10.0141
▁הראשי	-10.0144
W	-10.0145
J	-10.0154
▁כתבות	-10.0159
▁בראיון	-10.0159
▁אינטרנט	-10.0162
▁3.	-10.0162
▁כדורגל	-10.0167
▁אוי	-10.0168
▁צבי	-10.0169
▁תעשו	-10.017
▁גרוע	-10.017
▁ולכל	-10.0174
▁חיבור	-10.0176
לו	-10.0176
▁נעצר	-10.0178
▁להחליף	-10.018
▁בתאריך	-10.018
▁הנכון	-10.0181
▁מחירון	-10.0183
▁הדר	-10.0188
▁back	-10.0188
▁לשאול	-10.0196
▁חוף	-10.0197
▁יחסי	-10.0201
▁לכיוון	-10.0202
▁שמעתי	-10.0203
▁העניין	-10.0209
▁להחזיר	-10.0209
▁פיצה	-10.021
▁סגור	-10.0212
▁Status	-10.0217
▁יומיים	-10.0218
▁תחום	-10.0219
▁סניף	-10.0222
▁מיום	-10.0227
▁שימו	-10.0229
▁גב	-10.0229
▁זול	-10.0231
▁לשני	-10.0237
▁הקטן	-10.0239
▁להעלות	-10.0243
▁המבצע	-10.0245
▁הקהילה	-10.0245
▁כחול	-10.0246
▁מכיוון	-10.0249
▁פארק	-10.0249
▁המציאות	-10.0251
▁שהן	-10.0252
▁צפון	-10.0254
-20	-10.0254
▁may	-10.0262
▁יוכלו	-10.0265
▁סליחה	-10.0272
▁ואתם	-10.0272
די	-10.0279
▁כביש	-10.0282
▁שיכול	-10.0289
▁אליכם	-10.029
▁יצאו	-10.0292
▁להאמין	-10.0292
▁נותנים	-10.0302
▁והכל	-10.0307
▁נראית	-10.0309
▁תאריך	-10.0309
▁נבחרת	-10.031
יך	-10.0313
▁מעלות	-10.0314
▁באילת	-10.0314
▁יפות	-10.0319
▁יוצאים	-10.0321
▁הקרובה	-10.0321
▁בעזה	-10.0322
▁חזקה	-10.033
▁מחלקת	-10.0331
▁למשחק	-10.0332
▁she	-10.0338
▁יכולות	-10.0339
▁החודש	-10.034
▁לרגע	-10.0344
▁טרם	-10.0348
▁שקורה	-10.0351
▁נשק	-10.0354
▁אדיר	-10.0354
▁תכנים	-10.0358
▁נכונה	-10.0362
▁years	-10.0365
▁ואל	-10.0366
▁בקבוצה	-10.0367
▁**	-10.0369
▁help	-10.0371
▁לקח	-10.0371
▁באיזה	-10.0371
▁לאפשר	-10.0376
▁חום	-10.0376
▁2012	-10.0378
wi	-10.038
אתה	-10.0391
▁שבא	-10.0395
▁גז	-10.0396
▁כץ	-10.0401
▁many	-10.0404
▁קיבלו	-10.0406
▁הודיעה	-10.0407
▁מאמי	-10.0409
▁דנה	-10.0409
▁תנועה	-10.041
▁הארגון	-10.041
▁אליהם	-10.0417
▁מעוניין	-10.0418
▁תראה	-10.0425
הה	-10.0428
ונים	-10.0435
▁אימון	-10.0439
▁בעומר	-10.0449
▁מגן	-10.0454
▁through	-10.0458
▁לוודא	-10.0458
▁קבלו	-10.0458
▁בכביש	-10.0466
▁קיבלתי	-10.0476
▁במסעדה	-10.048
O	-10.0481
▁תוכן	-10.0482
▁כתוצאה	-10.0498
▁ואהבה	-10.05
אביב	-10.0501
▁בקשה	-10.0503
▁עוף	-10.0521
▁לוקח	-10.0522
▁הלקוחות	-10.0526
▁דקה	-10.0538
▁שוטרים	-10.0547
▁שבועיים	-10.0548
▁דברי	-10.055
▁כנסו	-10.0559
▁האהבה	-10.0563
▁מורה	-10.0564
▁עמותת	-10.0565
on	-10.0566
▁כפרה	-10.0573
▁מחשב	-10.0579
▁התכנית	-10.0588
▁והיה	-10.0594
▁במהירות	-10.0595
▁גר	-10.0604
▁נתונים	-10.0624
▁העצמאות	-10.0626
נין	-10.0627
▁נפצע	-10.0627
כמו	-10.0633
▁שהגיע	-10.0633
▁שש	-10.0633
▁כדור	-10.0637
▁גבי	-10.0644
▁פלוס	-10.0658
▁נסיעה	-10.0662
▁29	-10.0664
מו	-10.0666
news	-10.0667
▁רוסיה	-10.0667
▁לאט	-10.0672
▁לחודש	-10.0675
▁מופע	-10.0685
▁זכה	-10.0685
▁כספי	-10.0695
▁להרגיש	-10.0701
▁ישנה	-10.0706
▁מושג	-10.071
▁n	-10.0714
▁כיוון	-10.0715
▁בעתיד	-10.0717
▁קהל	-10.0723
▁פירות	-10.0723
▁באים	-10.0724
▁חשובה	-10.0726
▁המשפטים	-10.0728
▁לצערי	-10.0732
▁מצאתי	-10.0732
▁התחיל	-10.0732
▁הביטוח	-10.0733
▁קיץ	-10.0733
▁מימון	-10.0737
קי	-10.0738
▁אופן	-10.0745
▁מחוז	-10.0751
▁תמר	-10.0755
▁קישור	-10.0755
▁300	-10.0756
▁חמוד	-10.0768
▁מוכנים	-10.0784
▁המלאה	-10.0787
▁לחוות	-10.0795
▁שליט	-10.0796
▁לידי	-10.0798
▁רגיל	-10.0803
▁לבקש	-10.0803
▁ביד	-10.0805
▁ערבי	-10.0805
▁המקומית	-10.0809
▁ירידה	-10.081
▁קטנות	-10.0812
▁החרדים	-10.0812
▁מחבלים	-10.0816
תת	-10.0816
▁נפתח	-10.0818
▁עמוס	-10.0821
▁ישראלית	-10.0822
▁מכירות	-10.0825
▁עלות	-10.0825
▁החדשים	-10.0826
▁בול	-10.0827
▁כשאני	-10.0834
▁W	-10.0841
15	-10.0842
▁חנה	-10.085
▁מרגישה	-10.086
▁גודל	-10.0864
▁מלחמה	-10.0874
▁הלך	-10.0877
▁קבוע	-10.0878
▁know	-10.088
▁מלח	-10.0881
▁אופציה	-10.0888
▁לחוק	-10.0891
▁שלם	-10.0894
▁וללא	-10.0901
▁ניו	-10.0902
▁המוצרים	-10.0906
▁קריית	-10.0908
▁באיזור	-10.0909
▁ציבורית	-10.0926
▁מאיפה	-10.0928
▁מגיב	-10.0937
▁ממוקם	-10.0943
nbsp	-10.0947
▁התיכון	-10.0948
▁קבע	-10.0949
▁מדיניות	-10.0953
▁בבאר	-10.0954
▁מתחם	-10.0954
▁כשר	-10.096
▁שחקנים	-10.0972
▁בראשון	-10.0976
▁במאי	-10.0977
▁הראשונים	-10.0979
▁בימי	-10.098
▁לימוד	-10.0986
▁מבקש	-10.0988
ול	-10.0992
▁תותח	-10.0994
▁תקף	-10.0997
▁אחרונות	-10.1006
▁פונה	-10.102
▁זאב	-10.1029
▁סל	-10.1035
▁ולה	-10.1039
בת	-10.1042
▁אנוש	-10.1049
▁see	-10.1052
▁לעצמי	-10.1054
▁much	-10.1054
▁סקר	-10.1054
▁ירד	-10.1055
▁R	-10.1062
▁העל	-10.1063
permalink	-10.1072
▁משתמשים	-10.1085
▁מהווה	-10.1091
▁לכאן	-10.1091
▁חדרה	-10.11
▁להכניס	-10.1102
▁מסע	-10.1102
▁מכך	-10.1107
▁זוהי	-10.111
▁פרשת	-10.1122
▁לקדם	-10.1124
▁דומים	-10.1129
▁רחל	-10.113
▁רח	-10.1138
▁התפקיד	-10.1142
▁החלה	-10.1155
▁חוזרים	-10.1159
▁נפתלי	-10.1159
▁כאב	-10.1163
▁הראל	-10.1163
▁השוק	-10.1167
▁לדף	-10.1175
▁המחבל	-10.1178
▁יתקיים	-10.1179
▁ynet	-10.1181
▁התשובה	-10.1185
▁כולן	-10.1188
▁חוקי	-10.1191
▁could	-10.1192
▁צד	-10.1193
▁נאמר	-10.1193
▁עברו	-10.1195
▁עשר	-10.121
וס	-10.1212
▁והסביבה	-10.1217
▁מנסים	-10.1217
▁לממשלה	-10.1228
▁where	-10.124
▁שמע	-10.1246
el	-10.125
▁חופשי	-10.125
▁חיפוש	-10.1253
▁שמישהו	-10.126
▁2011	-10.1263
איך	-10.1263
▁מידה	-10.1263
▁למצב	-10.1267
▁הקטנה	-10.1273
▁יעזור	-10.1273
▁להן	-10.1282
▁במחירים	-10.1284
▁מרפסת	-10.1285
▁מאמן	-10.1289
▁לתוך	-10.1294
▁לדברי	-10.1303
▁הצורך	-10.1315
▁עשוי	-10.1315
▁תחנת	-10.132
▁צעד	-10.1321
▁בניין	-10.1329
▁ניצחון	-10.133
▁כבד	-10.133
▁ארז	-10.1333
▁פגיעה	-10.1336
▁להורים	-10.1336
▁הבנק	-10.1337
▁מבורך	-10.1342
▁נמאס	-10.1342
▁למכור	-10.1345
▁לרוב	-10.1346
▁בחיי	-10.1347
-10	-10.1349
▁הצבא	-10.1353
▁should	-10.1354
▁אופניים	-10.1355
▁הכולל	-10.1362
▁ונ	-10.1369
▁בברכה	-10.137
▁מדהימים	-10.138
▁הרפואי	-10.138
▁ייתכן	-10.1381
30	-10.1385
▁ברוכים	-10.1386
▁אהרון	-10.1392
▁תיקון	-10.1393
▁שדה	-10.1394
▁ומבורך	-10.1397
▁דודו	-10.1398
▁חב	-10.1405
▁תלמידי	-10.1411
▁לשימוש	-10.1413
▁לאירוע	-10.1414
▁חחחחחחחח	-10.1418
▁ביחס	-10.1422
▁תחרות	-10.1426
▁המוצר	-10.1429
▁בסגנון	-10.1431
▁דיור	-10.1436
▁נזק	-10.1438
▁באורח	-10.1439
▁קיימת	-10.144
▁לכולנו	-10.144
▁day	-10.1446
▁מקבלת	-10.1448
▁שמים	-10.145
▁הבינלאומי	-10.1454
▁בכנס	-10.1457
▁גוגל	-10.146
▁take	-10.1464
▁החדרים	-10.147
-4	-10.1474
▁בחשד	-10.1478
בן	-10.1478
▁לילד	-10.1479
▁לעיר	-10.1482
▁פסטיבל	-10.1488
▁ילדי	-10.149
▁נהיה	-10.1492
▁אכפת	-10.1499
▁באשדוד	-10.1499
▁תפקיד	-10.1499
▁היהודית	-10.1501
▁קידום	-10.1501
▁לק	-10.1503
▁הערבים	-10.1519
▁התייחס	-10.1519
▁משם	-10.1526
▁משרה	-10.1527
▁יושב	-10.1528
▁הפעולה	-10.153
▁N	-10.1533
▁יניב	-10.1542
▁מסיבת	-10.1547
▁מוזר	-10.1549
▁הנ	-10.155
▁בקיצור	-10.155
▁הופעות	-10.1554
▁מיקום	-10.1559
▁לאדם	-10.1559
▁בצל	-10.1561
▁רשימת	-10.158
▁להשתתף	-10.1582
▁הנוכחי	-10.1583
▁בד	-10.1584
▁רעננה	-10.1584
▁השופט	-10.1589
▁לימודים	-10.1589
▁שרת	-10.159
▁אפשרויות	-10.1592
▁לכמה	-10.1594
▁go	-10.1602
▁הכלב	-10.1605
▁הגנה	-10.1605
▁חשש	-10.1606
▁סמוטריץ	-10.1606
▁הגז	-10.161
▁הצליח	-10.161
▁אגף	-10.1619
▁גלעד	-10.1623
וו	-10.1627
▁\	-10.1637
▁בניית	-10.1639
▁31	-10.1646
▁then	-10.1649
▁המטרה	-10.1653
▁לכנסת	-10.1654
▁להציג	-10.1655
▁אופיר	-10.1655
▁עיניים	-10.1658
U	-10.1659
▁תראו	-10.1667
▁מלחמת	-10.167
▁בראשות	-10.1672
▁ועדיין	-10.1677
▁כוכב	-10.1677
▁אדמה	-10.168
▁זמין	-10.1694
▁השעה	-10.1699
▁שלח	-10.1704
▁חברתי	-10.1705
▁בשלום	-10.1705
▁הטלפון	-10.1707
▁גשם	-10.1713
▁מהתמונות	-10.1715
▁כותב	-10.1715
▁לחבר	-10.1717
▁לדבריו	-10.1722
▁להסביר	-10.173
▁סטודיו	-10.1731
▁ראה	-10.1735
▁לחכות	-10.1739
▁פוליטי	-10.174
▁מעשה	-10.1741
▁בנייה	-10.1741
▁צפויה	-10.1747
▁גוש	-10.1751
▁משלוח	-10.1757
▁ירון	-10.1758
-2	-10.1759
▁האישי	-10.176
▁שהייתה	-10.176
היא	-10.1761
▁לרכב	-10.1771
▁דופן	-10.1772
▁בחנות	-10.1775
▁קטע	-10.1777
▁הבת	-10.1793
▁הקו	-10.1796
▁למישהו	-10.1799
▁גבאי	-10.1814
▁אנגלית	-10.1816
▁תמשיך	-10.1818
▁מכשיר	-10.182
▁לשלב	-10.1823
▁והרבה	-10.1832
▁נציגי	-10.1833
▁להצביע	-10.1836
▁בס	-10.1837
▁best	-10.184
▁המרכזי	-10.1848
▁אלבום	-10.1848
▁מתחילה	-10.1854
:<	-10.1864
▁חומרים	-10.1865
▁פועל	-10.1866
-1	-10.1868
▁בקרבת	-10.1871
מים	-10.1871
▁איפור	-10.1875
▁דחוף	-10.1881
▁רפי	-10.1881
▁במתחם	-10.1886
▁לשרת	-10.1888
▁r	-10.189
▁פינת	-10.189
▁בכירים	-10.1891
▁לשפר	-10.1895
▁עמוק	-10.1897
▁מכתב	-10.1899
▁ישמור	-10.1901
▁כולה	-10.1907
▁להקים	-10.1909
▁מודה	-10.1915
▁טלי	-10.1921
▁✔	-10.1922
▁קריאה	-10.1925
▁תומר	-10.193
קול	-10.1933
▁נועה	-10.1937
▁שניים	-10.1939
▁אתן	-10.1941
▁טקסט	-10.1942
▁בגובה	-10.1945
▁לפרסם	-10.1947
▁ישנם	-10.1948
▁אלייך	-10.1951
▁לשנת	-10.1963
▁להניח	-10.1967
▁להמשך	-10.197
▁בכ	-10.1974
▁כוללת	-10.1981
▁מודיעין	-10.1985
▁משחקי	-10.1989
▁בבני	-10.1989
▁הצעה	-10.199
▁קרב	-10.1993
▁מגיש	-10.1997
▁לספק	-10.2
▁תמורת	-10.2001
▁נדיר	-10.2002
▁want	-10.2003
כים	-10.2008
▁אזרחים	-10.2008
▁יפו	-10.2009
▁יעלה	-10.2011
▁הרע	-10.2012
פה	-10.2015
▁גיוס	-10.2017
▁הקשה	-10.2018
utm	-10.2019
▁ישיר	-10.202
▁הבעלים	-10.2031
▁הדיון	-10.2033
▁being	-10.2034
▁פורים	-10.2035
▁הסדרה	-10.2037
▁המילים	-10.2043
▁בקשר	-10.2048
▁מעמד	-10.205
▁הבר	-10.2053
▁טוען	-10.2054
▁צבעים	-10.2054
▁הלקוח	-10.2055
▁חייו	-10.2062
▁באחד	-10.2063
▁זבל	-10.2065
▁חוזרת	-10.2067
ייי	-10.207
▁מטורף	-10.2071
▁תשע	-10.2071
▁מתנות	-10.2074
▁שעל	-10.2078
▁לחן	-10.2079
רה	-10.2079
טוב	-10.2081
▁חזר	-10.2082
▁even	-10.2086
▁הקפה	-10.2089
▁יחידת	-10.2091
▁משמעות	-10.2094
▁שבהם	-10.2095
▁רדיו	-10.2097
▁אריק	-10.2101
▁רמי	-10.2101
דה	-10.2112
ID	-10.2114
▁לחם	-10.2114
▁מסתבר	-10.2131
▁תגיד	-10.2136
-5	-10.2154
▁הזמנה	-10.2159
▁שיחה	-10.2163
▁במועדון	-10.2166
▁סדנאות	-10.2172
▁מהנה	-10.2173
▁תחילת	-10.2175
▁ערן	-10.2177
▁משתמש	-10.2185
▁פיגוע	-10.2186
▁As	-10.2193
▁לארוחת	-10.2194
▁נערך	-10.2206
▁Leonardo	-10.2207
▁לסגור	-10.2209
▁תכנון	-10.2209
▁ואי	-10.2213
▁ההגנה	-10.2214
▁מודעות	-10.2217
▁last	-10.222
99	-10.2221
▁תלמידים	-10.2222
רי	-10.2228
▁משפחתי	-10.2229
▁To	-10.2242
▁הגענו	-10.2244
▁מסלול	-10.2246
▁אחרון	-10.2246
▁נועם	-10.225
▁נכסים	-10.2252
▁לידה	-10.2254
▁great	-10.2256
▁רכבת	-10.2259
▁מו	-10.2261
▁הופך	-10.227
▁עמי	-10.2278
▁ומתן	-10.2285
האם	-10.2287
שי	-10.2293
▁שאנו	-10.2294
▁אוהד	-10.2302
▁מל	-10.2304
▁בסוריה	-10.2305
▁משקל	-10.2308
......	-10.2311
▁שלב	-10.2312
▁אב	-10.2315
▁לרדת	-10.233
▁לבטל	-10.2332
▁סבתא	-10.2349
▁סופקו	-10.2351
ers	-10.2359
▁כנס	-10.2359
▁למשפחה	-10.236
▁מגורים	-10.2362
▁השוטרים	-10.2364
▁לקיים	-10.2374
▁שאינו	-10.2377
▁For	-10.2378
▁המילה	-10.2386
▁קולות	-10.2389
▁ברזל	-10.2389
▁קרובים	-10.239
▁גג	-10.2391
▁בכתבה	-10.24
▁נוסעים	-10.2401
וק	-10.2406
▁הטיול	-10.2407
▁קניון	-10.2414
▁because	-10.2418
▁תנועת	-10.2424
▁45	-10.2426
▁אחים	-10.2434
▁הכלכלה	-10.2437
▁לקבוע	-10.2438
▁יתר	-10.2446
▁מכון	-10.2446
▁לשכוח	-10.2449
▁החבר	-10.246
▁ושם	-10.2461
▁הכוח	-10.2465
▁שמחים	-10.2467
▁VFM	-10.2473
▁before	-10.2475
▁אורלי	-10.2477
▁בתום	-10.2479
▁השירותים	-10.2489
▁מועד	-10.2492
▁יתרון	-10.2495
▁העסקים	-10.2499
▁תיעוד	-10.2501
▁שכולם	-10.2503
▁מהיום	-10.2508
▁מומחה	-10.2508
▁שנ	-10.2509
▁ישן	-10.2512
▁הצעיר	-10.2512
▁נשיקות	-10.2523
▁עשתה	-10.2528
▁דיין	-10.2532
▁הגישה	-10.2538
▁השראה	-10.254
▁חודשיים	-10.254
▁מכם	-10.2541
▁החקירה	-10.2541
▁הנתונים	-10.2542
לים	-10.2545
▁במגוון	-10.255
▁שאי	-10.2551
▁החדר	-10.2553
▁בעברית	-10.2558
▁להזמנות	-10.256
▁ארי	-10.2565
בה	-10.2565
▁עומדת	-10.2567
▁שליטה	-10.2569
▁מכירת	-10.257
▁גלי	-10.2572
▁הציבורי	-10.2573
▁עבד	-10.2574
▁home	-10.2575
▁יחזור	-10.2576
▁don	-10.2576
▁מוות	-10.2578
ראשון	-10.2579
▁ואושר	-10.2581
▁תוספת	-10.2583
▁מסעדת	-10.2584
▁ממשיכה	-10.2585
▁O	-10.2585
תתת	-10.2586
▁והרשמה	-10.2587
▁וזו	-10.2588
▁הגיוני	-10.2589
▁הייתם	-10.2593
▁מיטב	-10.2595
▁לחדר	-10.2596
ור	-10.2598
▁חיוך	-10.26
▁הכביש	-10.2603
תה	-10.2611
▁הצהריים	-10.2624
▁מרק	-10.2625
▁בתחרות	-10.2626
▁שהגיעו	-10.2636
כך	-10.264
▁s	-10.2644
▁במדינת	-10.2644
▁יונתן	-10.2644
▁דמי	-10.2646
▁שפע	-10.2651
▁הקואליציה	-10.2653
▁משותפת	-10.2659
▁150	-10.266
▁להנות	-10.2684
▁הופעה	-10.2685
▁X	-10.2688
▁טיפים	-10.269
▁בטוויטר	-10.2693
▁ושירות	-10.2696
▁הציוני	-10.2696
▁such	-10.27
▁איחוד	-10.27
▁חברתית	-10.2707
▁לים	-10.2709
▁And	-10.2713
▁לוותר	-10.2713
▁דלתות	-10.2718
posts	-10.273
▁העזרה	-10.2731
▁וכ	-10.2734
▁אבנים	-10.2734
▁U	-10.2739
▁פועלים	-10.2742
▁הישיבה	-10.2742
▁יי	-10.2745
▁הקרובות	-10.2745
▁עצמית	-10.2747
▁חירום	-10.2754
▁‘	-10.2756
▁להודות	-10.2756
▁הבמה	-10.2758
▁ובין	-10.2758
▁בהשתתפות	-10.2759
▁הלאה	-10.2763
▁כתוב	-10.2763
למה	-10.2765
▁להשאיר	-10.2767
▁נדל	-10.2769
▁מוצלח	-10.2772
כמה	-10.2774
▁made	-10.2775
▁האפליקציה	-10.2776
▁החיילים	-10.2777
▁ההצעה	-10.2778
▁מותג	-10.2779
▁בחור	-10.278
▁ישיבת	-10.2786
▁שואל	-10.2786
▁ארוחות	-10.2787
▁למחיר	-10.2787
▁לזכור	-10.2789
▁קיבלה	-10.2791
▁f	-10.2794
▁לאהוב	-10.2796
▁במבצע	-10.2797
▁סגל	-10.2801
לית	-10.2802
▁כרמל	-10.2804
j	-10.2806
▁זוכרת	-10.2807
▁House	-10.281
▁שלייי	-10.2813
▁החג	-10.2813
▁בל	-10.2832
▁כשיש	-10.2833
▁המזון	-10.2834
▁כאחד	-10.284
▁חמים	-10.2852
▁לטובה	-10.2853
▁מאחר	-10.2854
▁בחו	-10.2856
▁תהני	-10.2861
▁שמור	-10.2864
▁התקשרו	-10.2865
▁שניות	-10.2865
▁So	-10.2868
▁זונה	-10.2875
▁Restaurant	-10.2875
חי	-10.2882
▁הגמר	-10.2886
▁המועדון	-10.2888
▁המיוחד	-10.2893
▁ראיון	-10.2894
▁הלבן	-10.2896
▁הודעות	-10.2898
▁מייל	-10.2898
▁במייל	-10.29
▁La	-10.2903
▁תושבים	-10.2904
▁בסמוך	-10.2904
▁הצפון	-10.2905
▁משותף	-10.2905
▁מרן	-10.2907
▁נדלן	-10.2907
▁שאף	-10.291
▁ובו	-10.2911
▁בחזרה	-10.2913
▁סמ	-10.2918
▁דורון	-10.2922
הההה	-10.2926
▁הגב	-10.2927
▁גבוהים	-10.2931
▁בשבילי	-10.2932
▁מותו	-10.2932
▁ארצות	-10.2935
▁עבודת	-10.2939
▁הח	-10.2941
▁לחגוג	-10.2941
▁שעוד	-10.2945
▁מאיה	-10.2949
▁ללקוחות	-10.2952
▁נחשב	-10.2954
▁תהנה	-10.2955
-15	-10.2958
▁נציג	-10.2959
▁רציני	-10.2959
▁רבין	-10.2962
▁אזרחי	-10.2963
▁רותם	-10.2968
▁למטה	-10.2969
▁בעמוד	-10.2972
גן	-10.2975
▁לנהל	-10.2981
▁Tal	-10.2985
__	-10.2999
▁קשים	-10.2999
▁לרכישת	-10.3
▁רווח	-10.3013
▁למשך	-10.3014
▁באיכות	-10.3016
▁בתכנית	-10.3016
▁החייל	-10.3022
▁בדיקת	-10.3029
▁אפל	-10.303
▁בליגה	-10.3032
▁סכום	-10.3032
▁שערים	-10.3034
▁מיידית	-10.3035
▁ללילה	-10.3039
▁באו	-10.3041
▁בשנות	-10.3041
▁הפרסום	-10.3041
▁מירב	-10.3042
▁המגיעים	-10.3049
▁דרור	-10.3052
▁בכניסה	-10.3055
▁נגישות	-10.3066
ייה	-10.308
▁המחקר	-10.3086
▁היכן	-10.3086
▁אפס	-10.3088
▁ההסכם	-10.309
▁לחברת	-10.3094
▁בתפקיד	-10.3095
▁הדירות	-10.3096
▁בצבע	-10.3096
▁בסביבה	-10.3105
▁התוצאה	-10.3106
▁נולד	-10.3107
▁life	-10.3109
▁מאמינים	-10.3109
▁ביקש	-10.311
▁שלהן	-10.3111
▁חופשית	-10.3114
▁מחזור	-10.3116
Z	-10.3116
▁***	-10.3119
▁לדאוג	-10.3123
▁בדיקה	-10.3124
▁שומר	-10.3124
▁שנמצא	-10.3125
▁עולים	-10.3126
▁רונן	-10.3127
▁טיסה	-10.313
▁ולמה	-10.3132
▁מפתיע	-10.3133
▁ייחודי	-10.3138
▁בשמחה	-10.3139
▁ואחרי	-10.3141
▁הילדה	-10.3143
▁שיחות	-10.3145
▁המכרז	-10.3145
▁נפגעים	-10.3146
▁סופש	-10.315
▁והצלחה	-10.3154
▁מדברת	-10.3155
▁חקירה	-10.3159
▁הסבירות	-10.316
▁מוכנה	-10.3164
▁בצבא	-10.3167
▁הא	-10.3175
▁אנרגיה	-10.3176
▁קשות	-10.3184
▁השחקנים	-10.3186
קים	-10.3195
▁החורף	-10.3198
▁דרישות	-10.3198
▁רשמי	-10.3204
▁בעיני	-10.3206
▁אחראי	-10.3209
חמישי	-10.3213
to	-10.3215
▁שמות	-10.3219
▁המשפטי	-10.3223
▁לעצמו	-10.3224
▁למרכז	-10.3225
▁חלקי	-10.3226
▁ענת	-10.3228
▁גבינה	-10.3231
▁ושמחה	-10.3231
▁נדב	-10.3233
▁מטה	-10.3241
▁כשאתה	-10.3246
▁here	-10.3246
▁תפריט	-10.325
▁בניו	-10.325
▁העור	-10.3252
▁מינית	-10.3255
▁ישירה	-10.3257
▁למשרד	-10.3261
▁event	-10.3267
▁במקומות	-10.3276
▁while	-10.3279
▁נתוני	-10.3281
▁קוד	-10.3281
▁ההון	-10.3282
▁בפעילות	-10.3288
▁דלפק	-10.329
▁שמלות	-10.3291
▁בשקט	-10.3297
▁יולי	-10.3303
▁יוצרים	-10.331
▁ביטול	-10.3316
▁ראו	-10.3316
▁לימודי	-10.3319
▁להראות	-10.3321
▁זר	-10.3324
•	-10.3328
▁טעימה	-10.3329
▁השניה	-10.3333
רביעי	-10.3333
▁מלבד	-10.3341
▁בסרט	-10.3342
▁האירועים	-10.3348
▁אליפות	-10.3352
▁בקיץ	-10.3355
▁נקודה	-10.336
▁נוכל	-10.3372
▁אצלך	-10.3373
–	-10.3375
▁החופש	-10.3383
▁עוברים	-10.3385
▁השירים	-10.3391
▁דיי	-10.3392
▁עברה	-10.3393
▁האמיתי	-10.3396
▁תנאים	-10.3396
▁2000	-10.3398
at	-10.3398
▁בשידור	-10.3406
▁עודד	-10.3406
▁אופנה	-10.3407
▁האור	-10.3411
▁אהבת	-10.3416
▁הרשמה	-10.3416
▁מצליחה	-10.3422
▁But	-10.3423
▁המדהימה	-10.3423
▁שירי	-10.3424
▁הילה	-10.3426
▁הגבול	-10.3434
▁צבאי	-10.344
▁כוכבים	-10.344
▁חוגגים	-10.3443
▁מהן	-10.3445
▁מיקי	-10.3447
▁תיאטרון	-10.3452
▁רלוונטי	-10.3452
▁לקהל	-10.3454
▁איילת	-10.3458
נת	-10.3462
▁הבנות	-10.3464
▁הצ	-10.3464
▁שהייתי	-10.3466
▁בחורה	-10.347
▁נייד	-10.3472
▁תראי	-10.348
▁find	-10.3484
▁wi	-10.3486
▁מסביר	-10.3488
▁הישראלים	-10.3489
▁להציל	-10.3497
▁הערבי	-10.3504
▁גאווה	-10.351
▁לעסקים	-10.3511
▁היד	-10.3512
▁דלק	-10.3513
▁2020	-10.3513
▁מאסר	-10.3515
▁חייגו	-10.3517
▁בגודל	-10.3522
▁ההבדל	-10.3523
▁הנהלת	-10.3527
שלישי	-10.353
▁אחוזים	-10.353
▁הדור	-10.3533
▁לצפייה	-10.3534
▁יקבל	-10.3534
▁זכתה	-10.3535
▁38	-10.3536
▁הקורס	-10.3538
▁כבן	-10.3546
▁מגניב	-10.3546
▁פרחים	-10.3553
▁המו	-10.3555
▁החלו	-10.3556
▁העיניים	-10.3559
▁הקול	-10.3565
▁יצירת	-10.3567
▁חנויות	-10.3568
▁לשכת	-10.3569
en	-10.3569
▁Or	-10.357
▁עת	-10.3572
an	-10.3576
▁down	-10.3579
▁סלט	-10.3581
▁לעם	-10.3582
▁קונים	-10.3583
▁בשורות	-10.3588
▁אלכוהול	-10.3589
▁יורו	-10.3591
▁החלטת	-10.3591
▁לביטחון	-10.3592
▁גובה	-10.3593
▁שיצא	-10.3593
▁סיור	-10.3606
תו	-10.3607
▁הו	-10.3608
▁בבת	-10.3609
▁am	-10.361
▁יהדות	-10.3611
▁הוד	-10.3612
▁קונה	-10.3618
▁ירקות	-10.3621
▁ידיעות	-10.3621
▁טקס	-10.3622
▁right	-10.3627
▁עשרה	-10.3627
▁לקידום	-10.3628
▁בבניין	-10.3628
▁הצלה	-10.3629
▁used	-10.363
יד	-10.3632
▁בדבר	-10.3642
▁מאחל	-10.3644
▁המדינות	-10.3644
▁שיהיו	-10.3645
▁הגר	-10.3648
▁off	-10.3648
▁מתוקים	-10.3648
▁להגן	-10.3656
▁הסדר	-10.3658
▁צפייה	-10.3659
▁בהודעה	-10.3664
▁לקבוצה	-10.3668
▁החוף	-10.3669
▁שינויים	-10.3676
▁ומעלה	-10.3682
▁ככ	-10.3683
▁love	-10.3686
▁מזמינה	-10.3689
▁פרטיים	-10.3692
▁בגדים	-10.3704
▁באשקלון	-10.3706
▁חול	-10.3707
איזה	-10.3707
▁David	-10.3717
▁Park	-10.3717
▁השמש	-10.3719
▁השתתפו	-10.3719
▁למ	-10.3723
▁בחברת	-10.3723
▁ובכלל	-10.3726
-30	-10.3728
▁חשיבות	-10.374
▁:(	-10.3742
▁נושאים	-10.3746
▁המקומות	-10.3746
▁יחס	-10.3746
▁שאול	-10.3747
נט	-10.3749
▁נוחות	-10.3754
▁צודקת	-10.3756
▁תעודת	-10.3757
▁הפוך	-10.3768
▁team	-10.3768
▁סימן	-10.3771
▁גבול	-10.3775
▁לאף	-10.3778
▁השלטון	-10.378
▁לחלק	-10.3782
▁חשד	-10.3784
יפס	-10.3784
▁לוחמי	-10.379
▁הצד	-10.3793
▁זיו	-10.3793
▁החליטו	-10.3798
▁הפיגוע	-10.38
▁בתקשורת	-10.3808
▁וג	-10.3809
▁ומהנה	-10.3814
▁הבלתי	-10.3815
▁המאמן	-10.3817
▁בחלק	-10.3819
▁בטוחים	-10.3819
▁There	-10.3822
▁those	-10.3822
▁שטויות	-10.3824
▁כספים	-10.3824
▁השיער	-10.3824
▁שמגיע	-10.3826
▁עילית	-10.3826
▁הקפד	-10.3829
▁ביטוי	-10.3829
▁לאירועים	-10.3833
▁עשיר	-10.3837
טה	-10.3839
▁במזרח	-10.3839
▁באנגלית	-10.384
▁האפשרות	-10.3841
▁אורח	-10.3845
▁לענות	-10.3845
▁עלול	-10.3849
▁ידיים	-10.3852
▁כרגיל	-10.3866
▁אפ	-10.3867
מזל	-10.3875
▁טו	-10.3875
וה	-10.3875
▁בכמה	-10.3881
▁איי	-10.3884
▁מפתח	-10.3887
▁קמפיין	-10.3888
▁ולקבל	-10.3888
▁בינואר	-10.389
▁מבנה	-10.3892
▁c	-10.3895
היום	-10.3896
▁­	-10.3898
▁בדיקות	-10.3901
▁לעקוב	-10.3906
▁רז	-10.3906
▁אילו	-10.3907
םםם	-10.3913
▁יעד	-10.3918
▁בהרבה	-10.3918
▁בשום	-10.3925
▁סטודנטים	-10.3928
▁הדף	-10.393
▁מקומי	-10.3931
▁מאושר	-10.3931
▁המחשב	-10.3932
▁הקטע	-10.3934
▁המסחר	-10.394
▁העין	-10.3945
it	-10.3946
▁נייר	-10.3947
▁בעיצוב	-10.395
▁לכאורה	-10.3957
▁דורש	-10.3965
▁Levi	-10.3966
▁שותף	-10.3968
▁לתרום	-10.3968
▁עומדים	-10.3973
▁world	-10.3973
אולי	-10.3975
▁הרשויות	-10.3979
▁הכוונה	-10.3979
▁עוגת	-10.3979
▁שאולי	-10.3981
▁אירועי	-10.3988
יייי	-10.399
▁בירה	-10.399
▁בדף	-10.399
▁נקבע	-10.3992
▁ויפה	-10.3995
שה	-10.4009
▁שאנשים	-10.4011
▁חחחחחחחחח	-10.4016
▁מנה	-10.4016
▁מפה	-10.4017
▁להתקשר	-10.4019
▁מעוניינים	-10.4019
▁מוביל	-10.4025
▁והמון	-10.4028
▁לשר	-10.4031
▁קראתי	-10.4037
▁בנתניה	-10.4037
▁עשית	-10.4039
▁יריב	-10.4049
▁What	-10.4056
▁זקן	-10.4057
▁חורף	-10.4058
▁הגדולות	-10.4064
▁שאינם	-10.4069
▁100%	-10.4075
▁הקרן	-10.4076
▁really	-10.4077
▁כלכלית	-10.408
▁ואילו	-10.4084
▁ובריאות	-10.4087
▁שרית	-10.4093
▁בחר	-10.4094
▁ליטר	-10.4097
▁מתח	-10.4101
▁מקומיים	-10.4102
▁סרטים	-10.4104
▁around	-10.4106
▁מפעל	-10.4107
▁j	-10.4117
▁פשוטה	-10.412
▁בים	-10.4121
▁שעושה	-10.4122
▁מגיל	-10.4122
▁לתקן	-10.4124
▁הדתית	-10.4126
▁ברוב	-10.4128
▁הנגב	-10.413
▁עבורכם	-10.4132
▁מסוכן	-10.4135
▁השונות	-10.4142
**	-10.4143
▁הרוח	-10.4143
▁להקת	-10.415
▁קורות	-10.415
▁הקלה	-10.4153
▁גרמניה	-10.4155
▁בסיום	-10.4157
▁ובלי	-10.4159
▁הגיוס	-10.4161
▁לייצר	-10.4161
▁מדד	-10.4162
▁גני	-10.4164
▁מבקשת	-10.4166
▁מבט	-10.4167
▁החליטה	-10.4168
▁מקרים	-10.4169
▁ברשתות	-10.4169
▁קיר	-10.4169
▁להעניק	-10.417
▁הון	-10.4172
אור	-10.4175
▁השואה	-10.4177
▁הערבית	-10.4181
▁חתונה	-10.4182
▁אשראי	-10.4183
▁דת	-10.4184
▁בקר	-10.4186
▁הציבורית	-10.4186
▁.....	-10.4187
▁צרו	-10.4195
▁ספיר	-10.4197
▁עיבוד	-10.4198
33	-10.4204
▁בטקס	-10.4212
▁נופש	-10.4213
▁סתיו	-10.4214
▁אמורה	-10.4215
▁בהקדם	-10.4218
▁business	-10.4226
▁גלנט	-10.4227
▁לסיים	-10.4232
▁אמריקה	-10.4233
▁ההסתדרות	-10.4233
▁בטיחות	-10.4234
▁נווה	-10.4235
▁תינוק	-10.4237
מר	-10.4237
▁המותג	-10.4238
▁עבירות	-10.4239
▁פגישה	-10.4239
▁זל	-10.424
▁בוטיק	-10.4247
▁ברורה	-10.4254
▁הנפש	-10.4255
▁עסקי	-10.4264
▁e	-10.4265
▁בעונה	-10.4267
▁מאפשרת	-10.4272
▁בקרית	-10.4275
▁שהכל	-10.4275
▁using	-10.4276
▁הצעירים	-10.4277
▁רצה	-10.4279
▁לגיל	-10.4281
▁החלק	-10.4285
▁השופטים	-10.4285
▁הלכה	-10.4289
▁לביצוע	-10.429
▁בניה	-10.4292
▁סבבה	-10.4293
▁הפופולריים	-10.4297
▁רחבי	-10.4298
▁מסביב	-10.4299
▁האמריקאי	-10.43
▁למערכת	-10.4312
▁אלמוג	-10.4314
▁כללית	-10.4315
▁שקרה	-10.4317
▁המשתתפים	-10.4318
▁בשכונה	-10.4327
▁נפלאה	-10.4327
▁והיום	-10.433
▁פעילויות	-10.433
▁האווירה	-10.4336
▁הכדורגל	-10.4342
▁הבאות	-10.4344
▁t	-10.4353
מות	-10.4354
▁עזר	-10.4356
▁טבריה	-10.4356
▁high	-10.4358
▁בחוק	-10.4361
▁סדנת	-10.4362
▁ליגת	-10.4363
▁יצאה	-10.4364
▁האופוזיציה	-10.4365
▁המערבי	-10.4367
▁שווים	-10.4375
▁מצא	-10.4376
▁נעצרו	-10.4376
▁;)	-10.4378
▁זמר	-10.438
▁העתיד	-10.4381
▁הרעיון	-10.4381
▁עירוני	-10.4397
▁עדין	-10.4397
סטר	-10.4397
▁מוסיקה	-10.4399
▁פתיחה	-10.4399
▁They	-10.4402
▁חרא	-10.4404
נר	-10.4416
>&	-10.4417
▁למות	-10.4417
▁וכבר	-10.442
▁טען	-10.4423
▁יצירה	-10.4425
▁מתכוון	-10.4425
▁חמה	-10.4428
▁לבריאות	-10.443
▁להשקיע	-10.4436
▁צעירה	-10.4441
▁מהלך	-10.4442
▁למוות	-10.4449
▁מלווה	-10.4449
טים	-10.4449
▁המוח	-10.4451
▁תגידו	-10.4453
סי	-10.4455
▁הקודמת	-10.4457
▁ציפי	-10.4457
▁התחרות	-10.4459
▁מרים	-10.446
▁עלתה	-10.4463
▁שראיתי	-10.4467
▁בגוף	-10.4469
▁בצה	-10.4472
▁יישר	-10.4473
▁מבחינה	-10.4479
▁נסיכה	-10.448
▁מבחן	-10.4489
יפו	-10.4491
▁באשר	-10.4495
▁ירדן	-10.4497
▁לראשות	-10.4502
▁תן	-10.4503
▁במי	-10.4504
זמן	-10.4504
שם	-10.4505
▁המשחקים	-10.451
▁מציג	-10.4516
▁ברדיו	-10.4519
▁שידור	-10.452
▁ובכך	-10.4521
▁גור	-10.4524
▁צמוד	-10.4526
▁ונחת	-10.4526
▁ברמות	-10.4528
▁הרצון	-10.4531
▁מניות	-10.4537
▁לניהול	-10.4542
▁סרטן	-10.4552
▁המורה	-10.4552
▁היופי	-10.4555
▁לעניין	-10.4556
▁רן	-10.4556
▁רהיטים	-10.456
▁כיתה	-10.457
▁שניהם	-10.4572
▁לבחירת	-10.4575
▁החנות	-10.4578
▁בממשלה	-10.4578
▁האדום	-10.4584
▁ליווי	-10.4585
▁מרגשת	-10.4587
▁להוביל	-10.459
▁לנסוע	-10.4591
▁לילות	-10.4594
▁ראשוני	-10.4596
▁עמק	-10.4597
▁still	-10.4597
▁Daniel	-10.4602
▁הורה	-10.4612
▁אורך	-10.4613
▁יעבור	-10.4615
בהצלחה	-10.4619
▁שאפו	-10.4628
▁סיטי	-10.4629
▁32	-10.463
▁היכולת	-10.4632
▁מוזמן	-10.4634
▁בכלא	-10.4635
▁המושלם	-10.4635
▁הצליחו	-10.4636
▁מסי	-10.4638
▁רמה	-10.4647
▁בדוק	-10.465
▁חשובים	-10.4655
▁קרקע	-10.4655
▁כתבת	-10.4656
▁עילת	-10.466
▁שנערך	-10.466
▁כשהיא	-10.4661
▁מרצ	-10.4663
▁ציבורי	-10.4664
▁בשיעור	-10.4669
▁לעזוב	-10.4671
▁שליי	-10.4675
▁נחמדה	-10.4678
▁המכשיר	-10.4681
▁בתשלום	-10.4682
▁תוקף	-10.4683
▁החלטות	-10.4692
▁שיתפתי	-10.4693
▁עקיבא	-10.4695
▁part	-10.4697
▁המס	-10.4699
▁הנוכחית	-10.4701
▁All	-10.4705
groups	-10.471
▁הליגה	-10.4713
▁בצלאל	-10.4714
▁המאבק	-10.4716
▁חזן	-10.4719
▁ראובן	-10.4721
▁ובני	-10.4724
▁הבחירה	-10.473
▁מעולים	-10.4733
▁דגים	-10.4736
▁שפיר	-10.4736
▁בחצי	-10.4736
▁פסק	-10.4737
▁פרויקטים	-10.4744
▁רכבים	-10.4746
▁מזעזע	-10.4755
▁הזמנות	-10.4756
▁פופולריים	-10.4757
▁יוצאי	-10.476
▁ממ	-10.4761
▁חמור	-10.4761
▁קניות	-10.4763
▁בשורה	-10.4765
▁לחקור	-10.4772
▁בפברואר	-10.4776
-12	-10.4779
▁4.	-10.4781
▁שוער	-10.4783
▁עמד	-10.4786
▁להכנס	-10.479
▁לומדים	-10.4797
▁בפורום	-10.4799
▁אפרת	-10.48
▁think	-10.4802
▁טוענים	-10.4805
▁ותודה	-10.4806
▁כלכלי	-10.4808
▁להורדת	-10.4814
▁לירושלים	-10.4814
▁each	-10.4814
▁מוצא	-10.4817
▁ורד	-10.4818
▁2010	-10.4821
▁גילה	-10.4822
▁סיני	-10.4825
▁לנוח	-10.4826
▁הופיע	-10.4826
▁דבש	-10.4827
▁ניסה	-10.4829
▁250	-10.4836
▁מכרז	-10.4837
▁עצמכם	-10.4838
▁המחנה	-10.4838
▁game	-10.4839
▁משתתפים	-10.4842
▁השלישית	-10.4847
▁מחזיק	-10.485
▁הזכות	-10.4851
▁id	-10.4852
▁חיבוק	-10.4852
▁מיידי	-10.4853
▁שהייה	-10.4854
▁השטח	-10.4855
▁מעניינת	-10.4857
▁שרי	-10.4857
▁תוכניות	-10.4859
▁מפגינים	-10.4869
▁מדהימות	-10.4872
כש	-10.4876
▁בפרויקט	-10.4877
▁רעיונות	-10.4882
▁מתגעגעת	-10.4883
▁נשימה	-10.4894
▁במתנה	-10.4896
▁האיחוד	-10.4896
▁נפל	-10.4901
the	-10.4904
▁re	-10.4911
שבוע	-10.4912
▁תקופת	-10.4916
▁הבדל	-10.4921
▁אזולאי	-10.4923
▁My	-10.4923
▁נבחר	-10.4926
▁עוצמה	-10.4929
▁ספרי	-10.4932
▁מערך	-10.4935
▁מחבל	-10.4942
▁הצבאי	-10.4944
▁מוסדות	-10.4949
▁נפגש	-10.4953
▁הסבר	-10.4959
▁לפועל	-10.4959
14	-10.496
▁שעדיין	-10.4964
▁גדי	-10.4967
▁הבנקים	-10.4971
18	-10.4971
▁תוכנות	-10.4973
▁קליפ	-10.4973
יס	-10.4973
▁between	-10.4974
▁בשבילכם	-10.4977
▁חשוד	-10.4983
▁התהליך	-10.4987
▁לקוח	-10.4987
▁המבקרים	-10.4996
▁both	-10.4998
▁ארוחה	-10.4999
▁תתקיים	-10.5002
▁different	-10.5004
▁בתהליך	-10.5004
▁הנהג	-10.5006
▁גדעון	-10.5009
▁בשילוב	-10.5012
▁מגדל	-10.5014
▁לפעילות	-10.5015
▁סי	-10.5019
▁צרפת	-10.502
▁סיפורים	-10.5027
▁long	-10.5029
▁תי	-10.503
▁בחולון	-10.5032
▁מוכרת	-10.5033
▁הלכתי	-10.5034
▁יחסים	-10.5035
▁השחקן	-10.5035
▁נותנת	-10.5039
▁מטרה	-10.5049
▁תהיו	-10.505
▁המקומי	-10.5055
▁נהרג	-10.5059
▁לתושבי	-10.506
▁going	-10.5061
▁No	-10.5064
▁העיצוב	-10.5066
▁הבנייה	-10.5071
▁מקומית	-10.5072
▁עדכון	-10.5073
▁אישיים	-10.5075
▁המלחמה	-10.5075
▁הגבוהה	-10.508
▁חתיך	-10.5086
▁היקרים	-10.5086
▁מסוים	-10.5089
▁חוזה	-10.5091
▁בגדול	-10.5097
▁400	-10.5097
▁דב	-10.5098
▁נסיון	-10.51
טי	-10.5102
▁דמעות	-10.5106
▁נראים	-10.5108
▁פחד	-10.511
▁תור	-10.5111
▁שדרות	-10.5112
▁אטרקציות	-10.5112
▁שנקרא	-10.5114
▁place	-10.5122
▁אהוד	-10.5124
▁נמוכה	-10.5129
▁מוכרים	-10.5129
▁נוי	-10.5132
▁פינוי	-10.5133
▁בפרט	-10.5135
▁סיוע	-10.5137
▁She	-10.5142
אחרי	-10.5144
▁אסתר	-10.5146
▁הלל	-10.5155
▁טוויטר	-10.5158
▁לביקור	-10.5159
▁ביתי	-10.5161
▁מרגישים	-10.5164
▁מספרת	-10.5166
▁הפרטי	-10.5169
▁ציין	-10.5174
▁השולחן	-10.5176
▁שיפור	-10.5177
▁לרשת	-10.5181
▁נפצעו	-10.5184
▁פינה	-10.5186
▁בוחרים	-10.5188
▁הפתרון	-10.5197
▁הדרום	-10.5199
▁המחוזי	-10.5202
▁דגל	-10.5208
▁רות	-10.5209
▁לענייני	-10.5209
▁המתנה	-10.521
▁סלון	-10.521
▁בספר	-10.5211
▁עיתונות	-10.5212
16	-10.5214
▁כף	-10.522
▁אוטובוס	-10.5221
▁מגישים	-10.5222
▁טסט	-10.5223
▁מובן	-10.5225
▁בכתב	-10.5228
!!!!!	-10.5233
▁מאה	-10.5235
▁מח	-10.524
▁לפתח	-10.5242
▁תוכנה	-10.5243
▁תעשי	-10.5244
▁גוריון	-10.5247
▁יגאל	-10.5247
▁·	-10.5249
▁המקרה	-10.5253
▁החשודים	-10.5253
▁גועל	-10.5256
▁הגולן	-10.5257
▁איסוף	-10.5259
▁מנהיג	-10.5259
▁him	-10.5261
כולל	-10.5261
$	-10.5271
▁ביוני	-10.5273
▁live	-10.5273
▁מפחיד	-10.5275
▁גפן	-10.528
▁קצרה	-10.5283
▁ייצור	-10.5285
▁הקטנים	-10.5288
▁אדרי	-10.5289
▁שעון	-10.529
▁שרוצים	-10.5292
▁תומך	-10.5297
▁Re	-10.5299
▁הקריאה	-10.5302
▁הפרק	-10.5303
▁קשת	-10.5304
▁רישיון	-10.5306
▁בתים	-10.5309
▁סער	-10.5311
▁הכספים	-10.5313
▁בתיק	-10.5314
▁לתמוך	-10.5314
▁הפלסטינית	-10.5321
▁באחת	-10.5323
▁חומרי	-10.5324
▁המלח	-10.5331
▁ביצים	-10.5336
17	-10.534
▁מרחב	-10.5341
▁שיטת	-10.5341
▁המוזיקה	-10.5343
▁נסה	-10.5346
▁הכנה	-10.5346
▁מע	-10.5347
▁לקום	-10.5349
▁בשירות	-10.535
▁מבורכת	-10.5352
▁כשהם	-10.5354
ניות	-10.5357
▁לוקחים	-10.536
▁בהר	-10.5362
▁לבנון	-10.5368
▁Mor	-10.537
▁עוברת	-10.537
▁תום	-10.5372
▁שמת	-10.5376
לפני	-10.5377
רו	-10.5378
▁ימשיך	-10.5381
▁ניסים	-10.5381
▁own	-10.5385
▁בקול	-10.5391
▁הדיור	-10.5392
netanyahu	-10.5396
ch	-10.5397
▁פאר	-10.5398
▁שותפים	-10.5401
▁בכיתה	-10.5405
▁חיילי	-10.5406
▁מדריך	-10.5406
▁שיח	-10.5409
▁התינוק	-10.541
▁ראשית	-10.5413
▁נהריה	-10.5414
▁יקבלו	-10.5416
▁מספק	-10.5419
אפשר	-10.542
▁יונה	-10.5421
▁same	-10.5423
▁מכוניות	-10.5423
▁company	-10.5425
ולא	-10.5428
▁לדיון	-10.543
▁בלונדון	-10.5434
▁פסח	-10.5435
▁דווח	-10.5441
▁too	-10.5441
▁three	-10.5445
▁והנה	-10.5446
▁מכאן	-10.5447
▁ביו	-10.5447
▁ייחודית	-10.5452
▁דבריו	-10.5453
▁מהממים	-10.5454
▁אוף	-10.5455
▁בקשת	-10.5459
▁מתכונים	-10.5459
▁ואחד	-10.5459
▁קראו	-10.546
▁גת	-10.5465
»	-10.5465
▁ציונה	-10.5466
▁יבנה	-10.5467
▁האי	-10.5469
▁נגדו	-10.5472
▁למשטרה	-10.5472
▁המדהים	-10.5474
▁under	-10.5477
םם	-10.5477
▁look	-10.548
▁תקין	-10.548
▁תחבורה	-10.548
▁נחל	-10.5483
▁מספרים	-10.5491
▁שבין	-10.5492
▁Mobile	-10.5493
▁הגן	-10.5494
▁ולחן	-10.5495
▁הכנס	-10.5496
▁עונת	-10.5496
90	-10.5499
ום	-10.55
▁לפיתוח	-10.5502
▁העולמי	-10.5503
▁story	-10.5503
▁1000	-10.5506
▁למייל	-10.5506
▁רכישת	-10.5507
▁information	-10.5509
▁בוכה	-10.5511
▁הזהב	-10.5511
▁מובילה	-10.5513
▁לצלם	-10.5514
▁איתכם	-10.5516
▁השידור	-10.5518
▁עצום	-10.5525
▁לשלום	-10.5525
▁סובל	-10.5526
▁מזמין	-10.5527
▁תה	-10.553
▁לשתות	-10.5532
▁האמריקני	-10.5532
▁אג	-10.5534
▁בחול	-10.5534
▁לשינוי	-10.554
▁פנו	-10.5543
▁בעיניים	-10.5543
▁זרים	-10.5544
▁מהחיים	-10.5548
▁שעושים	-10.5548
▁הכוללת	-10.5554
▁האזור	-10.5555
▁ממי	-10.556
▁גביע	-10.5562
▁משלמים	-10.5563
▁הכנסה	-10.5567
▁אוחנה	-10.5571
▁תגיות	-10.5577
אט	-10.5578
23	-10.5578
▁d	-10.558
▁Z	-10.5582
▁מרץ	-10.5588
▁שעתיים	-10.5588
▁מבני	-10.5589
לס	-10.5595
▁תמי	-10.5595
me	-10.5599
▁המחבלים	-10.5602
▁החלטתי	-10.5603
שים	-10.5605
▁העירוני	-10.5607
▁משפחתו	-10.5608
▁תשומת	-10.5617
▁נהיגה	-10.562
וי	-10.5621
▁המקסימה	-10.5623
▁סך	-10.5627
▁הלאומית	-10.5628
▁טיפולים	-10.5631
▁הפכה	-10.5633
▁בחוף	-10.5636
▁did	-10.5637
▁תאורה	-10.5637
▁מהמערכת	-10.5639
▁תיווך	-10.5641
▁החוצה	-10.5642
יפ	-10.5642
▁לעצמך	-10.5643
▁מרדכי	-10.5646
▁מחשבים	-10.565
▁ותרגום	-10.5652
▁אנטי	-10.5657
▁ראינו	-10.5657
▁מרשים	-10.5657
▁עמיר	-10.5661
▁כפות	-10.5661
▁מעיין	-10.5663
טק	-10.5666
▁דואר	-10.5667
▁אהובים	-10.5668
▁הזוי	-10.5668
▁מודל	-10.5673
▁רעב	-10.5676
▁בלה	-10.5678
▁לאמא	-10.5679
▁חלומות	-10.568
▁בצהריים	-10.5684
▁הזמנים	-10.5689
▁Gal	-10.5689
▁עיתון	-10.5691
▁התקציב	-10.5692
▁מרוצה	-10.5698
▁למלא	-10.5702
▁מעניינים	-10.5702
▁במרחב	-10.5705
▁בקומה	-10.5713
▁איכותיים	-10.5716
▁שרים	-10.5716
▁בעצמו	-10.5718
▁אוגוסט	-10.5718
▁שף	-10.572
▁לשחרר	-10.5722
▁מזמינים	-10.5732
▁הרחב	-10.5734
▁התוצאות	-10.5736
▁מוסיפים	-10.5736
▁תמצאו	-10.5739
יל	-10.5741
▁גבולות	-10.5743
▁אהיה	-10.5745
▁הפלסטינים	-10.5747
▁התגובות	-10.5753
▁סנטר	-10.5755
▁הרביעי	-10.5756
▁מש	-10.5756
▁זהבי	-10.576
▁אמין	-10.5761
▁מידות	-10.5763
▁המהממת	-10.5765
▁הפסקת	-10.5765
▁עברית	-10.5767
▁שלחו	-10.5771
▁החברתיות	-10.5775
▁איגוד	-10.5778
▁בדירה	-10.5778
▁להגנת	-10.5779
▁דודי	-10.5796
▁האשראי	-10.5798
▁הגרעין	-10.5802
▁תחושה	-10.5802
▁המקצועי	-10.5804
▁???	-10.5804
▁הנדל	-10.5805
▁ביי	-10.5807
▁זוגיות	-10.5808
▁העברת	-10.5808
▁ריח	-10.5811
▁מצלמות	-10.5813
▁בביצוע	-10.5816
▁הרשימה	-10.5818
▁התיק	-10.5819
▁אוכלים	-10.5821
▁אשכנזי	-10.5821
היה	-10.5821
▁בשיר	-10.5822
▁לפספס	-10.5824
▁לזוג	-10.5828
▁נהרגו	-10.5829
▁טיולים	-10.5832
▁העמותה	-10.5835
▁החברתית	-10.5845
▁להורדה	-10.5848
▁הפתיחה	-10.5851
▁דעתי	-10.5859
▁בש	-10.5859
▁השיווק	-10.5861
▁התקיים	-10.5861
▁זית	-10.5861
▁עובדות	-10.5861
▁חסרי	-10.5863
▁מק	-10.5865
▁print	-10.587
▁פותח	-10.5876
▁זמני	-10.5877
▁הת	-10.5879
▁העברית	-10.5883
▁הפקה	-10.5884
▁משנת	-10.589
▁בהיקף	-10.5895
בני	-10.5895
▁בכיף	-10.5895
▁האופנה	-10.5896
▁כתבתי	-10.5897
▁אשת	-10.59
▁לימור	-10.5906
▁הכוחות	-10.5908
▁ארגוני	-10.5908
אוהבת	-10.5914
▁נסגר	-10.5915
▁אוהדי	-10.5916
▁חדד	-10.5918
am	-10.5924
▁פול	-10.5925
▁אבטחה	-10.5925
▁אשה	-10.593
▁לעיתים	-10.5932
▁סעיף	-10.5934
▁יועץ	-10.5938
as	-10.5939
▁every	-10.5941
בין	-10.5941
▁היחסים	-10.5943
▁תחושת	-10.5946
▁עדכונים	-10.5947
▁חיזבאללה	-10.595
▁המפגש	-10.5951
▁אישיות	-10.5952
▁תותחית	-10.5952
50	-10.5954
▁פנה	-10.5955
▁תגיע	-10.596
▁מבקשים	-10.596
▁better	-10.5964
▁set	-10.5965
▁מגזין	-10.5969
נא	-10.5969
▁מקרר	-10.5971
▁הבחור	-10.5975
▁ערים	-10.5975
israel	-10.5977
▁צפויים	-10.5977
טל	-10.5978
▁בפארק	-10.5985
▁במים	-10.5986
▁קרם	-10.5987
▁האישום	-10.5989
▁הפסקה	-10.599
▁שונאת	-10.599
▁בקו	-10.5991
▁מלאים	-10.5992
▁לגור	-10.5995
▁שוטר	-10.5997
▁באש	-10.5998
▁שבאמת	-10.6002
▁הרצל	-10.6004
▁during	-10.6011
▁יגיעו	-10.6012
▁לנצל	-10.6017
▁עליון	-10.6018
▁התביעה	-10.6018
▁וטעים	-10.6025
▁פיקוד	-10.6027
▁נקרא	-10.6029
▁מנהלי	-10.6035
▁בחודשים	-10.6036
▁לשעה	-10.6038
▁המורים	-10.6039
▁טיפולי	-10.604
100	-10.6042
₪	-10.6044
▁36	-10.6045
▁החלום	-10.6046
▁הביא	-10.6053
▁ארצי	-10.6055
▁באפריל	-10.6055
▁אפי	-10.6055
▁הסטודנטים	-10.6055
▁מציאות	-10.6055
▁נגיד	-10.6056
▁עונש	-10.6059
▁הקרקע	-10.6063
▁האירופי	-10.6064
▁שרות	-10.6065
▁חנוכה	-10.6065
▁אמון	-10.6071
▁חשודים	-10.6074
▁שפירא	-10.6076
▁מצרים	-10.6079
▁צלם	-10.6081
▁משפטי	-10.6083
אחד	-10.6084
▁למידה	-10.6085
▁מורן	-10.6085
▁לבלות	-10.6086
▁data	-10.6087
▁experience	-10.6089
▁באוויר	-10.6091
▁התיירות	-10.6092
▁מקצועיים	-10.6102
▁פח	-10.6103
▁לדין	-10.6105
▁בגוגל	-10.611
▁מני	-10.611
לפרטים	-10.6119
▁few	-10.612
▁ויו	-10.6121
▁הרצאה	-10.6127
ורג	-10.6132
▁תמיר	-10.6132
▁הדרכה	-10.6134
▁נר	-10.6142
▁סין	-10.6142
▁בשתי	-10.6146
▁קוראת	-10.6149
▁ביתר	-10.6149
▁נוחה	-10.6151
▁באולפן	-10.6162
▁מאמר	-10.6164
▁הטעם	-10.617
▁Aviv	-10.6174
▁תביעה	-10.6176
▁עכו	-10.6181
▁אובמה	-10.6181
▁העתיקה	-10.6182
▁המופע	-10.6183
▁צילומים	-10.6184
אפ	-10.6186
▁הקישור	-10.6187
▁בשישי	-10.6188
▁נהנים	-10.6189
▁אנג	-10.6189
▁מתקנים	-10.619
▁במשקל	-10.6191
▁הגליל	-10.6192
סט	-10.6192
▁והפעם	-10.6193
na	-10.6194
▁לבתי	-10.6195
▁ליאת	-10.6195
▁ריבלין	-10.6199
▁טוקר	-10.6199
▁בקבוק	-10.6202
▁הקרב	-10.6202
▁המהפכה	-10.6206
▁כותרות	-10.6209
▁בספטמבר	-10.6209
▁רבע	-10.6211
▁משבר	-10.6214
אר	-10.6217
▁תקוה	-10.6218
ar	-10.6221
▁פלסטינים	-10.6221
▁וכולם	-10.6222
@	-10.6225
▁עידו	-10.6231
-<	-10.6231
▁ניסיתי	-10.6232
▁ואורחים	-10.6234
▁רפאל	-10.6234
▁next	-10.6235
▁לגן	-10.6235
▁העבר	-10.6236
▁רשמית	-10.6243
▁ניסו	-10.6254
▁צומת	-10.6258
▁יעשו	-10.626
▁הגאון	-10.6262
ומה	-10.6262
▁Adi	-10.6265
▁וטוב	-10.6267
▁~	-10.627
▁זוגות	-10.627
▁במרץ	-10.6271
▁000	-10.6272
▁מינוי	-10.6273
▁החתונה	-10.6274
▁בליכוד	-10.6276
▁השקעה	-10.6284
▁השקעות	-10.6286
▁לזמן	-10.6286
▁הגעתי	-10.629
▁בקטע	-10.6292
/7	-10.6292
▁St	-10.6295
▁מסיבות	-10.6296
▁פצועים	-10.6298
▁דרכו	-10.6301
ללא	-10.6308
-6	-10.6312
▁חופשה	-10.6313
▁בתקופת	-10.6313
▁המנות	-10.6314
▁20:00	-10.6317
▁במקרים	-10.6319
▁מעוניינת	-10.632
▁מקורי	-10.6324
▁65	-10.6326
▁זכרו	-10.633
▁אורית	-10.6332
לב	-10.6333
▁מרתק	-10.6337
▁סיבות	-10.6338
▁ואו	-10.6339
▁חחחחחחחחחח	-10.6344
▁גלית	-10.6349
▁הטכנולוגיה	-10.6349
▁דודה	-10.6351
▁הירי	-10.6353
▁נתפס	-10.6354
▁ואפשר	-10.6355
ימי	-10.6356
▁support	-10.6358
▁און	-10.6358
▁האהוב	-10.636
▁אשתו	-10.6362
▁מחוברים	-10.637
▁בריאה	-10.6371
▁אס	-10.6372
▁עוגה	-10.6376
▁הנסיעה	-10.6377
▁קצב	-10.6377
▁75	-10.6379
▁week	-10.638
בוקר	-10.6381
▁למספר	-10.6383
-11	-10.6384
▁בהתחלה	-10.6386
▁זיכרון	-10.6387
▁להימנע	-10.6389
ייייי	-10.6389
▁נותר	-10.6389
▁הפרקליטות	-10.6401
▁קיבלנו	-10.6401
▁פרו	-10.6403
▁לחברות	-10.6403
▁במילים	-10.6405
הכל	-10.6405
>)	-10.6405
▁מחאה	-10.641
▁כלשהו	-10.6411
▁המפלגות	-10.6415
▁הנבחרת	-10.6415
Q	-10.6415
▁לטיול	-10.6421
▁שעשה	-10.6428
▁חכמה	-10.6428
▁׳	-10.6432
▁הטלוויזיה	-10.6436
▁מפלגה	-10.6437
▁יומי	-10.6439
▁חשמלי	-10.6447
▁נפרד	-10.6448
▁שאחרי	-10.6449
▁המסך	-10.6459
▁אהוב	-10.6472
▁המהלך	-10.6472
▁כביסה	-10.6475
▁w	-10.648
▁התחלתי	-10.6482
▁העמק	-10.6488
▁גדל	-10.6489
בכל	-10.649
▁שלושת	-10.6495
▁טועה	-10.6496
▁ינואר	-10.65
40	-10.6506
▁לעונה	-10.6509
▁סיכום	-10.6509
▁come	-10.6512
▁מופיע	-10.6514
be	-10.6523
▁האחים	-10.6523
▁להירשם	-10.6523
▁לירון	-10.6529
▁חתול	-10.6529
▁הפה	-10.6529
▁הכלים	-10.653
בו	-10.6534
▁קיימים	-10.6536
st	-10.6536
▁מטען	-10.6536
▁מגי	-10.6537
▁אמצעי	-10.6537
▁אמונה	-10.6541
▁השינוי	-10.6541
▁טווח	-10.6541
▁בחינוך	-10.6547
▁בטיפול	-10.6547
▁מסוגל	-10.655
▁נטלי	-10.6551
▁מצאו	-10.6552
▁אדומים	-10.6554
▁מנצח	-10.6555
▁ניקוי	-10.6555
▁הכרמל	-10.6559
▁העמוד	-10.6559
▁בפיגוע	-10.6559
▁צוותי	-10.6563
▁עצומה	-10.6563
▁איטליה	-10.6563
▁הרגל	-10.6566
▁למועדפים	-10.6566
▁album	-10.6567
▁טילים	-10.6572
▁קסום	-10.6576
▁פז	-10.6578
▁One	-10.6578
▁עצם	-10.6579
▁הלידה	-10.658
▁On	-10.6583
▁קסם	-10.6584
▁דלת	-10.6585
▁באולם	-10.6586
▁family	-10.6589
▁נמשיך	-10.6591
▁המקורי	-10.6593
▁בצ	-10.6594
▁המטוס	-10.6594
▁מורכב	-10.6594
▁האירוח	-10.6598
▁ביתנו	-10.6599
▁דוגמא	-10.6605
ov	-10.6606
▁לקרות	-10.6613
▁הנאשם	-10.6613
▁דוח	-10.6614
▁רעש	-10.6615
▁המחלקה	-10.6616
▁City	-10.6616
▁יציאה	-10.6621
▁הפוליטית	-10.6621
▁פתחה	-10.6623
▁וא	-10.6624
▁לעיצוב	-10.6624
▁48	-10.6625
▁גבעת	-10.6627
▁להצלחה	-10.6628
▁When	-10.6633
▁במשק	-10.6634
▁לפייסבוק	-10.6636
▁בארגון	-10.6636
▁2008	-10.6638
▁^^	-10.6639
▁קישורים	-10.6643
▁הגבוה	-10.6645
▁דיבר	-10.6646
▁חייהם	-10.6647
25	-10.6649
▁בטירוף	-10.6654
▁נודע	-10.6654
▁בטעות	-10.6655
אס	-10.6656
▁קיבוץ	-10.6656
▁דוא	-10.6658
▁שלישית	-10.6659
▁נפגע	-10.6659
▁במעמד	-10.666
▁ושר	-10.6662
▁משלוחים	-10.6667
▁התכנון	-10.6669
▁המתכון	-10.6671
▁כזכור	-10.6678
▁תחומי	-10.668
▁אחות	-10.6682
בלי	-10.6684
▁עוגות	-10.6685
ראש	-10.669
▁כתבו	-10.669
▁גינה	-10.669
▁לשוק	-10.6696
▁תענוג	-10.6699
▁תקבל	-10.67
▁מנתחים	-10.6703
▁המודעות	-10.6703
▁בכר	-10.6706
▁ושירותים	-10.6712
▁בדרכים	-10.6712
os	-10.6713
▁שנראה	-10.6713
▁מעלית	-10.6717
▁מכונת	-10.672
▁מחול	-10.6721
▁זמינה	-10.673
▁בכבוד	-10.6734
▁שמצאת	-10.674
▁עיתונאים	-10.6741
▁הרווחה	-10.6742
אק	-10.6743
▁שומע	-10.6744
▁איכותית	-10.6744
▁להקמת	-10.6744
יפה	-10.6745
▁הפקות	-10.675
▁לחקירה	-10.6752
▁נוצר	-10.6756
▁בהשוואה	-10.6758
▁וארוחת	-10.6758
▁אמאלה	-10.6764
▁סמים	-10.677
▁מבקר	-10.6771
▁הריבית	-10.6771
▁מקסימים	-10.6772
▁התנהגות	-10.6772
▁מסכימה	-10.6773
▁הגג	-10.6776
▁הערכה	-10.6777
▁מיותר	-10.6778
▁אורז	-10.6779
▁פרידמן	-10.6781
▁היועץ	-10.6782
▁זכוכית	-10.6782
▁עלויות	-10.6783
▁לאזור	-10.6785
▁שנאה	-10.6786
▁תמונת	-10.6786
▁סגירת	-10.679
ya	-10.679
מתי	-10.679
▁things	-10.6791
▁מטוס	-10.6793
▁שקר	-10.6794
▁נח	-10.6796
▁הספרים	-10.6797
▁לד	-10.6801
דו	-10.6801
▁לפגוש	-10.6801
▁לנתניהו	-10.6804
▁סוריה	-10.6806
▁הרמטכ	-10.6807
▁קודש	-10.6807
▁55	-10.6809
▁memory	-10.6809
▁השף	-10.6809
▁מוצלחת	-10.6811
▁הכללי	-10.6812
פים	-10.6815
▁אוניברסיטת	-10.6815
▁תו	-10.6816
▁ליצירת	-10.6819
▁אחריו	-10.6819
▁הציונות	-10.6819
▁רצוי	-10.682
▁טכנולוגיה	-10.682
▁טעימות	-10.6823
▁מיוחדות	-10.6824
▁כרטיסי	-10.6825
▁אנד	-10.6828
▁לחנות	-10.6828
▁חרדי	-10.6829
▁היסטוריה	-10.6829
▁מאזן	-10.6831
▁נתנו	-10.6833
▁מקורות	-10.6833
▁היקף	-10.6833
▁הכלכלי	-10.6835
▁שולחנות	-10.6835
▁באור	-10.6836
▁לתאר	-10.6838
▁שווי	-10.6839
רר	-10.684
▁מוחמד	-10.6841
▁לבכות	-10.6841
▁חלקם	-10.6842
▁החומר	-10.6843
▁מצליחים	-10.6848
▁Google	-10.6851
▁קיום	-10.6852
▁כיכר	-10.6852
▁הפועלים	-10.6854
▁בקניון	-10.6858
▁סדרה	-10.6872
▁וכמו	-10.6874
▁לחברי	-10.6875
▁החמאס	-10.6876
▁שכונת	-10.6876
▁האזרחים	-10.6878
▁דעות	-10.6879
▁free	-10.688
▁היתרונות	-10.6881
▁לערב	-10.6883
חות	-10.6883
▁זוגי	-10.6884
▁יוצר	-10.6886
▁המאמר	-10.6887
▁אישרה	-10.6889
▁סרטונים	-10.689
▁חלקים	-10.6891
▁אלפים	-10.6894
▁הבכורה	-10.6896
▁האו	-10.6896
▁פועלת	-10.6899
▁ילדות	-10.6901
▁תינוקות	-10.6904
▁אחרונה	-10.6906
able	-10.6907
▁התעשייה	-10.6907
▁תרופות	-10.6908
שישי	-10.6909
▁ארוכות	-10.6913
▁במושב	-10.6915
▁ניראה	-10.6922
▁בתחנת	-10.6924
▁אופי	-10.6925
▁השכר	-10.6926
▁end	-10.6928
▁פוסטים	-10.6928
▁פותחים	-10.6928
▁ביקורך	-10.693
▁התקופה	-10.6935
חובה	-10.6937
▁מישראל	-10.6937
-8	-10.6937
▁התערוכה	-10.6938
▁המניות	-10.6938
▁המשתלמת	-10.6939
▁סיכון	-10.694
▁הצליחה	-10.694
▁הדו	-10.6944
▁גלגלים	-10.6944
▁הגשת	-10.6944
▁הקבוצות	-10.6945
▁שיעורי	-10.6945
▁פרטיות	-10.6946
▁top	-10.6946
▁בכוח	-10.6949
▁זקוקים	-10.6951
▁ממוצע	-10.6959
▁גידול	-10.6962
▁משני	-10.6962
▁always	-10.6965
▁הודעת	-10.6967
▁לבנים	-10.697
▁השאלות	-10.6972
▁זכו	-10.6972
▁פתחו	-10.6974
▁תשובות	-10.6975
▁שחקני	-10.6977
▁מאמץ	-10.698
▁2009	-10.6981
▁דג	-10.6991
▁להבטיח	-10.6992
▁חלקית	-10.6993
▁מטרים	-10.6999
▁הדעת	-10.6999
▁משרדי	-10.7001
▁מיועד	-10.7002
▁ואנו	-10.7004
▁מאבק	-10.7006
▁תגידי	-10.7012
נדה	-10.7012
▁מחנה	-10.7013
▁קומות	-10.7013
▁נתון	-10.7014
▁מעדיף	-10.7016
▁בתחומי	-10.7017
▁שורה	-10.702
▁08	-10.702
▁הכנסות	-10.702
▁גזר	-10.7022
▁ותמיד	-10.7026
▁בפוסט	-10.7028
▁יורד	-10.703
▁מבטיח	-10.703
▁כשתהיה	-10.703
▁גאים	-10.7032
▁דתי	-10.7033
▁מגע	-10.7033
▁including	-10.7034
▁דוברות	-10.7035
▁לבנה	-10.7038
▁הפכו	-10.7038
▁אביו	-10.7041
▁מזרח	-10.7042
▁עתה	-10.7043
▁אירוח	-10.7046
▁לסיום	-10.7047
▁עריכה	-10.7048
▁אופנוע	-10.7048
▁יחיד	-10.705
▁ולעשות	-10.7053
▁אפליקציה	-10.7056
▁המשותפת	-10.7056
▁מרוב	-10.7056
▁לכתבה	-10.7057
▁יור	-10.7058
▁שבעולם	-10.7066
▁יואו	-10.7069
▁השכונה	-10.7069
%	-10.707
▁לזהות	-10.7073
▁ונעים	-10.7075
▁טכני	-10.7075
▁בחקירה	-10.7076
▁טיפה	-10.7077
▁שאמר	-10.7079
▁שיקום	-10.708
▁ניצן	-10.7082
▁צופים	-10.7083
▁בבר	-10.7085
▁עודכן	-10.7092
▁Uploads	-10.7093
▁קצין	-10.7097
פשוט	-10.71
▁ניצב	-10.7102
▁האנרגיה	-10.7102
▁הודו	-10.7103
▁שישה	-10.7103
▁מונה	-10.7103
ma	-10.7106
▁במגזר	-10.7107
▁שא	-10.7108
▁ועיצוב	-10.7108
▁ופשוט	-10.711
▁לפנק	-10.7113
▁החקיקה	-10.7113
▁הרחק	-10.7114
▁ברבעון	-10.7114
▁מוח	-10.7116
▁החשד	-10.7117
▁להתייחס	-10.7117
▁ליגה	-10.7122
▁לערוץ	-10.7125
▁פצצה	-10.7126
▁בגבול	-10.7128
▁lot	-10.7128
▁גאון	-10.713
▁המטבח	-10.7132
▁הקיר	-10.7132
▁באי	-10.7135
▁לחצי	-10.7136
▁רחבה	-10.7138
תתתת	-10.7142
▁בעה	-10.7142
fm	-10.7142
▁בגדי	-10.7142
▁סיגל	-10.7145
▁רמות	-10.7148
▁פרסם	-10.7152
▁בחירתך	-10.7152
▁נקודת	-10.7154
שתפו	-10.7155
▁does	-10.7156
▁ריהוט	-10.716
▁הנכונה	-10.7162
▁צחוק	-10.7164
▁חתולים	-10.7165
▁un	-10.7165
▁ושומרון	-10.7166
▁אחסון	-10.7171
▁בלעדי	-10.7173
24	-10.7174
▁חיזוק	-10.7177
▁שונא	-10.7179
▁רפואית	-10.7183
שת	-10.7186
▁בנים	-10.7187
▁מניח	-10.7188
▁available	-10.7188
▁כפול	-10.7189
▁בתוקף	-10.719
▁לשמש	-10.7191
▁בשימוש	-10.7192
▁פוליטית	-10.7192
▁עוקבים	-10.7198
וגם	-10.7199
▁ויום	-10.72
▁הה	-10.72
▁שאל	-10.7201
▁ארהב	-10.7204
▁בצומת	-10.7204
▁בהרצליה	-10.7208
▁להסתכל	-10.721
▁לצוות	-10.7211
▁המנהל	-10.7215
▁יורם	-10.722
▁בניסיון	-10.7223
▁נעליים	-10.7223
▁ביולי	-10.7224
▁ההזדמנות	-10.7225
▁קניתי	-10.7225
אף	-10.7227
▁צחי	-10.7233
▁מושב	-10.7233
la	-10.724
▁האחרים	-10.7241
-100	-10.7242
«	-10.7243
▁מוזמנת	-10.7248
▁מרוצים	-10.7248
▁טיסות	-10.725
פת	-10.7251
▁הוצאת	-10.7252
▁בחרו	-10.7253
▁יקרות	-10.7253
▁המוסד	-10.7255
צו	-10.7257
▁מזגן	-10.7258
יהאד	-10.7259
ra	-10.7259
▁החוויה	-10.726
▁באוגוסט	-10.7261
▁שלטון	-10.7262
▁עמדה	-10.7264
▁בבעיות	-10.7264
Heb	-10.7267
▁כמוני	-10.7269
▁מאושרת	-10.7269
▁הרופא	-10.727
▁water	-10.7271
▁עוז	-10.7273
▁כלה	-10.7273
▁אלקטרוני	-10.7273
▁הדס	-10.7274
▁מיטה	-10.7274
▁בקישור	-10.7278
▁ללמד	-10.728
▁בנוחות	-10.7282
▁בהופעה	-10.7292
▁טור	-10.7294
▁נתראה	-10.7296
▁ער	-10.73
▁בדקה	-10.7301
▁במ	-10.7302
▁והאם	-10.7305
▁האב	-10.7306
▁לכו	-10.7306
Riklin	-10.7307
▁Resort	-10.7311
▁ההרשמה	-10.7312
▁השיטה	-10.7312
▁פופולריות	-10.7316
▁השרים	-10.7316
▁החשוב	-10.7316
▁May	-10.7318
▁50%	-10.732
▁לחג	-10.7322
▁לגברים	-10.7325
▁אתרי	-10.7326
▁ונראה	-10.7329
▁ברשות	-10.7332
▁סקס	-10.7334
▁מוקד	-10.7344
▁בחצר	-10.7345
כדי	-10.7347
▁להצליח	-10.7352
מהמחיר	-10.7352
▁sure	-10.7355
▁משלם	-10.7356
▁אומנות	-10.7358
▁המסלול	-10.7359
▁מהאטרקציות	-10.736
▁שכזה	-10.736
▁ואמן	-10.7362
▁ההצבעה	-10.7363
▁תזונה	-10.7366
▁מסיבה	-10.7368
▁עגבניות	-10.7371
▁לדוגמא	-10.7373
▁הענק	-10.7373
▁חשבונות	-10.7373
▁גיבור	-10.7373
▁להחליט	-10.7373
פו	-10.7374
▁עפולה	-10.7375
אלי	-10.7376
▁הבין	-10.7384
▁תעלה	-10.7388
▁ומשווים	-10.7389
▁וזהו	-10.7389
▁כתיבה	-10.7392
▁אדיב	-10.7396
▁להגדיל	-10.7397
▁More	-10.7398
▁מוחלט	-10.7399
▁זכר	-10.74
▁שהיתה	-10.7403
▁קרדיט	-10.7403
▁ליין	-10.7408
▁כ־	-10.7409
▁לשבוע	-10.741
נס	-10.7411
▁בתנאי	-10.7412
▁הוחלט	-10.7412
▁אסון	-10.7413
שנה	-10.7418
▁מפריע	-10.742
▁להשפיע	-10.742
▁המאה	-10.7422
▁רעות	-10.7423
▁ברשימת	-10.7423
▁מטרת	-10.7423
▁הקוד	-10.7424
▁₪1	-10.7425
▁At	-10.7426
▁show	-10.7427
▁החרדית	-10.7432
▁מבנים	-10.7432
▁מתקדמים	-10.7433
▁פלא	-10.7435
▁מגלה	-10.7435
▁מפי	-10.7436
ro	-10.7439
▁להביע	-10.744
▁מיליוני	-10.7443
▁למדינת	-10.7444
▁מהמקום	-10.7445
▁שייך	-10.7449
▁להתאים	-10.745
▁וכש	-10.7452
ווו	-10.7452
▁בקצב	-10.7455
▁הרבים	-10.7457
▁חביב	-10.7461
▁נכס	-10.7462
▁תבוא	-10.7464
▁שחשוב	-10.7464
▁שמירה	-10.7465
▁בענף	-10.7466
▁התחנה	-10.747
▁אחרונים	-10.747
▁כוסות	-10.7471
ion	-10.7472
▁בתמונות	-10.7474
▁עדות	-10.7476
▁פריטים	-10.7479
▁מאושרים	-10.748
▁המובילות	-10.748
▁ארון	-10.7481
▁השנתי	-10.7485
▁עובדיה	-10.7486
/9	-10.749
▁דעה	-10.7493
▁Nail	-10.7495
בים	-10.7499
ההההה	-10.7501
▁ומת	-10.7504
us	-10.7506
▁האחריות	-10.7508
▁העבודות	-10.751
▁העדה	-10.751
▁צער	-10.7515
▁תאונות	-10.7516
▁להופעה	-10.7516
צה	-10.7517
▁לצחוק	-10.7522
▁שבעה	-10.7526
▁דירוג	-10.7527
▁דיווחים	-10.7534
▁חגיגות	-10.7536
▁לרוץ	-10.7536
▁תלונה	-10.7538
▁רגעים	-10.7539
▁נותרו	-10.7541
▁מנהלים	-10.7543
▁נמל	-10.7543
▁חל	-10.7544
▁ריאל	-10.7549
▁bit	-10.755
▁המשרה	-10.7553
▁יתכן	-10.7553
▁חיצוני	-10.7557
▁ברצינות	-10.7559
-7	-10.7561
▁האחד	-10.7564
▁הריון	-10.7564
מדובר	-10.7564
▁שואה	-10.7571
▁התמיכה	-10.7573
▁נער	-10.7574
▁ברירה	-10.7575
▁לחזק	-10.7578
▁ברצלונה	-10.7579
▁חודשי	-10.7579
יני	-10.758
▁ביאליק	-10.758
▁סוכנות	-10.7582
▁הרופאים	-10.7582
▁מליון	-10.7585
▁האלופות	-10.7586
▁>>>	-10.7587
▁וקל	-10.7587
▁בזק	-10.7589
60	-10.759
פר	-10.759
▁הסביר	-10.7595
▁אזרח	-10.7595
▁נוסע	-10.7601
▁פלאש	-10.7604
▁בשיחה	-10.7607
▁בדצמבר	-10.7608
▁לטווח	-10.7608
▁בנחת	-10.7609
▁הנוסעים	-10.7611
▁Y	-10.7612
▁ברח	-10.7616
▁שתף	-10.7618
-19	-10.7619
▁little	-10.7622
▁x	-10.7622
▁הדלת	-10.7624
▁פלילי	-10.7626
▁משרות	-10.7631
▁בהתחשב	-10.7633
עכשיו	-10.7634
▁אשכול	-10.7635
70	-10.7639
▁סופי	-10.7642
▁ובעולם	-10.7642
▁בכיכר	-10.7644
▁מכה	-10.7645
▁האדמה	-10.7645
▁בארצות	-10.7645
▁עצמנו	-10.7645
▁שוחח	-10.7646
▁הוצאות	-10.7647
▁הכוכבים	-10.765
lt	-10.765
▁since	-10.7653
▁היומי	-10.7655
▁ארדן	-10.7656
▁תיירים	-10.7657
ונה	-10.7657
▁לבחון	-10.7657
▁קמח	-10.7657
▁אליעזר	-10.7663
▁גילי	-10.7665
▁הטובות	-10.7669
▁יסוד	-10.7669
▁רונית	-10.7673
-16	-10.7676
ייך	-10.7677
bar	-10.7681
▁המיועדים	-10.7685
▁ומלא	-10.7685
▁לנושא	-10.7685
▁נהנה	-10.7686
▁נטע	-10.7694
▁ידעו	-10.7698
▁מוסר	-10.7699
▁אודי	-10.7701
▁חטיבת	-10.7702
▁המסר	-10.7703
▁בק	-10.7706
יר	-10.771
▁לחתונה	-10.7717
▁מארוחת	-10.7721
▁נדבר	-10.7723
▁אצלכם	-10.7724
▁בקריית	-10.7725
▁להלן	-10.7729
▁Al	-10.773
▁לביא	-10.773
▁השיחות	-10.7731
▁מוכשרת	-10.7738
גל	-10.7739
▁בחירת	-10.774
▁במיל	-10.7743
▁ביג	-10.7746
▁ריק	-10.7748
json	-10.775
▁יושבים	-10.775
▁service	-10.7753
▁היין	-10.7755
▁הבניין	-10.7757
▁לוד	-10.7765
שר	-10.7769
***	-10.777
▁אביגדור	-10.7771
▁number	-10.7771
▁למדי	-10.7773
▁הוראות	-10.7776
צריך	-10.7777
▁יתן	-10.7777
▁מוקדמת	-10.7778
▁הדיווח	-10.778
▁something	-10.7786
ערב	-10.7787
▁להרוג	-10.779
▁להקשיב	-10.7794
▁למד	-10.7795
▁מספקת	-10.7797
▁Beach	-10.7797
▁פוטין	-10.7797
▁הגורמים	-10.7798
▁לחינוך	-10.7798
▁ההיסטוריה	-10.7799
▁הבקשה	-10.7801
▁פרט	-10.7803
▁ולתת	-10.7804
▁כלכלה	-10.7807
▁בקושי	-10.7807
▁לקו	-10.7808
▁באוניברסיטת	-10.7813
▁אפריקה	-10.7817
▁במופע	-10.7818
▁הליך	-10.7822
▁יוקרתי	-10.7823
▁לתקופה	-10.7824
▁בארהב	-10.7827
▁לפתור	-10.7827
▁לאומית	-10.7833
▁מצבו	-10.7833
▁שעשו	-10.7834
▁ינון	-10.7836
▁סטייל	-10.7837
▁לשון	-10.784
▁בחדשות	-10.784
▁מספקים	-10.7846
22	-10.7847
▁ליבי	-10.7847
▁וייס	-10.785
▁system	-10.785
תך	-10.7855
de	-10.7856
▁אכלנו	-10.7858
▁במשרדי	-10.7859
▁online	-10.7861
אה	-10.7861
▁לחסוך	-10.7863
▁האוטובוס	-10.7864
▁start	-10.7864
▁פתוחה	-10.7865
▁הכותרת	-10.7869
▁הזיכרון	-10.787
▁תביא	-10.787
יין	-10.7874
טו	-10.7875
▁מכיל	-10.7877
דרך	-10.7882
▁הכלל	-10.7883
▁נעלי	-10.7885
▁מצוות	-10.7888
▁מחלה	-10.7888
▁צדיק	-10.7889
▁נשכח	-10.7889
▁האזורית	-10.7892
▁חלונות	-10.7895
and	-10.7899
▁היכנסו	-10.79
▁שנועדו	-10.7904
▁בהיסטוריה	-10.7907
▁Passion	-10.7908
▁אמסלם	-10.791
▁בשווי	-10.7915
▁להרים	-10.7917
▁וראש	-10.7918
▁ניב	-10.792
אתם	-10.7923
▁קיצוני	-10.7927
▁תרצה	-10.7927
▁אמורים	-10.793
▁קולנוע	-10.793
▁האלימות	-10.7932
▁מנשה	-10.7933
▁ברציפות	-10.7933
דר	-10.7937
▁לונדון	-10.7937
▁מסכן	-10.7937
▁מתקדם	-10.7939
▁חזקים	-10.7939
▁וואוו	-10.794
▁המפגינים	-10.7944
▁21:00	-10.7944
▁מהי	-10.7945
▁מעורב	-10.7945
קר	-10.7948
▁got	-10.7949
▁ושני	-10.795
▁חכמים	-10.7952
▁מפגשים	-10.7952
▁דש	-10.7954
▁הצלחתי	-10.7954
▁באב	-10.7961
▁חמודה	-10.7961
▁שמתי	-10.7962
▁העלייה	-10.7965
▁כפית	-10.7966
▁שליייי	-10.7966
▁והמ	-10.7968
▁נכנסת	-10.7968
▁שד	-10.7972
img	-10.7973
▁El	-10.7974
▁להפעיל	-10.7975
▁נסיך	-10.7976
▁הרצאות	-10.7976
▁מפחד	-10.7978
▁יקירה	-10.7979
▁תרגום	-10.7983
▁34	-10.7985
▁פרנסה	-10.7986
▁הקבלה	-10.7987
▁גנים	-10.7988
▁סיון	-10.799
▁מדריד	-10.7992
▁בינלאומי	-10.7992
▁רשתות	-10.7995
▁המובילים	-10.7995
▁עפ	-10.7997
▁מרבית	-10.8001
▁found	-10.8002
▁קילו	-10.8002
▁הניצחון	-10.8003
▁השליטה	-10.8005
▁page	-10.8005
▁יעיל	-10.8008
▁אילנה	-10.8009
▁תוצרת	-10.801
▁משפחתית	-10.801
▁תמשיכו	-10.8011
▁שאומר	-10.8013
▁אתיופיה	-10.8015
▁נשלח	-10.8016
▁De	-10.8019
מול	-10.8021
▁להטמיע	-10.8024
▁מציגה	-10.8026
▁היעד	-10.8028
▁בטן	-10.8029
קל	-10.8035
▁מעורר	-10.8036
▁העולמית	-10.8038
21	-10.804
▁עשויה	-10.8044
▁האישית	-10.8044
▁החי	-10.8045
םםםם	-10.8047
▁מגרש	-10.805
▁ולראות	-10.805
▁מתאימים	-10.805
▁החלב	-10.805
▁סופית	-10.8051
▁נאמן	-10.8052
▁הגיב	-10.8054
▁במהרה	-10.8058
▁באדיבות	-10.806
▁important	-10.806
▁וילדים	-10.8064
▁נכנסים	-10.8066
is	-10.8068
▁פתוחים	-10.8069
li	-10.8069
▁חולי	-10.8071
▁ממליצים	-10.8075
▁הפתעות	-10.8075
ילי	-10.8081
▁לאשר	-10.8085
▁אמנון	-10.8085
▁הודיעו	-10.8087
▁ובעלי	-10.809
▁able	-10.8092
▁משעמם	-10.8094
▁לדירה	-10.8096
▁שומעים	-10.8097
▁אמרת	-10.8099
▁תשתיות	-10.8106
▁ערכים	-10.8107
▁With	-10.8107
▁שופט	-10.8108
▁חיובי	-10.8109
▁בסדרה	-10.8109
▁בסין	-10.8109
▁הקמפיין	-10.8111
▁בדיחה	-10.8111
כה	-10.8111
▁חריף	-10.8112
▁איריס	-10.8112
▁במשפחה	-10.8115
▁שדות	-10.8116
▁מוזיאון	-10.8119
▁רומנטי	-10.8121
▁ובטח	-10.8124
▁might	-10.8126
▁That	-10.813
▁התחייבות	-10.8131
▁תפקידו	-10.8134
▁תייגו	-10.8135
▁לפרסום	-10.8137
▁ולהיות	-10.8137
▁נדרש	-10.8137
▁המקומיות	-10.8138
▁פנינה	-10.8138
▁להיום	-10.8139
▁העירונית	-10.8141
▁עמו	-10.8142
▁«	-10.8143
▁יומולדת	-10.8143
▁גמיש	-10.8149
▁הלוי	-10.8151
▁איל	-10.8152
▁פנימי	-10.8153
▁נטו	-10.8155
▁קובע	-10.8158
▁שגיא	-10.8161
▁לגוף	-10.8163
שלום	-10.8163
▁מצאתם	-10.8164
▁ראויה	-10.8165
▁מטפלים	-10.8166
▁בדיון	-10.8167
da	-10.8168
▁אחורה	-10.8168
▁מועצה	-10.817
▁כבל	-10.8172
▁Eden	-10.8173
▁play	-10.8174
▁בקיבוץ	-10.8174
▁במטבח	-10.8177
-50	-10.818
▁הרוב	-10.8183
▁האורחים	-10.8183
▁מהירות	-10.8184
▁בתוספת	-10.8184
▁תצא	-10.8185
▁שקיבל	-10.8186
▁מהו	-10.8188
▁Museum	-10.8192
▁עציון	-10.8193
▁שערי	-10.8193
▁טעמים	-10.8194
▁להוכיח	-10.82
▁מחשבה	-10.8201
▁without	-10.8203
▁איילון	-10.8206
▁לעזרה	-10.8208
▁הירוק	-10.821
▁חולצה	-10.8211
▁החלפת	-10.8214
▁רשום	-10.8215
▁לרפואה	-10.8215
▁הפתעה	-10.822
▁פלפל	-10.8221
▁חכ	-10.8222
▁ללב	-10.8222
▁לינק	-10.8225
▁מפנק	-10.8228
▁אנה	-10.823
▁33	-10.8231
▁מומחים	-10.8232
▁השפעה	-10.8233
▁החגים	-10.8239
▁לשיפור	-10.824
▁ניקיון	-10.824
▁Lior	-10.8251
▁Facebook	-10.8253
▁מדויק	-10.8254
▁הרגשתי	-10.8255
▁מותק	-10.8255
▁טריים	-10.8256
▁טעימים	-10.826
▁הכרה	-10.826
▁הכפר	-10.8261
▁המקצוע	-10.8263
▁מלונות	-10.8263
ha	-10.8265
7%	-10.8267
לך	-10.827
twitter	-10.8271
▁הפגנה	-10.8275
▁להרשמה	-10.8279
▁ובן	-10.8281
▁למדתי	-10.8284
▁הזמנו	-10.8287
▁today	-10.8288
▁בליווי	-10.8289
ינה	-10.8289
▁לייקים	-10.8296
▁לשירות	-10.8302
▁החומרים	-10.8304
▁שהכי	-10.8304
▁להזכיר	-10.8306
▁מתמחה	-10.8307
▁תפילה	-10.8307
▁לתכנון	-10.8308
▁איסור	-10.8309
▁להילחם	-10.831
▁תחזור	-10.8311
▁עובדה	-10.8313
▁מוכשר	-10.8315
▁ספטמבר	-10.8316
▁לסדר	-10.8317
▁אינן	-10.8317
▁התפתחות	-10.8318
▁אונו	-10.832
▁ברית	-10.8322
▁צופה	-10.8323
▁מבחינתי	-10.8325
▁תוספות	-10.8329
▁הגברים	-10.8332
▁רובי	-10.8333
▁שיפוץ	-10.8335
▁פרוייקט	-10.8336
▁בתגובות	-10.8341
▁רחמים	-10.8342
▁העיתון	-10.8344
mp	-10.8344
▁לתפוס	-10.8346
▁תחנות	-10.8348
▁הכלבים	-10.8348
▁מתחילת	-10.8349
▁ארונות	-10.8351
▁וכעת	-10.8354
80	-10.8355
▁הידע	-10.8358
▁כשאתם	-10.8358
▁יס	-10.8362
▁לרשום	-10.8363
▁מטורפת	-10.8365
▁מפת	-10.837
▁זמנית	-10.8371
▁חווית	-10.8372
▁לכי	-10.8373
▁מטרות	-10.8374
▁אביחי	-10.8378
פות	-10.838
▁חסרת	-10.8381
חיים	-10.8382
▁לאיזה	-10.8382
▁ומרגש	-10.8382
▁השיחה	-10.8383
▁מחברת	-10.8384
▁הביקורת	-10.8384
▁מלאי	-10.8388
▁בריאים	-10.8389
▁המייל	-10.839
▁גלובס	-10.8392
▁£	-10.8393
▁וצריך	-10.8397
▁עוגיות	-10.8397
▁האהובה	-10.8399
▁full	-10.8399
▁days	-10.8401
▁הדם	-10.841
▁השב	-10.841
▁בחדרים	-10.8411
—	-10.8416
▁המעבר	-10.8418
▁How	-10.8419
le	-10.842
▁הפסד	-10.8424
▁ואומר	-10.8424
▁כבש	-10.8425
▁קח	-10.8426
▁סינגל	-10.8427
▁פישר	-10.8429
▁הכלכלית	-10.8431
▁מחלות	-10.8433
▁חלה	-10.8436
▁מאמרים	-10.8436
▁בנובמבר	-10.8437
קט	-10.8438
▁סבלנות	-10.8439
▁יבש	-10.844
▁עשינו	-10.8443
▁כיבוי	-10.8445
▁המתאים	-10.8451
▁לעצמם	-10.8453
ויות	-10.8453
▁ברכבת	-10.846
▁במקור	-10.8463
▁נדירה	-10.8465
▁הקודש	-10.847
▁מטיילים	-10.8471
▁חוויות	-10.8471
▁המוביל	-10.8472
▁החוב	-10.8472
▁יהפוך	-10.8473
▁keep	-10.8482
▁הגבר	-10.8486
▁התוכן	-10.8486
▁הס	-10.849
▁הדלק	-10.8492
▁בציבור	-10.8493
▁צר	-10.8496
▁(@	-10.85
▁season	-10.8501
▁קרי	-10.8503
▁מחאת	-10.8508
▁מרחק	-10.8509
▁אדר	-10.8514
19	-10.8516
▁רמלה	-10.8519
▁תקלה	-10.8524
▁חנן	-10.8526
▁לח	-10.8528
▁San	-10.8532
/6	-10.8537
ry	-10.8538
▁התפריט	-10.8541
▁בגוש	-10.8543
im	-10.8545
דים	-10.8545
[	-10.8548
="	-10.8551
▁בישול	-10.8554
▁נפתחה	-10.8554
▁סיבוב	-10.8554
▁טכנולוגיות	-10.8555
אלה	-10.8556
▁שפת	-10.8557
▁קוריאה	-10.8558
▁חומוס	-10.8558
יפים	-10.8561
▁לערוך	-10.8564
▁השומר	-10.8567
▁הרווח	-10.8568
▁ית	-10.8569
▁בנושאים	-10.8573
▁נדמה	-10.8573
▁ראית	-10.8575
▁בבלוג	-10.8578
▁נמצאות	-10.8578
▁looking	-10.8578
▁שפה	-10.8579
▁מסחר	-10.858
-25	-10.8581
▁בעיתון	-10.8583
▁Twitter	-10.8588
▁לפה	-10.8588
▁זיהום	-10.8591
▁כניסת	-10.8592
▁לאישה	-10.8593
up	-10.8594
▁בטוב	-10.8594
ton	-10.8601
▁מגעיל	-10.8606
▁מצחוק	-10.8608
▁חשק	-10.8611
▁בידיים	-10.8613
▁מגה	-10.8614
▁גפני	-10.8614
▁קהילת	-10.8616
▁הצעירה	-10.8616
▁עזרא	-10.8617
▁עסקה	-10.8617
▁סוד	-10.8621
▁מובילים	-10.8621
▁עיתונאי	-10.8623
no	-10.8626
▁בניהול	-10.8628
▁חגי	-10.8632
▁בעמ	-10.8635
▁ופיתוח	-10.8635
▁ההצלחה	-10.8637
▁ההולדת	-10.8642
▁החלמה	-10.8644
▁מורים	-10.8644
▁כותבת	-10.8644
▁מהצד	-10.8649
▁צהוב	-10.8653
▁עלו	-10.8654
▁פנימה	-10.8662
▁כלכך	-10.8669
▁שתיקה	-10.867
▁אופק	-10.8672
▁היכרות	-10.8674
▁העת	-10.8675
▁הנפט	-10.8675
▁בשבועות	-10.8675
▁מבוגרים	-10.8678
▁לאמץ	-10.8681
▁הדסה	-10.8684
▁[...]	-10.8684
▁מלי	-10.8686
▁רוטב	-10.8687
▁must	-10.8687
▁פורטל	-10.8689
חג	-10.8692
▁כולכם	-10.8698
▁משו	-10.87
▁הביאו	-10.8701
-18	-10.8704
▁דפנה	-10.8705
▁השינה	-10.8711
▁מאוהבת	-10.8711
ta	-10.8712
-9	-10.8715
ic	-10.8716
▁אתגר	-10.8716
סה	-10.8716
▁התאונה	-10.8716
35	-10.8717
▁לכ	-10.8718
▁42	-10.8718
מס	-10.872
▁בשדה	-10.8721
▁המספר	-10.8721
▁הרחוב	-10.8723
▁עוסק	-10.8724
▁הדמוקרטיה	-10.8725
▁יקירתי	-10.8728
▁נועד	-10.8729
▁להרוס	-10.8731
▁מעין	-10.8732
▁give	-10.8733
▁ליצמן	-10.8733
▁טופס	-10.8734
▁יאלה	-10.8735
▁ושאר	-10.8735
▁סמל	-10.8737
▁הועדה	-10.8737
▁דצמבר	-10.874
כבר	-10.8744
▁סיפרה	-10.8745
▁מצלמה	-10.8745
▁תכשיטים	-10.8745
▁הפלסטיני	-10.8749
▁משימה	-10.875
▁אורנה	-10.8751
▁Le	-10.8755
▁באוקטובר	-10.8757
▁ובית	-10.8757
▁רופאים	-10.8758
חים	-10.8758
▁למכבי	-10.8763
▁סושי	-10.8766
▁הוצאה	-10.8766
▁provide	-10.8769
▁להמליץ	-10.8769
▁ישאר	-10.8772
▁לרקוד	-10.8774
▁לפרק	-10.8775
▁יכולתי	-10.8776
▁פורת	-10.8776
▁נאור	-10.8779
▁אלכס	-10.8782
▁תלמיד	-10.8783
שמבקרים	-10.8784
▁ובמיוחד	-10.8787
▁סכנה	-10.8789
▁working	-10.879
רס	-10.879
▁דמות	-10.879
▁מהממות	-10.8791
▁מכונית	-10.8792
▁per	-10.8794
חדשות	-10.8794
▁against	-10.8796
▁הראשית	-10.8797
▁הצגה	-10.8799
▁הנסיך	-10.8804
▁תקדים	-10.8805
▁דיגיטלי	-10.8807
▁אונליין	-10.881
▁לארוחות	-10.8812
▁לוחם	-10.8812
▁הלימוד	-10.8813
▁בפרס	-10.8814
▁אישר	-10.8815
▁בכם	-10.8822
▁רגילה	-10.8822
▁מצטרף	-10.8823
▁בובה	-10.8823
▁רצועת	-10.8824
▁המזרח	-10.8825
▁בגרמניה	-10.8826
▁לחברים	-10.8828
▁תיירות	-10.8829
▁ביה	-10.883
▁אחמד	-10.8832
▁משמש	-10.8835
אמא	-10.8836
▁שקטה	-10.8837
▁דהן	-10.8837
▁ברגל	-10.884
▁הורס	-10.884
▁הכירו	-10.884
▁ההשקעה	-10.8843
▁המראה	-10.8844
▁בוודאי	-10.8847
▁המקרים	-10.8848
▁הכאב	-10.885
▁תחליף	-10.8851
▁דגש	-10.8852
▁נסיעות	-10.8857
▁תיקים	-10.8859
▁זהבה	-10.8859
▁בועז	-10.8859
▁2023	-10.8862
▁אמנים	-10.8862
▁לרשות	-10.8862
▁וילה	-10.8865
▁הבנה	-10.8866
▁An	-10.8866
▁הבינלאומית	-10.8869
▁רשויות	-10.887
▁הפעלה	-10.8875
▁באחריות	-10.8875
▁התנאים	-10.8877
▁הירש	-10.8879
▁זקוק	-10.8879
▁הדת	-10.888
▁חלילה	-10.8882
▁ירדו	-10.8884
▁ארוכים	-10.8884
▁איום	-10.8885
▁סכין	-10.8889
▁תאגיד	-10.8889
▁נמכר	-10.8891
▁חתימה	-10.8896
▁נמצאו	-10.89
▁למניעת	-10.89
▁תשתית	-10.8903
▁החקלאות	-10.8905
▁מביאים	-10.8906
וזה	-10.8906
▁וניהול	-10.8909
▁מינימום	-10.8909
▁בליגת	-10.8909
▁במכבי	-10.8909
▁משקאות	-10.891
▁קם	-10.8912
▁מזוודות	-10.8914
▁גבוהות	-10.8914
▁לוקחת	-10.8915
▁חוב	-10.8917
▁התקבלה	-10.8918
▁למלחמה	-10.892
▁הסיכוי	-10.8922
▁גבעתיים	-10.8924
▁טבעוני	-10.8928
▁17:00	-10.8929
▁חוקים	-10.8932
▁ומיזוג	-10.8933
דור	-10.8935
▁פיזית	-10.8936
▁בוגר	-10.8938
▁אוטו	-10.894
▁never	-10.894
▁area	-10.8941
▁מכות	-10.8942
▁מתמיד	-10.8943
קס	-10.8945
▁הדגל	-10.8947
▁להחזיק	-10.895
▁שאסור	-10.8952
▁תוצאה	-10.8953
▁הפגישה	-10.8953
▁קלים	-10.8954
▁ומאז	-10.8955
▁למסע	-10.8955
▁פשע	-10.8956
▁במו	-10.8958
חה	-10.8959
▁יפתח	-10.8962
▁לכלל	-10.8963
▁שמנת	-10.8964
רת	-10.8966
▁מצפים	-10.8967
▁המוות	-10.8968
▁טיפ	-10.8972
▁שתיים	-10.8973
חברים	-10.8973
▁המסעדות	-10.8974
▁שפורסם	-10.8975
▁הקיים	-10.8976
▁משתלם	-10.8978
/5	-10.8981
▁לעד	-10.8981
▁המועד	-10.8982
ממש	-10.8985
▁כשרות	-10.8986
26	-10.8988
▁קווי	-10.8988
▁צביקה	-10.8988
▁ספרו	-10.899
▁משא	-10.8991
▁רם	-10.8991
▁יוקרה	-10.8995
▁ביתו	-10.8996
▁רץ	-10.8996
▁כשאת	-10.8997
▁חייה	-10.8997
חת	-10.8997
▁למניות	-10.8998
▁הישן	-10.8999
IL	-10.9004
▁FREE	-10.9005
▁למידע	-10.9006
▁לאסוף	-10.9006
▁בישיבת	-10.9006
▁again	-10.9009
▁ואחת	-10.901
Cohen	-10.901
▁Amit	-10.9011
▁פרח	-10.9012
▁בתא	-10.9013
▁ההשקעות	-10.9019
▁כיסוי	-10.9021
▁school	-10.9025
▁פר	-10.9025
▁לבת	-10.9027
▁ההופעה	-10.9027
ולי	-10.9029
▁זכאי	-10.9031
▁אבות	-10.9031
▁Q	-10.9036
▁רוזן	-10.9037
▁נצרת	-10.9037
▁חתיכת	-10.9038
אנשים	-10.9039
ia	-10.9041
▁נמשך	-10.9041
▁האיראני	-10.9041
▁אדלשטיין	-10.9042
▁Be	-10.9042
▁במיקום	-10.9042
▁זהות	-10.9043
▁המשמעות	-10.9045
▁via	-10.9045
▁חלון	-10.9045
▁צרפתי	-10.9047
יב	-10.9049
27	-10.905
▁✅	-10.9053
▁הבשר	-10.9053
▁נמשכת	-10.9054
▁לפוסט	-10.9057
▁צרכים	-10.9061
▁הבירה	-10.9065
▁התנגדות	-10.9066
▁מיטל	-10.9071
▁הידיים	-10.9073
▁הבנת	-10.9075
▁לעזאזל	-10.9078
▁בחנויות	-10.908
▁חחחחחחחחחחח	-10.908
▁תרצו	-10.9081
▁פעילים	-10.9083
בא	-10.9084
▁מועמד	-10.9084
▁מקרוב	-10.9086
▁ובה	-10.9087
▁מנוחה	-10.9087
▁לשכנע	-10.9092
▁לקחו	-10.9093
▁למשפחת	-10.9095
▁הכנת	-10.9101
▁חתן	-10.9104
▁מפלגות	-10.9104
▁הכרטיסים	-10.9104
▁car	-10.9106
▁השפה	-10.9107
91	-10.9107
▁רוק	-10.9111
▁האמיתית	-10.9111
▁רוכב	-10.9112
▁ברשימה	-10.9112
▁בשבט	-10.9116
▁דולרים	-10.9117
▁כיתות	-10.9117
▁לטייל	-10.9118
▁עברתי	-10.9118
▁מחסן	-10.9118
▁דתיים	-10.9121
▁לעתיד	-10.9122
ואני	-10.9123
sh	-10.9126
שירות	-10.9126
▁רשימה	-10.9127
▁למקסם	-10.9128
▁הרגליים	-10.913
▁מטפלת	-10.9131
▁חשיפה	-10.9132
▁בהריון	-10.9133
▁מברוק	-10.9134
לל	-10.9137
▁לכלבים	-10.9139
▁לרכישה	-10.914
▁מעצר	-10.9142
▁בשפה	-10.9142
▁בבסיס	-10.9144
▁קחו	-10.9146
▁רצינית	-10.9151
▁חתם	-10.9156
▁גזענות	-10.9156
▁הצצה	-10.916
}	-10.9162
▁ושי	-10.9164
▁בטעם	-10.9167
▁באלי	-10.9171
▁לתוכנית	-10.9175
▁זוכרים	-10.9178
▁פלג	-10.9178
▁ניצחה	-10.9182
▁תלונות	-10.9184
▁Moshe	-10.9186
▁פוגע	-10.9187
▁קלות	-10.919
▁אחדות	-10.9192
▁לתקשורת	-10.9194
▁אוחיון	-10.9199
▁גלידה	-10.92
▁דאגה	-10.9201
▁במשפט	-10.9201
▁המושלמת	-10.9205
▁הפוליטי	-10.9206
▁שלפני	-10.9207
-14	-10.9208
▁בעיניי	-10.9211
חחח	-10.9211
▁נכונות	-10.9212
▁תכניות	-10.9213
▁תקיפה	-10.9218
▁לדון	-10.9221
▁בהתאמה	-10.9223
▁שאינה	-10.923
-40	-10.9231
▁יפעת	-10.9241
▁Do	-10.9241
▁וחברות	-10.9242
▁מעגל	-10.9244
▁מלמד	-10.9246
▁המקסים	-10.9246
▁37	-10.9248
▁5.	-10.9251
▁להשלים	-10.9251
▁19:00	-10.9252
▁בריטניה	-10.9256
▁קליין	-10.9261
▁דל	-10.9261
▁בקבוצת	-10.9261
▁2.5	-10.9262
▁אמהות	-10.9264
▁נפגשים	-10.9264
▁שנתי	-10.9267
עו	-10.9268
▁במציאות	-10.9268
▁טיבי	-10.9275
▁say	-10.9275
▁אפריל	-10.9276
▁מעשי	-10.9276
▁עמר	-10.9284
▁ריגשת	-10.9289
▁לאישור	-10.929
▁חיובית	-10.9292
ner	-10.9294
▁נרחב	-10.9295
▁ברקע	-10.9295
▁גורמי	-10.9298
ka	-10.9304
▁שולחת	-10.9306
▁רפואת	-10.9307
▁סלע	-10.9309
▁הפקת	-10.931
אמן	-10.9317
▁בטבע	-10.932
ניתן	-10.9323
▁המכירה	-10.9324
▁קור	-10.9327
לת	-10.9329
▁הגאווה	-10.9333
אשמח	-10.9335
▁לחתום	-10.9336
▁נורית	-10.9337
▁זועבי	-10.9337
▁מתים	-10.9338
▁דורשים	-10.9341
לק	-10.9341
▁מסגרת	-10.9343
▁המת	-10.9344
▁small	-10.9344
▁כדורי	-10.9345
שלא	-10.9346
חו	-10.9346
▁open	-10.9347
▁process	-10.9354
▁פסטה	-10.936
▁יחידה	-10.9363
▁פלסטיני	-10.9363
▁שכתבתי	-10.9363
ation	-10.9364
▁הקליפ	-10.9366
▁חשמליים	-10.9367
▁המסע	-10.9372
▁כתבי	-10.9372
▁באליפות	-10.9373
▁בפיתוח	-10.9378
▁מכינים	-10.9379
▁החוקרים	-10.9379
▁הפגנות	-10.9379
▁כפתור	-10.9382
▁עצמאית	-10.9391
▁לפרגן	-10.9391
▁פינוק	-10.9395
▁לקבוצת	-10.9396
▁הארצי	-10.9397
▁אולמרט	-10.9399
▁טענה	-10.9403
▁second	-10.9403
▁חלל	-10.9406
▁משתנה	-10.9412
▁למעט	-10.9413
▁אלופים	-10.9416
▁טי	-10.9417
▁שוחד	-10.9417
▁לכול	-10.9418
▁אכלתי	-10.942
▁ציור	-10.9421
וווו	-10.9421
▁הוציא	-10.9421
▁התנהלות	-10.9421
▁עצמאות	-10.9422
▁מחשבות	-10.9426
▁המכירות	-10.9427
▁ישנים	-10.943
שלי	-10.943
▁נתי	-10.943
▁לאינטרנט	-10.9432
▁רישום	-10.9433
▁עשור	-10.9435
אבי	-10.9435
▁התקבל	-10.9436
Israel	-10.9437
▁הרצח	-10.944
▁בעצמך	-10.9446
▁ליאל	-10.9448
▁Art	-10.945
▁פגע	-10.9452
▁הפורום	-10.9454
▁לימון	-10.9455
▁בתפריט	-10.946
▁ברוח	-10.9461
▁לכיתה	-10.9462
▁בנוי	-10.9472
▁eco	-10.9474
”.	-10.9477
▁לעובדים	-10.9479
▁הקדוש	-10.948
▁המקור	-10.9481
למרות	-10.9481
▁רעה	-10.9483
▁שהו	-10.9484
▁קירות	-10.9485
▁משופצת	-10.9489
▁יראה	-10.9495
▁חפר	-10.9498
▁בודד	-10.95
▁גמילה	-10.9503
▁לקבוצות	-10.9504
▁ואנשים	-10.9507
▁בהכרח	-10.9507
▁שמר	-10.9513
▁מתייחס	-10.9513
▁זוגית	-10.9517
do	-10.9522
▁איכס	-10.9525
▁בחסות	-10.9527
▁החלטנו	-10.9528
▁הירדן	-10.9528
▁קורסים	-10.9529
▁הרבנים	-10.9531
▁בודדים	-10.9531
▁המקומיים	-10.9531
▁מקצועיות	-10.9533
▁ביצע	-10.9534
▁מבפנים	-10.9537
▁ואחר	-10.9537
▁סמסונג	-10.9542
▁תיכון	-10.9543
▁18:00	-10.9544
▁תיאור	-10.9547
-70	-10.9552
▁לחימה	-10.9553
▁market	-10.9556
▁מוציא	-10.9556
▁פלסטיק	-10.9558
▁דיסק	-10.9564
▁תומכים	-10.9565
שיר	-10.9567
▁עצמאי	-10.957
▁מתברר	-10.957
▁טבעית	-10.9571
▁דעתו	-10.9572
▁בתאונת	-10.9572
▁פרסמה	-10.9572
▁making	-10.9572
▁שעד	-10.9575
▁העלה	-10.9576
▁קהילה	-10.9577
▁עוזי	-10.9578
q	-10.9579
▁מ־	-10.958
▁00	-10.9583
▁האמריקאית	-10.9586
▁הגיל	-10.9588
▁ישנו	-10.9589
▁ברי	-10.9589
▁דוחה	-10.9589
▁זכרון	-10.9591
▁Co	-10.9597
▁היועמ	-10.9598
mo	-10.9602
▁כיפה	-10.9603
▁המבנה	-10.9603
----------------	-10.9606
▁ביקר	-10.9608
▁הופכים	-10.961
▁מצעד	-10.9617
▁גליל	-10.9618
▁להגשים	-10.9619
▁חלוקת	-10.962
▁במועד	-10.9621
▁הגעתם	-10.9621
▁הזוכה	-10.9623
▁הנשמה	-10.9623
▁תרומה	-10.9626
▁ויצמן	-10.9629
▁בצורת	-10.963
▁בטון	-10.9631
▁למנות	-10.9633
▁בנאדם	-10.964
▁Tel	-10.9641
▁תהיי	-10.9642
▁המלאי	-10.9644
▁החום	-10.9646
▁לעצמה	-10.9649
ינס	-10.965
▁פברואר	-10.965
▁העסקי	-10.9652
▁לעצמכם	-10.9652
▁הוראה	-10.9654
▁אפליקציית	-10.9655
▁בקהילה	-10.9655
▁הרפואה	-10.9655
▁לזוגות	-10.9656
▁כשנה	-10.9659
▁בתנאים	-10.9659
▁היחס	-10.9659
▁לרשימת	-10.9659
▁הנחות	-10.9661
▁נובמבר	-10.9664
▁לרב	-10.9666
▁אות	-10.9669
▁l	-10.9673
▁סוגים	-10.9675
וף	-10.9675
▁הראשונות	-10.9677
▁שרשרת	-10.9681
▁הארוחה	-10.9684
▁למסירה	-10.9689
▁גוטליב	-10.9692
▁משתתפת	-10.9694
▁ההזמנה	-10.9695
▁מביאה	-10.97
▁סיעת	-10.97
▁ניכר	-10.9701
▁חמודים	-10.9702
▁local	-10.9704
▁ללימודים	-10.9704
▁book	-10.9704
▁שומן	-10.9704
▁התואר	-10.9705
▁להגשת	-10.9707
מנו	-10.9707
▁שלג	-10.9707
▁מקווים	-10.971
▁למלון	-10.9713
▁החשובים	-10.9713
▁יוגה	-10.9715
שו	-10.9717
▁שולח	-10.9718
▁מיכאלי	-10.972
▁פאב	-10.9721
▁ולי	-10.9728
▁המחזור	-10.9728
▁ובהצלחה	-10.9729
▁feel	-10.973
YinonMagal	-10.973
▁עצרו	-10.9731
▁בסטודיו	-10.9734
1/	-10.9736
▁food	-10.9738
▁השיא	-10.9741
▁ה־	-10.9742
4<	-10.9746
▁חשיבה	-10.9747
▁בדברים	-10.9748
ie	-10.9748
▁יביא	-10.975
▁להתעלם	-10.9751
▁גלוטן	-10.9756
▁גולשים	-10.9757
▁למציאות	-10.9757
▁ארכיון	-10.976
▁בנגב	-10.9761
▁600	-10.9761
▁change	-10.9761
▁ציוץ	-10.9764
▁הדתי	-10.9764
▁נכנסו	-10.9765
▁שלט	-10.9766
▁לסוף	-10.9766
▁הכוללים	-10.9768
▁סביבה	-10.9768
▁געגועים	-10.9771
▁הסרת	-10.9773
▁סימני	-10.9775
▁180	-10.9776
▁מדיני	-10.9776
▁אנושי	-10.9777
▁ליאון	-10.9781
▁בטחון	-10.9787
▁הרוגים	-10.979
▁התקנת	-10.9791
▁האוהדים	-10.9793
▁בגמר	-10.9796
▁מהשהייה	-10.9801
▁Avi	-10.9803
▁מערב	-10.9806
▁חיסול	-10.9806
▁בכורה	-10.981
▁למוקד	-10.981
▁%	-10.9814
▁עליית	-10.9815
▁ובסוף	-10.982
▁put	-10.9821
▁תחילה	-10.9822
▁care	-10.9827
▁שלמות	-10.9829
▁בשיטת	-10.9831
▁ספא	-10.9832
▁באוטובוס	-10.9836
▁רבנים	-10.9841
▁רצו	-10.9844
▁היפים	-10.9847
דין	-10.9849
▁רגוע	-10.9849
▁פעילי	-10.985
אך	-10.985
▁אן	-10.9852
▁בגליל	-10.9855
▁אסי	-10.9856
▁מתנדבים	-10.9858
▁מאחור	-10.9859
▁בלשון	-10.986
כת	-10.9862
▁להר	-10.9863
▁המשותף	-10.9865
▁מעריב	-10.9868
▁משכנתא	-10.9874
▁תחזית	-10.9878
▁אומץ	-10.9881
▁להיפגש	-10.9884
▁למים	-10.9885
▁כלשהי	-10.9885
▁הרגשה	-10.9885
▁לעודד	-10.9887
▁בעין	-10.9887
▁אשם	-10.9889
▁12:00	-10.9891
▁נחום	-10.9894
▁במכרז	-10.9894
▁הנסיכה	-10.9897
▁health	-10.9898
▁אשתקד	-10.9901
▁לגייס	-10.9901
▁האל	-10.9902
▁קג	-10.9902
▁לשבור	-10.9907
▁דרכי	-10.9914
▁22:00	-10.9915
▁services	-10.9917
▁לתל	-10.9918
kann	-10.9919
▁לשטח	-10.992
▁צעדים	-10.9921
▁להתקיים	-10.9925
▁וניל	-10.9928
▁משובח	-10.993
▁שמלה	-10.9932
▁הצהרת	-10.9936
▁בינינו	-10.9937
▁שהולך	-10.9938
▁אחיו	-10.9938
▁רחלי	-10.9939
▁ומיני	-10.9939
▁משקיעים	-10.9939
▁הקולנוע	-10.994
▁במפגש	-10.9941
▁Chen	-10.9945
▁אמ	-10.9949
▁מכולם	-10.995
▁חשב	-10.9953
▁כדורסל	-10.9954
▁מטומטם	-10.9955
▁10%	-10.9957
▁לזרוק	-10.9957
▁מבוסס	-10.9957
▁design	-10.9959
▁שימי	-10.9961
▁אבישי	-10.9962
▁ענבל	-10.9964
▁ההוא	-10.9966
▁לחיילים	-10.9967
▁שומרים	-10.9971
▁פשפשוק	-10.9975
▁הסתיים	-10.9976
▁ל־	-10.9976
▁מועמדות	-10.9977
▁צמח	-10.9979
▁סא	-10.9984
▁מנגד	-10.9984
-13	-10.9988
▁גו	-10.9989
▁עצים	-10.999
▁פור	-10.999
▁בעלה	-10.9992
▁אלירן	-10.9994
▁ויהיה	-10.9995
נן	-10.9995
▁הודה	-11
▁הרבי	-11.0001
▁עמדת	-11.0002
▁לייב	-11.0005
▁within	-11.0005
▁למעוניינים	-11.0007
▁שימש	-11.0007
▁יעמוד	-11.0007
▁נשארו	-11.0007
▁רגשות	-11.0009
▁פו	-11.0012
▁נפח	-11.0014
▁הצלחות	-11.0014
▁הערים	-11.0014
לאחר	-11.0015
▁החלומות	-11.0015
▁בנמל	-11.0016
▁39	-11.0017
▁הביטוי	-11.0023
▁לבר	-11.0024
▁פאנל	-11.0026
▁נתנאל	-11.0027
▁ולו	-11.0031
▁01	-11.0034
▁במפעל	-11.0034
▁מוסיף	-11.0036
▁הבסיס	-11.0037
אות	-11.004
▁גרה	-11.0041
▁המיקום	-11.0042
▁תערוכת	-11.0042
▁ההצגה	-11.0044
▁בינה	-11.0044
▁בתמורה	-11.0044
▁משרדים	-11.0045
8<	-11.0049
▁חמו	-11.005
▁רגליים	-11.0051
מחיר	-11.0052
▁לתחום	-11.0053
▁בשטחים	-11.0056
▁הרבנות	-11.0057
▁שנעשה	-11.0057
▁בחתונה	-11.0058
▁שבר	-11.0063
▁חמורה	-11.0066
▁הנאה	-11.0067
/4	-11.0069
▁בטלוויזיה	-11.0069
▁ובא	-11.007
▁בהלם	-11.007
▁Car	-11.0072
טר	-11.0073
▁הצבאית	-11.0074
▁students	-11.0075
▁מצויינת	-11.0076
▁שכתב	-11.008
▁חוגג	-11.0081
▁לחו	-11.0081
▁ביישוב	-11.0085
▁באינסטגרם	-11.0085
▁הזבל	-11.0088
▁יצאתי	-11.009
▁מסחרי	-11.0091
▁הסתה	-11.0092
▁גשר	-11.0096
▁שעת	-11.0096
▁המכללה	-11.0098
▁בצק	-11.01
פעם	-11.01
▁הוט	-11.0101
▁למקומות	-11.0102
-17	-11.0103
▁הצלחת	-11.0104
▁הומור	-11.0105
/11	-11.0107
▁וח	-11.0109
▁אומנם	-11.011
▁שאומרים	-11.0111
▁בטענה	-11.0113
...)	-11.0113
▁האג	-11.0118
קשה	-11.012
▁אזורית	-11.012
▁שפשוט	-11.0121
▁רושם	-11.0121
▁הסופר	-11.0124
עת	-11.0125
▁המוסיקה	-11.0126
▁לגמר	-11.0129
▁ברקת	-11.013
▁תכלס	-11.013
/10	-11.0135
▁מאליו	-11.014
▁הבלוג	-11.014
▁מחובר	-11.014
▁Our	-11.0142
▁מעצרו	-11.0144
▁דאעש	-11.0144
▁אחראית	-11.0145
▁המוצעים	-11.0148
.......	-11.0151
▁מוצאים	-11.0153
▁הכותל	-11.0159
▁ידועה	-11.016
צים	-11.0161
▁בסניף	-11.0165
▁מתכוונת	-11.0168
▁המדע	-11.017
▁התחלה	-11.017
וט	-11.0174
▁אלדד	-11.0177
▁עיסוי	-11.0179
▁לדברים	-11.0183
▁סגנון	-11.0184
▁order	-11.0185
▁במלחמה	-11.0189
▁וחרפה	-11.019
▁project	-11.019
▁y	-11.0193
▁האיתותים	-11.0194
▁שואלים	-11.0194
▁בוועדת	-11.0198
▁להעתיק	-11.0199
▁סמי	-11.0199
▁אויר	-11.0201
ty	-11.0203
▁רויטרס	-11.0204
▁בסיסי	-11.0205
▁קרובה	-11.0205
▁מייד	-11.0208
גו	-11.0211
▁הנשק	-11.0212
▁עסקית	-11.0213
▁עלולה	-11.0217
▁הכשרה	-11.0218
▁שאלו	-11.0218
▁Eyal	-11.0219
▁והיו	-11.0224
▁ברצח	-11.0225
▁בבנק	-11.0225
▁ריבית	-11.0226
▁השרה	-11.023
▁לעתים	-11.0233
▁big	-11.0233
▁ההפגנה	-11.0235
הרבה	-11.0236
▁ואיפה	-11.0238
יהן	-11.0239
US	-11.0239
▁בשדרות	-11.0245
▁הרג	-11.0246
▁הזדמנויות	-11.0246
▁מעריך	-11.0247
▁אוקטובר	-11.025
▁מחו	-11.025
▁case	-11.025
/2	-11.0251
▁הצילום	-11.0252
rs	-11.0253
▁חזרו	-11.0253
▁תומכת	-11.0257
▁חבילות	-11.0258
▁לכלא	-11.0261
▁במכתב	-11.0262
▁חלקה	-11.0263
Hotel	-11.0267
▁הצבע	-11.0267
▁חברתיים	-11.0268
▁כותבים	-11.027
▁אר	-11.0271
▁g	-11.0272
▁במוקד	-11.0272
▁הלו	-11.0273
▁מכינה	-11.0274
▁ליהודים	-11.0275
▁מקיף	-11.0275
▁לבחירות	-11.0276
▁היהדות	-11.0279
▁ריצה	-11.0281
source	-11.0282
▁שיגיע	-11.0282
▁הבטחון	-11.0283
יאן	-11.0287
▁בשפע	-11.0287
▁עשרים	-11.0289
▁חגית	-11.0289
▁ביקשה	-11.029
לכל	-11.0291
▁Pro	-11.0293
▁משפטים	-11.0294
▁המשבר	-11.0294
▁הפיתוח	-11.0295
▁שעשיתי	-11.0296
▁real	-11.0296
▁99	-11.0297
▁לתקוף	-11.0299
▁בילדים	-11.0303
▁להפיץ	-11.0304
▁סיים	-11.0306
▁האידיאלי	-11.0313
▁שישראל	-11.0315
▁09	-11.0316
▁מלכת	-11.0317
▁חזה	-11.032
▁By	-11.0321
▁האחר	-11.0323
▁המוכר	-11.0324
▁המיוחדת	-11.0327
▁why	-11.033
▁החלל	-11.033
ko	-11.033
▁המשיך	-11.0335
▁טיל	-11.0335
▁במאבק	-11.0341
▁העובד	-11.0342
▁מתקיים	-11.0344
▁הגשם	-11.0345
▁להודיע	-11.0345
▁להסיר	-11.0347
▁אוטומטית	-11.0349
▁נחמן	-11.0349
▁שמבקרים	-11.035
▁הניסיון	-11.0351
▁בפסטיבל	-11.0352
▁הבניה	-11.0354
▁מעכשיו	-11.0355
▁ממשרד	-11.0357
▁הצופים	-11.0358
▁ערבית	-11.0358
▁מסוימים	-11.036
▁למועדון	-11.036
▁ושבת	-11.036
▁הקשור	-11.0361
▁הגביע	-11.0362
▁פניות	-11.0363
▁בכדורגל	-11.0363
▁לסרט	-11.0363
▁שאמרתי	-11.0364
▁הבנים	-11.0366
▁הצטרפות	-11.0368
▁מיץ	-11.0371
▁עורכת	-11.0373
▁בשעת	-11.0374
▁נחשף	-11.0375
▁אסרף	-11.0377
▁סובלים	-11.0378
▁חלש	-11.0378
▁זוכים	-11.0378
▁תרגיל	-11.038
▁גרסת	-11.0381
▁ידידותית	-11.0382
▁מבטיחה	-11.0384
▁התובע	-11.0385
▁העלאת	-11.0388
▁תתחיל	-11.0388
▁ברעננה	-11.039
▁הבריטי	-11.0391
▁ומיוחד	-11.0398
▁במחירי	-11.0401
▁פניה	-11.0401
▁ומקרר	-11.0405
▁ואנשי	-11.0406
▁התחילו	-11.0407
סוף	-11.0408
▁מצטרפת	-11.0408
▁צפת	-11.0411
לפי	-11.0412
▁תעופה	-11.0413
▁וחברים	-11.0415
חדש	-11.0417
▁רבקה	-11.0417
▁אמריקאי	-11.0418
of	-11.042
▁הסיבות	-11.0421
▁לנוער	-11.0422
▁כדורים	-11.0424
▁together	-11.0424
-24	-11.0424
▁בנאי	-11.0428
▁עזוב	-11.043
amp	-11.043
▁דיני	-11.0431
▁מעץ	-11.0432
▁state	-11.0432
▁רותי	-11.0435
▁Center	-11.044
▁אייפון	-11.0444
ככה	-11.0445
▁בריאיון	-11.0445
,”	-11.0446
▁התרגשות	-11.0446
▁נעלם	-11.0447
▁לברוח	-11.0447
▁דליה	-11.0447
▁מצביעים	-11.0448
▁פרסומות	-11.0448
▁הפרס	-11.0449
▁תמ	-11.045
▁מתקדמת	-11.045
▁סטריט	-11.0451
▁Michal	-11.0453
dan	-11.0453
▁רקטות	-11.0455
▁לצרכן	-11.0456
▁למתן	-11.0458
▁פס	-11.046
▁שחרור	-11.0461
ca	-11.0468
▁נאום	-11.0468
▁הופכת	-11.0476
son	-11.0478
▁לעסק	-11.0481
▁היישוב	-11.0481
▁מחקרים	-11.0481
▁ענה	-11.0483
▁נלך	-11.0484
▁במועצה	-11.0486
▁6.	-11.0486
▁קולקציית	-11.0487
▁לסטודנטים	-11.0487
▁זין	-11.0487
▁מוריה	-11.0491
▁However	-11.0492
ian	-11.0492
▁הגברת	-11.0492
▁בתאונה	-11.0493
▁נפשי	-11.0496
▁הלחץ	-11.0497
▁מדיה	-11.0502
▁מוקדש	-11.0503
▁וצוות	-11.0507
▁בכירי	-11.0508
▁החיות	-11.0511
שוב	-11.0511
▁Yuval	-11.0511
▁התייחסות	-11.0512
▁תמשיכי	-11.0512
▁להופיע	-11.0513
▁משיח	-11.0514
▁אתכן	-11.0515
▁לצ	-11.0519
▁בעצמי	-11.0519
▁רכש	-11.052
▁נחזור	-11.052
▁מהארץ	-11.0524
▁הקיצוני	-11.0525
▁הרשמית	-11.0526
▁הבעיות	-11.0527
▁טכנאי	-11.0527
▁העוגה	-11.0529
▁להתקדם	-11.0529
▁community	-11.0535
▁למסעדה	-11.054
▁לברר	-11.0542
▁הדיווחים	-11.0543
ןן	-11.0544
▁RE	-11.0546
▁איננו	-11.055
▁גמור	-11.0551
▁בעידן	-11.0554
▁הגעה	-11.0554
ולה	-11.0556
▁סבל	-11.0557
▁הירשמו	-11.0558
▁זולים	-11.0559
▁ואוכל	-11.056
▁נעמה	-11.056
▁ולהתרענן	-11.0561
▁והפקה	-11.0561
▁רמון	-11.0562
▁הזמרת	-11.0565
▁חיינו	-11.0568
▁כאבי	-11.0568
תנו	-11.0568
▁מהרו	-11.0572
שית	-11.0577
▁מתל	-11.0581
▁בגד	-11.0582
▁הנו	-11.0583
▁מקל	-11.0587
▁חובשים	-11.0588
▁היותר	-11.0589
▁החסימה	-11.0594
▁מודע	-11.0598
▁גדולי	-11.0598
▁שאלתי	-11.0598
▁בסביבות	-11.06
▁כאבים	-11.0602
▁לוועדה	-11.0604
▁שקשור	-11.0604
רות	-11.0604
~	-11.0605
▁מייצג	-11.061
▁הש	-11.0611
86	-11.0614
▁משפטית	-11.0615
▁שנוכל	-11.0617
▁היסטורי	-11.0618
▁03	-11.062
ילה	-11.0622
▁בנפרד	-11.0623
תמיד	-11.0623
▁מכשירי	-11.0624
66	-11.0624
▁עשויים	-11.0626
▁צילומי	-11.0627
▁הסיכון	-11.0629
▁תפסיקו	-11.0629
▁point	-11.063
/1	-11.0632
▁עבורי	-11.0633
▁נערים	-11.0634
▁אללה	-11.0634
▁course	-11.0636
▁העיקרית	-11.0636
▁Yael	-11.0636
▁ללחוץ	-11.0637
▁בז	-11.0642
תן	-11.0642
▁אוזן	-11.0643
▁במכון	-11.0645
▁הבכיר	-11.0647
ity	-11.0647
▁בנה	-11.0648
▁לנקות	-11.0648
▁למאבק	-11.0649
▁חנוך	-11.0652
▁אוכלת	-11.0661
▁20:30	-11.0662
▁having	-11.0663
▁שובר	-11.0664
▁להצטרפות	-11.0666
▁הדגם	-11.0667
▁חסון	-11.0669
▁הבתים	-11.0671
▁המועמדים	-11.0672
▁ואח	-11.068
צור	-11.0681
▁אסד	-11.0681
▁לנשיא	-11.0683
▁בשיא	-11.0684
▁חבילת	-11.0684
▁חוגגת	-11.0692
▁המלכה	-11.0696
▁תשכחו	-11.0696
▁מעריכים	-11.0696
▁עומרי	-11.07
▁החשבון	-11.07
▁עינת	-11.0701
יט	-11.0701
▁name	-11.0707
▁שומרת	-11.0708
▁email	-11.0709
▁side	-11.071
▁קלאסי	-11.0711
▁להקל	-11.0711
TM	-11.0712
▁בוחר	-11.0713
הבית	-11.0715
▁השער	-11.0715
▁הסעות	-11.0715
▁יוון	-11.0716
▁המתוק	-11.0718
▁לאנשי	-11.0721
יחד	-11.0723
▁מעצבן	-11.0724
▁כוונה	-11.0726
▁שמיר	-11.0729
▁דוגמה	-11.0731
▁המצלמה	-11.0732
▁ממקום	-11.0732
▁נעמי	-11.0735
▁האחת	-11.074
▁ולמרות	-11.0747
▁נפטר	-11.0748
▁בפרשת	-11.0751
▁בטרם	-11.0754
▁Ha	-11.0754
▁הכדור	-11.0755
▁away	-11.0756
דוד	-11.0756
▁קרובות	-11.0761
▁נערכה	-11.0761
▁מוסמך	-11.0763
▁עסוק	-11.0763
▁רכישה	-11.0764
▁ביס	-11.0766
▁שיעורים	-11.0766
גי	-11.0768
גר	-11.0768
▁אבק	-11.077
-21	-11.0771
▁quality	-11.0772
▁ליותר	-11.0773
▁יער	-11.0774
▁יצליח	-11.0776
▁עולמי	-11.0777
▁נקיים	-11.078
▁בהיכל	-11.0783
▁חוקית	-11.0783
▁שליטא	-11.0784
יותר	-11.0785
▁הבדיקה	-11.0787
▁בתחומים	-11.0789
▁בורא	-11.0791
▁בלוג	-11.0792
▁סימון	-11.0793
▁אונס	-11.0795
▁וצ	-11.0795
▁במלחמת	-11.0796
▁שגריר	-11.0796
▁מעקב	-11.0798
▁צורה	-11.0799
▁משמר	-11.0799
9<	-11.0801
▁זיהוי	-11.0801
▁חגיגה	-11.0802
▁הכתבות	-11.0802
▁share	-11.0805
▁כלכליסט	-11.0806
▁מעשים	-11.0807
▁עמ	-11.0808
▁התופעה	-11.0809
▁המשנה	-11.081
▁85	-11.081
▁הסניף	-11.081
▁money	-11.0811
▁וחבל	-11.0812
▁הנמצאות	-11.0813
▁הסכמה	-11.0813
▁בנהריה	-11.0814
▁יושבת	-11.0815
▁לדחות	-11.0816
▁בתשובה	-11.0817
▁נוחים	-11.0818
▁מרצה	-11.082
▁לבי	-11.082
▁לשאלות	-11.0821
▁הביניים	-11.0821
▁שומעת	-11.0822
▁בגרות	-11.0823
▁site	-11.0824
▁התגעגעתי	-11.0825
▁כרם	-11.0826
▁יתקיימו	-11.0828
▁לצבא	-11.0828
▁הפופולריות	-11.0828
▁הזמנתי	-11.083
▁לירן	-11.0834
▁מקרי	-11.0834
▁בוז	-11.0834
£	-11.0837
▁ובעל	-11.0839
▁1.5	-11.0841
▁64	-11.0842
▁התברר	-11.0843
06	-11.0849
▁לתלמידים	-11.0851
▁Golan	-11.0854
▁החמים	-11.0854
▁After	-11.0856
▁בצרפת	-11.0856
▁הרס	-11.0856
זאת	-11.0856
▁ביקשו	-11.0862
▁הניתוח	-11.0864
▁המדריך	-11.0867
▁השתתפות	-11.0867
▁המגזר	-11.0868
▁עליהן	-11.0869
▁העניקו	-11.0874
▁o	-11.0874
▁התחילה	-11.0875
▁העץ	-11.0875
▁הוגן	-11.0875
▁באנשים	-11.0875
▁המבורגר	-11.0878
▁ביטן	-11.0878
▁לגעת	-11.0881
▁נהדרים	-11.0882
▁השאירו	-11.0882
▁44	-11.0884
▁למינוי	-11.0885
▁השקת	-11.0886
▁רי	-11.0888
▁האלופה	-11.0888
▁אצבע	-11.0889
▁יוזמה	-11.0891
▁אוסף	-11.0892
▁Me	-11.0893
ניק	-11.0894
▁האבטחה	-11.0894
▁These	-11.0897
▁האהובים	-11.0898
ונו	-11.09
▁תקבלו	-11.0901
▁יצר	-11.0903
▁needs	-11.0905
▁חברתיות	-11.0906
▁נק	-11.0906
דן	-11.0912
▁שזאת	-11.0913
net	-11.0914
▁61	-11.0915
▁שכדאי	-11.0915
▁שס	-11.0916
▁האנושי	-11.0917
▁ובהם	-11.0918
▁לקריאה	-11.092
להלן	-11.092
▁להפליא	-11.0921
▁קולה	-11.0921
▁למפגש	-11.0921
▁הכרטיס	-11.0925
▁חמות	-11.0926
נתניהו	-11.0927
▁החברתי	-11.0929
▁night	-11.0931
▁והת	-11.0934
▁בפרק	-11.0935
▁האושר	-11.0936
▁נועדו	-11.0936
▁יגידו	-11.0937
▁בקורס	-11.0939
▁חושף	-11.0943
▁בחדרה	-11.0943
▁ואוו	-11.0945
!)	-11.0946
▁ואיזה	-11.0946
▁החמישי	-11.0947
▁שואלת	-11.0947
▁בסדרת	-11.0948
▁דוגמאות	-11.0949
▁לשמאל	-11.095
מרגיעה	-11.0952
▁מעורבים	-11.0953
▁הטיסה	-11.0953
▁תקן	-11.0955
94	-11.0959
by	-11.096
▁הסקר	-11.0961
נראה	-11.0965
נג	-11.0965
הכי	-11.0965
▁כחודש	-11.0965
▁לחדש	-11.0968
▁אוצר	-11.0969
▁במוזיאון	-11.097
▁אדוני	-11.0971
▁עדיפות	-11.0972
▁אוטומטי	-11.0972
▁סמנכ	-11.0972
▁דעתכם	-11.0973
▁דורית	-11.0973
▁אפשרית	-11.0974
▁לרחוב	-11.0975
▁Spa	-11.0975
▁בונה	-11.0976
▁בממוצע	-11.0976
▁יעזרו	-11.0976
▁הקלעים	-11.0977
▁השוטר	-11.0978
▁HD	-11.098
▁הערוץ	-11.0984
▁יצאנו	-11.0985
▁ואחרים	-11.0985
▁למשהו	-11.0985
מקום	-11.0986
▁תגובת	-11.0988
ררר	-11.099
▁אשתי	-11.0991
▁קושי	-11.0992
News	-11.0992
▁עשן	-11.0994
▁טענות	-11.0994
▁חברון	-11.0995
▁מדע	-11.0996
▁שבהן	-11.0998
▁ימשיכו	-11.0998
▁ענף	-11.0999
▁סופ	-11.1
▁חזרתי	-11.1004
▁Shir	-11.1006
▁נהנו	-11.1008
^^	-11.1008
▁עבורך	-11.1009
▁Noa	-11.1009
מור	-11.101
▁דעתך	-11.101
▁הפחד	-11.101
▁שיעשה	-11.1011
▁השכרת	-11.1012
▁תשתפו	-11.1013
▁TV	-11.1013
▁הופ	-11.1015
▁אמו	-11.1016
▁צי	-11.1016
▁חימום	-11.1017
▁thing	-11.1018
▁חזיר	-11.1018
▁k	-11.1019
▁מתאר	-11.1022
▁סובלת	-11.1026
.<	-11.1027
▁להב	-11.1028
▁כספית	-11.1029
▁הטבות	-11.1029
▁נורה	-11.1035
▁פניו	-11.1036
מרכז	-11.1038
▁בחברות	-11.1041
▁החיפוש	-11.1045
▁העורף	-11.1046
▁ולפעמים	-11.1047
▁בהיר	-11.1048
▁פוטנציאל	-11.1049
▁לאחת	-11.1051
▁מדעי	-11.1054
▁שהתקיים	-11.1055
▁גברת	-11.1058
▁נט	-11.1059
והופך	-11.106
▁יהושע	-11.1062
▁האמא	-11.1063
▁גרסה	-11.1064
▁בבריטניה	-11.1064
▁בבדיקה	-11.1064
▁כוכבי	-11.1066
ימה	-11.1068
▁רגילים	-11.1073
▁גלריה	-11.1074
▁הכללית	-11.1074
▁למסור	-11.1075
▁להסכם	-11.1076
▁שכחתי	-11.1076
▁קריאת	-11.1078
▁החייאה	-11.1078
אים	-11.1078
▁עבירה	-11.1081
▁לתיירים	-11.1081
▁בכלי	-11.1082
▁US	-11.1082
▁לביבי	-11.1082
▁אביטל	-11.1084
▁קנה	-11.1085
▁דונלד	-11.1085
▁ומקצועי	-11.1085
▁10:00	-11.1085
▁במאה	-11.1086
▁מתקן	-11.1088
▁חני	-11.1088
▁בחורף	-11.1088
▁בוועדה	-11.1089
▁800	-11.1089
▁הנושאים	-11.109
▁המחלה	-11.1091
▁עמיחי	-11.1092
200	-11.1093
▁כרמיאל	-11.1094
▁זכיתי	-11.1096
▁לחייך	-11.1097
▁הסכום	-11.1101
▁פיקוח	-11.1103
▁התקיימה	-11.1105
▁אקטואליה	-11.1106
▁הברכות	-11.1111
▁טורקיה	-11.1112
▁אפור	-11.1114
▁שנשאר	-11.1116
▁המאפשר	-11.1116
amit	-11.1116
▁מוזמנות	-11.112
▁בהקשר	-11.1123
▁היוצר	-11.1123
▁חנייה	-11.1123
▁לממש	-11.1123
▁וממש	-11.1125
▁חחחחחחחחחחחח	-11.1126
▁אבני	-11.1128
▁חסד	-11.1131
▁באיראן	-11.1132
▁בקשות	-11.1132
▁מסמכים	-11.1133
▁לחשוף	-11.1135
ומי	-11.1136
▁פנימית	-11.1136
סים	-11.1137
▁לנהוג	-11.114
▁הוכחה	-11.1144
▁Sapir	-11.1147
▁הורדת	-11.1148
▁products	-11.1148
▁פטריות	-11.115
▁ללקוח	-11.115
GB	-11.1152
▁hard	-11.1153
▁טליה	-11.1156
▁ורוד	-11.1156
▁נסיבות	-11.1159
▁חווה	-11.1161
▁שלחתי	-11.1161
▁already	-11.1167
▁איומים	-11.1168
▁בהרכב	-11.1171
בריאות	-11.1173
▁מפנקת	-11.1173
▁four	-11.1175
▁ביידן	-11.1176
▁השקט	-11.1178
▁בכול	-11.1179
▁צמד	-11.118
▁חייך	-11.118
▁וו	-11.1181
▁עניינים	-11.1182
▁שעולה	-11.1182
▁הדרכים	-11.1183
▁הפנימי	-11.1185
▁אימונים	-11.1186
▁כוללים	-11.1187
▁מתקרב	-11.1188
▁הלוחמים	-11.1188
▁פרופסור	-11.119
ללל	-11.1192
▁יפתי	-11.1193
▁הבעל	-11.1193
▁”	-11.1196
▁שוויון	-11.1197
▁מעוצב	-11.1197
▁במדינות	-11.1198
▁מרהיב	-11.1199
▁ואכן	-11.12
▁music	-11.1201
▁children	-11.1202
▁מעביר	-11.1204
Nehemia	-11.1207
▁שריפה	-11.1209
▁חולצות	-11.1211
▁מאזור	-11.1211
▁ארצה	-11.1213
▁Michael	-11.1215
▁החם	-11.1216
▁דוחות	-11.1218
▁השכל	-11.122
▁לבניית	-11.122
te	-11.1221
▁ירוקה	-11.1222
▁pic	-11.1222
▁חווים	-11.1223
▁16:00	-11.1224
▁המין	-11.1225
▁הוקמה	-11.1226
▁Suites	-11.1226
הייתי	-11.1228
▁קפלן	-11.1229
▁קשורים	-11.123
▁המפעל	-11.123
▁תשלומים	-11.123
▁חקירת	-11.1233
▁לתנועה	-11.1233
29	-11.1234
▁לאיכות	-11.1234
▁ראייה	-11.1234
▁אבקת	-11.1236
▁עושות	-11.1238
▁ליכוד	-11.1238
מספר	-11.1239
▁וישראל	-11.124
▁מרגלית	-11.124
▁קשב	-11.124
▁התחתון	-11.1245
▁ומתי	-11.1246
ke	-11.1247
▁מנוי	-11.1249
ספר	-11.125
▁חס	-11.125
▁אצלו	-11.1252
איפה	-11.1254
▁ניוז	-11.1259
▁סערה	-11.1259
▁שוטרי	-11.1259
▁הלשכה	-11.126
31	-11.126
▁שירן	-11.1262
▁מילוי	-11.1263
▁across	-11.1265
▁||	-11.1266
▁הרכישה	-11.1266
▁ההכנסות	-11.1267
▁ערכי	-11.1268
▁מועיל	-11.1271
▁וחלק	-11.1274
טור	-11.1275
▁700	-11.1277
▁בסלון	-11.1277
חלק	-11.1277
▁במחוז	-11.1282
▁לצרף	-11.1283
▁אפרים	-11.1289
▁גיליתי	-11.1289
▁old	-11.1289
cohen	-11.1289
▁תשעה	-11.1291
▁השחור	-11.1292
▁read	-11.1293
▁שמחת	-11.1295
▁מכונות	-11.1297
▁חזון	-11.1302
המון	-11.1304
פנים	-11.1304
▁בונים	-11.1307
ts	-11.1308
▁בלא	-11.1309
▁עירונית	-11.1309
▁בראשית	-11.1309
▁מעודכנים	-11.131
▁עזבו	-11.1311
▁run	-11.1311
▁יגיד	-11.1311
▁במסיבת	-11.1313
▁רך	-11.1315
▁הציוץ	-11.1315
▁ההתאחדות	-11.1316
בואו	-11.1317
▁3.5	-11.1317
▁ההנהלה	-11.1318
יכם	-11.1319
▁20%	-11.132
▁שיחת	-11.132
▁מהשעה	-11.1321
▁תאונה	-11.1325
ןןן	-11.1325
▁iOS	-11.1325
▁איבד	-11.1327
▁מסוימת	-11.1328
חוק	-11.1328
▁לכנס	-11.1331
▁עצרה	-11.1331
▁בכפוף	-11.1333
▁מייקל	-11.1334
▁משק	-11.1334
▁שיחק	-11.1334
יא	-11.1335
▁במחנה	-11.1336
▁לצפיה	-11.1337
▁המגרש	-11.134
▁עוקב	-11.1341
▁השעון	-11.1341
▁קורע	-11.1344
▁43	-11.1345
▁דברו	-11.1346
ron	-11.1346
▁לגדל	-11.135
▁לאיש	-11.135
▁ריקי	-11.1352
דת	-11.1353
▁פטור	-11.1354
▁בטווח	-11.1354
▁שרוב	-11.1354
▁העיקרי	-11.1355
▁לוחמים	-11.1355
▁until	-11.1357
▁לרמה	-11.136
▁אוקיי	-11.1363
▁פעמי	-11.1363
▁שיטה	-11.1363
▁מעצב	-11.1368
▁בביתו	-11.137
▁שבכל	-11.1371
▁סיפורי	-11.1372
▁המועילים	-11.1374
▁getting	-11.1374
▁להתקין	-11.1375
▁שעומד	-11.1375
▁האוניברסיטה	-11.1378
▁להרבה	-11.1378
▁המכון	-11.138
▁לטוס	-11.1382
▁power	-11.1383
▁הרוסי	-11.1385
▁מוניטין	-11.1387
יימס	-11.1389
▁בכוונה	-11.1389
▁האגודה	-11.139
▁באיטליה	-11.1391
▁possible	-11.1391
▁עמדות	-11.1392
▁שעברו	-11.1396
▁באווירה	-11.1396
▁שקרן	-11.1397
▁וכדומה	-11.1399
▁מנכל	-11.1401
▁times	-11.1402
▁השופטת	-11.1402
▁פיצוץ	-11.1402
▁התשלום	-11.1402
▁שכולו	-11.1403
▁חקיקה	-11.1405
▁שקיים	-11.1406
▁ביקורות	-11.1409
▁משמרות	-11.1409
▁דגן	-11.1409
▁Sharon	-11.1411
▁משך	-11.1411
▁קדוש	-11.1413
▁אירו	-11.1413
▁ליטל	-11.1413
▁חשף	-11.1413
▁מאחלים	-11.1414
▁מסודר	-11.1417
▁חצר	-11.1418
▁בקואליציה	-11.1418
32	-11.1419
▁ציינו	-11.142
▁עזריאלי	-11.142
▁הרכבים	-11.1423
▁אמבטיה	-11.1424
▁בסכום	-11.1426
▁הארצית	-11.1427
▁ישיבות	-11.1428
▁נורמלי	-11.1429
▁שנתניהו	-11.143
▁לחיי	-11.1431
▁אגודת	-11.1434
▁נבנה	-11.1434
▁חוקרים	-11.1434
▁החתול	-11.1434
▁ששת	-11.1435
▁צריכות	-11.1439
▁השוקולד	-11.144
▁מוזיקלית	-11.1442
▁לעומק	-11.1442
▁ך	-11.1445
▁מקבוצת	-11.1446
▁המשפחות	-11.1447
▁תדע	-11.1449
▁בקריאה	-11.145
▁משיקה	-11.145
▁המבצעים	-11.1452
צי	-11.1455
▁הטוויטר	-11.1455
▁תעשיית	-11.1459
▁שלילי	-11.1462
▁וקצת	-11.1467
▁להרוויח	-11.1467
▁class	-11.1467
▁תדעו	-11.1468
▁נוגע	-11.1469
▁יב	-11.147
יקה	-11.1472
▁אלאור	-11.1474
הארץ	-11.1476
▁האופניים	-11.1477
▁easy	-11.1477
▁ועדה	-11.1479
▁באתי	-11.1484
▁מסריח	-11.1484
▁מושלמים	-11.1487
▁בגץ	-11.1488
▁לכביש	-11.1489
▁ההכנה	-11.1489
▁כותרת	-11.149
-%	-11.1492
▁סוס	-11.1493
▁לאבא	-11.1493
▁שיט	-11.1496
▁תצליח	-11.1497
▁פרדס	-11.1497
▁סגורה	-11.1497
▁ייתן	-11.1498
יץ	-11.15
▁שמאלנים	-11.1501
▁לצערנו	-11.1502
chaimlevinson	-11.1502
▁הנזק	-11.1504
▁המציע	-11.1505
לילה	-11.1506
▁מדור	-11.151
▁שחורה	-11.151
▁מט	-11.151
▁קארין	-11.1511
▁אט	-11.1513
▁משרת	-11.1513
▁הטקס	-11.1513
▁מחודש	-11.1513
mm	-11.1513
▁מפואר	-11.1514
▁נוה	-11.1515
▁הלהקה	-11.1517
▁space	-11.1517
▁עבורם	-11.152
▁רו	-11.1522
▁ועושה	-11.1523
▁יעלו	-11.1524
▁צינור	-11.1525
▁בישיבה	-11.1526
▁offer	-11.1526
▁בפריז	-11.1527
▁often	-11.1528
▁הוגשה	-11.1531
▁הבטן	-11.1532
▁לביטוח	-11.1532
▁לבשל	-11.1532
▁לשלוט	-11.1533
▁large	-11.1534
▁שאמור	-11.1535
▁קריירה	-11.1535
▁ש״ח	-11.1535
▁פצוע	-11.1536
ודו	-11.1537
▁left	-11.1538
120	-11.154
▁שכך	-11.154
▁לאבד	-11.154
▁איטום	-11.1541
▁יציב	-11.1543
▁create	-11.1544
▁לצרכים	-11.1544
▁בייבי	-11.1545
▁להשוות	-11.155
▁חידוש	-11.1552
▁משפיע	-11.1552
▁אחשלי	-11.1552
▁לארגון	-11.1553
▁דביר	-11.1556
▁טכנית	-11.1559
▁עומק	-11.1561
▁תלת	-11.1561
▁להפגין	-11.1562
▁ever	-11.1563
48	-11.1566
▁ומוצלחת	-11.1567
▁man	-11.1567
נשים	-11.1571
▁תעבור	-11.1572
▁public	-11.1574
▁לשום	-11.1575
▁Eli	-11.1577
▁ספרד	-11.1579
▁בגדר	-11.158
▁טעויות	-11.1582
▁משאית	-11.1582
▁יראו	-11.1583
▁יתרונות	-11.1587
▁פנוי	-11.159
▁הגעת	-11.1591
▁הביאה	-11.1591
▁ארד	-11.1591
▁■	-11.1591
▁השתנה	-11.1592
▁social	-11.1593
▁גילו	-11.1593
00	-11.1593
▁Shani	-11.1594
▁מנחה	-11.1594
▁יסודי	-11.1595
▁חריג	-11.1598
▁2006	-11.16
▁שטרית	-11.1602
▁גיטרה	-11.1602
▁היכל	-11.1604
▁less	-11.1604
▁אשפה	-11.1608
▁אהובתי	-11.1609
▁משכורת	-11.1611
▁חגיגי	-11.1616
אנס	-11.162
▁updated	-11.1621
▁היצירה	-11.1624
▁המובילה	-11.1625
▁שהיום	-11.1627
▁אורטל	-11.1627
▁בדם	-11.1629
▁האומה	-11.1629
▁ויכול	-11.1629
▁2007	-11.1631
▁פוקס	-11.1631
▁כמי	-11.1633
▁Home	-11.1633
פור	-11.1634
▁לתכנית	-11.1635
▁שלווה	-11.1637
יז	-11.1638
▁מצאנו	-11.1644
▁מוגבלות	-11.1646
▁להאריך	-11.1646
▁והצוות	-11.1647
ine	-11.1649
go	-11.1651
▁במיטה	-11.1651
▁מבחוץ	-11.1653
▁החלפה	-11.1654
▁בבריאות	-11.1656
▁תנסה	-11.166
▁מבוגר	-11.1662
▁הוגש	-11.1664
▁מסוגלים	-11.1664
▁person	-11.1665
▁הלוואות	-11.1665
facebook	-11.1668
▁מיותרת	-11.1669
▁רפאלי	-11.1674
▁במחזור	-11.1677
▁מקס	-11.1678
▁נרשמו	-11.168
▁several	-11.168
▁המדיני	-11.1685
▁לתושבים	-11.1686
▁מורכבת	-11.1687
▁מעדיפים	-11.1688
▁לקהילה	-11.1689
▁קצרים	-11.169
▁לינה	-11.169
▁נגיע	-11.1691
למשל	-11.1693
▁חור	-11.1693
▁האדמו	-11.1695
▁בפגישה	-11.1697
חשוב	-11.1698
▁הסרטונים	-11.1698
08	-11.1699
▁אוהדים	-11.1703
▁תופעה	-11.1708
▁הממשל	-11.1709
▁לתחנת	-11.1715
▁תפקידים	-11.1715
▁ענבר	-11.1717
▁מחבר	-11.1717
▁לכולכם	-11.1719
▁שביבי	-11.172
▁הערכות	-11.1721
▁שטרן	-11.1722
▁תעודות	-11.1724
▁המסתננים	-11.1726
▁שמורה	-11.1728
▁זכור	-11.1728
▁makes	-11.1729
▁להתעסק	-11.1729
▁להזמנת	-11.1729
▁לסבול	-11.173
▁ובכן	-11.1734
▁ליל	-11.1737
▁אביה	-11.1737
▁לילדה	-11.1737
▁להעמיד	-11.1739
אדם	-11.1741
▁בזמנו	-11.1745
▁חמאה	-11.1745
▁ראיות	-11.1746
▁הלכנו	-11.1748
ניים	-11.175
▁נשבר	-11.1751
▁בקמפיין	-11.1751
▁החניה	-11.1752
▁{	-11.1753
▁לטענת	-11.1754
▁בפה	-11.1754
▁זקוקה	-11.1755
▁התשובות	-11.1755
▁הגיש	-11.1756
®	-11.1759
▁לארח	-11.1761
▁הקניות	-11.1762
▁תפסיק	-11.1762
▁הינם	-11.1762
▁שים	-11.1763
tal	-11.1763
▁ומספר	-11.1764
▁גנב	-11.1766
▁תיקי	-11.1766
▁לתמונה	-11.1768
▁בשער	-11.1776
▁שמחות	-11.1776
▁לחניה	-11.1778
▁בטבריה	-11.1781
▁שבתאי	-11.1783
▁שהיינו	-11.1783
▁דגמים	-11.1785
יסט	-11.1785
▁הרים	-11.1786
▁מוחלטת	-11.1786
▁מקורית	-11.1787
▁ברגעים	-11.1787
▁שקשה	-11.1788
▁למניה	-11.1788
un	-11.1791
▁צריכת	-11.1791
▁להתפלל	-11.1792
▁2022	-11.1793
▁מהנדס	-11.1795
עים	-11.1795
▁מתכת	-11.1796
▁לכבד	-11.1799
▁development	-11.1801
▁מתכננים	-11.1804
ness	-11.1804
▁תבואו	-11.1808
▁מרווח	-11.1808
▁המפכ	-11.1809
▁וחשוב	-11.1813
▁טוענת	-11.1813
▁future	-11.1813
▁וורדפרס	-11.1814
▁לאמנות	-11.1815
▁הנוגע	-11.1815
▁החודשים	-11.1815
▁לאחרים	-11.1815
▁try	-11.1818
ni	-11.1819
▁אצבעות	-11.1819
▁גול	-11.182
▁גי	-11.1823
▁ידידי	-11.1823
▁לשהות	-11.1826
▁נמצאה	-11.1826
▁הכח	-11.1827
▁הדואר	-11.183
▁הצטרף	-11.1835
▁says	-11.1836
קת	-11.1837
▁המתוקה	-11.1838
▁הבטיחות	-11.184
▁השלב	-11.1843
▁לתואר	-11.1843
▁בטרור	-11.1849
naftalibennett	-11.1849
▁מהמסעדות	-11.1854
▁ובמה	-11.1855
NadavEyalDesk	-11.1855
ad	-11.1856
▁הרדיו	-11.1857
▁אירן	-11.1857
▁Your	-11.1857
▁מימין	-11.1858
“	-11.1858
▁גרים	-11.1858
▁הציוד	-11.186
▁קשורה	-11.1862
▁סו	-11.1862
▁תושבת	-11.1862
▁בעמק	-11.1863
▁מצפון	-11.1863
▁דמוקרטיה	-11.1867
▁במחשב	-11.1868
▁רעים	-11.187
▁מדווח	-11.1872
▁done	-11.1874
▁ונשים	-11.1875
▁דרמה	-11.1876
▁מימי	-11.1876
▁מתרגשת	-11.1877
▁יריד	-11.1877
▁נוסטלגיה	-11.1877
▁עבורו	-11.1877
▁דינה	-11.1878
▁Go	-11.1878
▁המציעים	-11.1879
▁בגני	-11.188
▁פותחת	-11.188
age	-11.1881
▁שכתבת	-11.1882
▁הארי	-11.1883
▁שוורץ	-11.1887
▁ילך	-11.1888
▁באלימות	-11.1893
▁מכר	-11.1895
פרי	-11.1897
▁הבורסה	-11.1901
▁סוכות	-11.1901
▁Guy	-11.1902
▁מריה	-11.1903
-60	-11.1906
▁עטר	-11.1906
▁חשבו	-11.1907
▁משולב	-11.1912
▁והגיע	-11.1912
▁נוכחות	-11.1914
▁ריקוד	-11.1918
▁כמוהו	-11.1919
▁מרחוק	-11.192
▁מצ	-11.1925
▁במסלול	-11.1926
▁לסמוך	-11.1927
▁שיטות	-11.1927
▁נתחיל	-11.1928
▁איזור	-11.1928
°	-11.1929
▁זצ	-11.193
-200	-11.193
▁Mar	-11.1931
▁שוקי	-11.1931
▁השיניים	-11.1931
▁June	-11.1932
▁יוצרת	-11.1932
▁לבחירה	-11.1933
▁לדוגמה	-11.1934
▁נחמדים	-11.1934
▁רויטל	-11.1939
▁Levy	-11.1939
▁ג׳	-11.1939
▁לע	-11.194
▁co	-11.1942
▁מצלמת	-11.1942
▁לשתי	-11.1942
▁מיועדת	-11.1942
▁מציינים	-11.1943
▁יונדאי	-11.1943
▁אבטחת	-11.1944
רבי	-11.1947
▁הפלא	-11.1949
▁מצטער	-11.195
▁נאה	-11.1952
▁המשק	-11.1952
▁אפליקציות	-11.1952
▁טלפוני	-11.1953
▁סטודנט	-11.1953
אבא	-11.1955
▁אוקראינה	-11.1956
▁לממן	-11.1956
יייייי	-11.1956
▁נוכח	-11.1958
▁access	-11.1959
▁גורמת	-11.196
▁שמעוניין	-11.1961
▁שיכולים	-11.1965
▁ארגונים	-11.1965
ne	-11.1968
▁לעסוק	-11.197
▁בעיריית	-11.1971
▁למחוק	-11.1973
▁צמיחה	-11.1975
▁מסוגלת	-11.1976
▁בתו	-11.1979
▁כשזה	-11.1981
▁לרצות	-11.1982
01	-11.1982
▁דמויות	-11.1984
▁happy	-11.1986
▁far	-11.1986
וז	-11.1987
87	-11.1987
▁הדיירים	-11.199
▁התקדמות	-11.199
▁based	-11.1992
▁רשמה	-11.1998
▁נשר	-11.2
▁14:00	-11.2002
▁past	-11.2002
▁בעירייה	-11.2005
▁list	-11.2005
▁יינות	-11.2006
ידיעות	-11.2007
▁taking	-11.201
קק	-11.2011
▁פוליטיקה	-11.2011
▁שנמצאים	-11.2013
▁מוצע	-11.2014
▁זונות	-11.2015
▁להת	-11.2015
▁לומד	-11.2015
▁משתתף	-11.2017
▁שטראוס	-11.2018
▁עזרו	-11.2018
▁עיני	-11.2019
שח	-11.202
▁לגיטימי	-11.2021
▁ביתית	-11.2024
▁לביתו	-11.2024
▁הציע	-11.2025
▁מהעולם	-11.2027
▁price	-11.2029
▁עינב	-11.2032
▁ברזילי	-11.2034
▁תחומים	-11.2034
um	-11.2034
▁See	-11.2036
▁גיבוש	-11.204
▁הוביל	-11.2041
▁החיבור	-11.2043
▁מצביע	-11.2043
▁קמה	-11.2046
▁נע	-11.2047
▁צל	-11.2047
▁לשאלה	-11.2047
▁איטלקי	-11.2047
▁לאחור	-11.205
▁מתכוונים	-11.2053
`	-11.2056
▁חבורת	-11.2056
▁product	-11.2062
▁האוטו	-11.2063
בל	-11.2064
▁במילה	-11.2064
YouTube	-11.2066
▁Idan	-11.2067
▁האלוף	-11.2068
▁וניתן	-11.2073
▁comes	-11.2073
▁פת	-11.2075
▁הכתובת	-11.2078
▁become	-11.2079
▁ניצול	-11.208
▁מטפל	-11.208
▁הממלכתי	-11.2081
▁דרכה	-11.2081
ורי	-11.2082
▁ביפו	-11.2085
▁מוסד	-11.2086
▁עלולים	-11.2087
הן	-11.2088
▁תעסוקה	-11.2089
▁באל	-11.2089
▁52	-11.2089
▁השמיים	-11.209
▁במודיעין	-11.209
▁לרצח	-11.2091
▁u	-11.2092
▁Thank	-11.2093
מחר	-11.2095
ariel	-11.2096
▁לעולמו	-11.2097
▁משמע	-11.2097
▁months	-11.2097
▁רמז	-11.2097
קפה	-11.2098
▁along	-11.2099
▁במחאה	-11.2099
▁האתיופית	-11.21
▁doesn	-11.2101
▁נשבעת	-11.2103
▁won	-11.2104
▁משאבי	-11.2105
▁שמאלני	-11.2107
אנג	-11.2108
▁מחוסר	-11.2108
▁התקווה	-11.2111
סו	-11.2115
▁מודרני	-11.2117
▁ובמקום	-11.2118
▁וטיפול	-11.2119
▁הצבעים	-11.2119
▁בתחתית	-11.2119
▁פיצוי	-11.212
▁כלול	-11.212
▁לאילת	-11.2122
▁הנוף	-11.2123
▁Alon	-11.2128
▁בסיפור	-11.2129
▁ימות	-11.2131
שבע	-11.2132
▁התחלנו	-11.2132
▁level	-11.2134
▁program	-11.2136
▁ויחד	-11.2136
▁רוצות	-11.2136
▁ביוטיוב	-11.2137
ונג	-11.2139
▁עוסקת	-11.214
▁למחרת	-11.2141
▁עצות	-11.2143
▁אנרגיות	-11.2143
▁וככה	-11.2143
ist	-11.2143
▁בתקווה	-11.2144
▁ידו	-11.2144
▁המיסים	-11.2145
▁חשמלאי	-11.2147
▁ביהודה	-11.2147
▁בשמחות	-11.2148
▁עוצר	-11.2148
▁המועמד	-11.215
▁מוציאים	-11.2152
▁דורשת	-11.2152
▁יחדיו	-11.2155
▁מתחבר	-11.2157
▁העיתונאים	-11.2159
▁ומבורכת	-11.2159
▁רלוונטיים	-11.216
▁השמחה	-11.2161
▁תפוח	-11.2165
▁London	-11.2166
▁גלים	-11.2167
▁סימה	-11.2168
▁פעל	-11.2169
hazinor	-11.2171
▁בהזמנה	-11.2171
▁התאמה	-11.2174
▁מעוז	-11.2174
▁משי	-11.2175
▁השיעור	-11.2178
ies	-11.218
-22	-11.2185
▁שאוהבים	-11.2185
יית	-11.2185
▁גוטמן	-11.2186
מין	-11.2187
▁הנחיות	-11.2187
▁המקצועית	-11.2188
▁שנית	-11.2189
▁להתרשם	-11.219
▁שלכן	-11.2192
ביום	-11.2194
▁ליעד	-11.2195
▁בתנור	-11.2197
▁גרינברג	-11.2203
חן	-11.2205
▁di	-11.2208
▁לפיה	-11.221
▁שחושב	-11.221
▁הנייד	-11.221
▁הדירוג	-11.2212
▁ברצועת	-11.2216
▁לצמצם	-11.2218
▁לתיקון	-11.2219
▁קיימות	-11.2219
▁מורשת	-11.222
לות	-11.2222
▁הדולר	-11.2222
▁בנושאי	-11.2224
▁מגל	-11.2225
▁נאות	-11.2227
▁ומאוד	-11.2228
▁סרטי	-11.2229
▁אלומיניום	-11.223
▁בחופש	-11.2231
▁games	-11.2231
▁הייצור	-11.2232
▁למחר	-11.2232
▁אביעד	-11.2232
▁ושיווק	-11.2234
▁ביצה	-11.2236
▁ימני	-11.2237
▁חש	-11.224
28	-11.2242
▁משעה	-11.2243
▁הקריירה	-11.2244
מא	-11.2244
▁נישואין	-11.2246
▁לחול	-11.2247
▁לתוצאות	-11.2248
▁למטרה	-11.2249
▁קנס	-11.225
▁שמא	-11.225
▁באיזו	-11.2253
;&	-11.2255
▁חברו	-11.2256
▁ושתפו	-11.2258
▁בבעלות	-11.2258
▁לילך	-11.2258
▁חוג	-11.2258
▁ראשונים	-11.2259
medium	-11.2261
-90	-11.2262
▁בלינק	-11.2263
▁מאגר	-11.2263
▁Ron	-11.2263
▁ומיד	-11.2265
▁נופל	-11.2265
EldadYaniv	-11.2265
▁התחתונה	-11.2266
▁המשתמש	-11.2266
▁במסע	-11.2268
▁רוחב	-11.2268
▁בעם	-11.227
▁למשרה	-11.2271
▁שירת	-11.2272
▁סיפרו	-11.2273
▁שביצע	-11.2273
▁פיק	-11.2274
▁בשלוש	-11.2274
▁הלוואה	-11.2274
▁בהפגנה	-11.2277
תל	-11.2278
▁include	-11.2279
▁שק	-11.2279
▁סף	-11.2279
▁הצינור	-11.2279
▁המתמחה	-11.2279
▁תרומות	-11.2281
▁שפר	-11.2284
▁שרותי	-11.2288
▁לימי	-11.2288
▁body	-11.2289
▁לחופשה	-11.2289
▁לכדורגל	-11.229
▁סיימה	-11.2292
▁מעניק	-11.2292
וד	-11.2294
דגל	-11.2295
▁הפסטיבל	-11.2296
▁line	-11.2297
▁בבורסה	-11.2299
▁תדמית	-11.23
▁פגישות	-11.23
▁הורסת	-11.2301
▁מלאכי	-11.2305
▁קוח	-11.2305
▁נהגים	-11.2306
▁בטיול	-11.2307
▁וקבלו	-11.231
di	-11.2311
▁בוצע	-11.2311
▁לשולחן	-11.2312
▁National	-11.2312
▁קים	-11.2315
▁לצרכי	-11.2316
▁משתפת	-11.2316
▁לטעום	-11.2316
▁עים	-11.2316
▁מיזם	-11.2317
▁בהסכם	-11.2318
▁שליח	-11.232
במקום	-11.2321
▁קוק	-11.2321
▁החיוך	-11.2322
▁industry	-11.2323
▁המחיה	-11.2326
▁דחה	-11.2327
▁ובשורות	-11.2329
▁מהמדינה	-11.2329
▁דפי	-11.233
▁גיר	-11.2331
▁הצגת	-11.2332
▁גדות	-11.2332
▁started	-11.2332
▁טורבו	-11.2333
▁קצה	-11.2333
▁דיל	-11.2334
▁חפץ	-11.2334
▁לשידור	-11.2335
▁לדרוש	-11.2335
חוץ	-11.2336
▁האקדמית	-11.2337
▁Shay	-11.2339
▁פנסיה	-11.2342
▁plan	-11.2347
▁להי	-11.2349
▁ונחזור	-11.235
▁קרנות	-11.2351
▁מניית	-11.2351
▁פעלו	-11.2352
▁הקליקו	-11.2352
▁ושלא	-11.2353
▁ביקשתי	-11.2355
▁הידיעות	-11.2356
▁והשירות	-11.2358
▁Dor	-11.2359
ish	-11.2359
84	-11.236
▁בדואר	-11.2362
▁ארנון	-11.2364
▁לש	-11.2365
▁הוקם	-11.2365
▁יקח	-11.2367
▁מטבע	-11.2368
▁מצטרפים	-11.2369
▁לייזר	-11.2369
▁קלוריות	-11.237
▁שכונה	-11.2371
▁מצורף	-11.2372
▁בוודאות	-11.2374
▁מייסד	-11.2375
▁קשרים	-11.2377
ורה	-11.2378
300	-11.2379
▁←	-11.2381
▁content	-11.2382
▁מרכזית	-11.2382
▁הערכת	-11.2383
▁תנור	-11.2383
▁היחידי	-11.2384
▁להשיב	-11.2384
ri	-11.2388
▁מוזס	-11.2389
▁@_	-11.239
▁יוקר	-11.239
▁תצוגה	-11.2391
▁מיסים	-11.2392
▁מקלחת	-11.2392
▁ושות	-11.2394
▁מעצבת	-11.2395
▁באוניברסיטה	-11.2397
▁פרופיל	-11.2397
אהבה	-11.2398
▁Club	-11.2402
▁הבצק	-11.2403
▁מלמעלה	-11.2403
▁דרושה	-11.2406
ba	-11.2407
▁לביטול	-11.2407
▁בתוכו	-11.2408
▁פריט	-11.2408
▁הפרשה	-11.2409
▁million	-11.2409
שש	-11.241
▁דונם	-11.2411
▁1/2	-11.2411
▁הסערה	-11.2411
▁אבוטבול	-11.2413
▁שולי	-11.2414
▁המזל	-11.2414
▁הראיון	-11.2415
▁טובבב	-11.2416
▁יאח	-11.2418
▁למנהל	-11.2418
▁הבטיח	-11.2418
▁49	-11.242
▁לשוב	-11.2421
▁אדירה	-11.2421
▁הסיום	-11.2423
▁מחזיקה	-11.2424
▁מלפני	-11.2426
▁University	-11.2426
▁לקחתי	-11.2427
כולנו	-11.243
▁הסתיימה	-11.2432
▁מוגבלת	-11.2434
▁הטבעי	-11.2435
▁והייתי	-11.244
▁בינלאומית	-11.2441
▁קרים	-11.2442
▁גלבוע	-11.2442
▁הרך	-11.2442
▁ומשם	-11.2443
▁קילומטר	-11.2443
▁נטען	-11.2443
▁עליזה	-11.2444
כאן	-11.2445
▁להתעורר	-11.2446
▁הביטחוני	-11.2446
▁להכיל	-11.2448
▁הממונה	-11.2448
▁עומס	-11.2449
82	-11.2449
אד	-11.2452
▁World	-11.2456
ze	-11.2458
▁אימא	-11.2459
line	-11.246
▁שושן	-11.2463
▁הכוכב	-11.2465
▁city	-11.2466
▁רובם	-11.2466
▁הציג	-11.2467
▁להפיל	-11.2467
הרב	-11.2469
▁וחבר	-11.2469
▁ברלין	-11.247
▁שומרון	-11.2471
יג	-11.2473
▁לתייג	-11.2477
▁Is	-11.2478
▁hand	-11.2478
▁כפולה	-11.2479
▁טון	-11.2481
lo	-11.2481
▁מגיעות	-11.2485
▁doing	-11.2486
▁בצהל	-11.2486
▁בהנחיית	-11.2486
▁בדומה	-11.2489
▁house	-11.249
בק	-11.2492
▁didn	-11.2494
▁לחיצה	-11.2495
▁מילר	-11.25
▁עלית	-11.25
▁ירו	-11.2504
▁מסויים	-11.2504
▁מבצעי	-11.2506
▁לקריאת	-11.2506
▁דואג	-11.2507
▁הבהיר	-11.2508
▁מבוקש	-11.2512
▁לגבר	-11.2514
▁שאוהב	-11.2519
▁נפט	-11.2521
/8	-11.2522
▁אזורי	-11.2523
▁שהפך	-11.2526
▁הישג	-11.2528
▁אמי	-11.2528
▁41	-11.2529
▁מועמדים	-11.253
▁הבריכה	-11.2532
▁סודות	-11.2534
▁המיטה	-11.2534
▁fun	-11.2537
▁רביב	-11.254
▁ללבוש	-11.2542
▁מישל	-11.2543
▁Now	-11.2544
▁צמיגים	-11.2547
41	-11.255
▁מותאם	-11.2552
▁תאי	-11.2554
▁40%	-11.2555
▁מתמודדים	-11.2558
▁המדיניות	-11.2561
▁לפטר	-11.2561
▁בעבודת	-11.2561
סון	-11.2561
▁Street	-11.2561
▁מכוער	-11.2561
75	-11.2563
▁עמוקה	-11.2563
▁בנס	-11.2563
▁העצמי	-11.2564
▁לעת	-11.2564
▁תאמינו	-11.2566
▁מעלים	-11.2567
▁enough	-11.2568
▁נפרדת	-11.257
▁ליבך	-11.2571
▁מתגעגע	-11.2571
▁הידיעה	-11.2572
▁לזכרו	-11.2572
▁כבישים	-11.2574
רמת	-11.2577
▁מיקרוסופט	-11.2578
▁תיהיה	-11.2578
▁מדווחים	-11.2579
▁אימוץ	-11.2581
▁האימון	-11.2582
▁יזכה	-11.2582
▁אטיאס	-11.2583
▁נמוכים	-11.2584
▁דדון	-11.2584
▁פריז	-11.2585
▁החזר	-11.2586
▁שאפילו	-11.2588
▁תפוחי	-11.2589
▁02	-11.2589
‬	-11.2589
▁בנתב	-11.2592
▁מא	-11.2592
bezalelsm	-11.2594
▁תעזור	-11.2595
▁פופולרי	-11.2595
▁בתקציב	-11.2596
רד	-11.2598
▁עבודתו	-11.26
land	-11.2603
ונית	-11.2606
▁ודי	-11.2607
▁אילנית	-11.2607
עי	-11.2609
▁וחג	-11.2614
▁IPA	-11.2615
▁להעריך	-11.2615
▁שזכה	-11.2617
חחחח	-11.2619
▁תמורה	-11.2619
type	-11.2619
Shai	-11.262
▁רובין	-11.2621
▁ברוסיה	-11.2622
▁למבצע	-11.2624
▁מקומיות	-11.2627
▁אילון	-11.2628
▁הולם	-11.2628
▁אמרנו	-11.263
▁הכיבוש	-11.263
▁seen	-11.2632
▁פאק	-11.2632
▁הערות	-11.2633
▁מכללת	-11.2634
avi	-11.2636
▁מפרסם	-11.2636
▁זמינות	-11.2637
▁מזכירה	-11.2637
▁השביתה	-11.2639
▁בתכנון	-11.264
▁מזהה	-11.2643
▁הרמה	-11.2643
!!!!!!	-11.2644
▁גס	-11.2644
▁כחצי	-11.2644
▁140	-11.2647
▁לדור	-11.2647
▁מטוסי	-11.2648
▁יואל	-11.2649
ונת	-11.2651
▁גילוי	-11.2652
▁המסים	-11.2652
▁יצור	-11.2652
et	-11.2653
▁מוצאת	-11.2654
▁שכולנו	-11.2657
▁צוק	-11.2658
▁ההחלטות	-11.2663
▁פרסומי	-11.2664
נד	-11.2664
▁דואגים	-11.2664
▁וליהנות	-11.2668
▁מרגע	-11.2668
▁כפיר	-11.2671
▁חו	-11.2672
▁תתחדשי	-11.2672
▁ובת	-11.2672
▁במחלקת	-11.2673
▁מטופל	-11.2673
▁מעבירים	-11.2674
▁למשוך	-11.2675
▁ציטוט	-11.2676
▁בעיית	-11.2677
▁נת	-11.2678
▁ההר	-11.2679
▁סדנה	-11.2679
▁בסיכון	-11.2681
▁due	-11.2682
▁שיודע	-11.2682
▁צבאית	-11.2683
▁מחייב	-11.2684
▁שיתקיים	-11.2687
קוזי	-11.2688
▁הקשורים	-11.2688
▁ספרות	-11.2688
▁האיכות	-11.2689
▁ניסיונות	-11.2691
▁אזהרה	-11.2691
▁ואמא	-11.2693
▁שטחי	-11.2693
▁המי	-11.2693
▁חובות	-11.2694
▁כיסא	-11.2694
▁קנאביס	-11.2699
▁פסולת	-11.2699
▁סעודיה	-11.2703
▁כוסית	-11.2703
▁טענו	-11.2704
▁וקנין	-11.2707
▁דרישה	-11.2709
▁room	-11.271
▁במסעדות	-11.2711
aid	-11.2711
▁ניסן	-11.2711
▁מתקדמות	-11.2714
▁]	-11.2715
רוצים	-11.2715
▁שאן	-11.2716
▁שהמדינה	-11.2716
▁השנאה	-11.2718
עיצוב	-11.2719
45	-11.2721
▁התרופות	-11.2723
▁בגביע	-11.2724
▁ביצעו	-11.2724
▁הסיפורים	-11.2724
▁לייצור	-11.2725
▁מהעבודה	-11.2725
▁משטח	-11.2725
▁תופס	-11.2727
בב	-11.2729
▁כיס	-11.2729
ואם	-11.273
▁שנערכה	-11.2733
▁רשם	-11.2734
▁קשיים	-11.2734
▁cover	-11.2735
▁מקובל	-11.2735
▁שבט	-11.2736
▁גופנית	-11.2739
▁דקל	-11.2739
▁ורוצה	-11.2741
▁שעלה	-11.2742
▁להשקעה	-11.2743
▁h	-11.2746
▁אבנר	-11.2746
ייב	-11.2747
▁אדון	-11.2747
▁נגב	-11.2747
▁הפער	-11.2751
▁עז	-11.2751
min	-11.2753
▁אינסטגרם	-11.2753
▁מבריק	-11.2753
▁האשה	-11.2754
▁מתקני	-11.2755
▁לאלה	-11.2755
▁שעובר	-11.2757
▁הרחבה	-11.276
▁סנט	-11.2762
▁לייעוץ	-11.2762
▁בבי	-11.2762
▁לברך	-11.2763
▁light	-11.2766
jpg	-11.2766
▁טבעת	-11.2769
time	-11.2769
▁מאפשרים	-11.2771
▁בהפועל	-11.2774
▁במגרש	-11.2774
▁לוזון	-11.2774
ער	-11.2777
▁בסיוע	-11.2777
סל	-11.2778
▁הסלולר	-11.2779
בות	-11.278
▁ששון	-11.2781
=2	-11.2781
▁נתיב	-11.2786
▁למדו	-11.2788
▁let	-11.2788
▁מנהיגות	-11.2788
▁שלשום	-11.2789
▁פונו	-11.2789
▁התנ	-11.2792
▁מחמד	-11.2794
em	-11.2795
אג	-11.2796
▁הטענה	-11.2798
▁תאונת	-11.2798
▁האמונה	-11.28
▁למחשב	-11.2802
▁להיט	-11.2806
▁לרופא	-11.2809
▁רינת	-11.2809
▁רבני	-11.2811
▁ימ	-11.2811
▁ניפגש	-11.2816
▁שממש	-11.2816
▁רומנטית	-11.2817
▁פיני	-11.2817
-80	-11.282
▁עצמן	-11.2821
▁נכנסה	-11.2821
▁יקיר	-11.2821
kin	-11.2822
▁לפתיחת	-11.2825
▁מסודרת	-11.2826
▁מעזה	-11.2827
php	-11.2829
▁win	-11.2829
ce	-11.2831
▁שרואים	-11.2832
▁משאלות	-11.2832
▁הצמיחה	-11.2837
▁וביטחון	-11.2838
=1<	-11.2838
▁לתינוק	-11.2838
▁לפחד	-11.2839
7<	-11.284
▁במדבר	-11.2841
▁ובתי	-11.2841
חבל	-11.2847
▁מונית	-11.285
▁פרסי	-11.285
▁הארוך	-11.2852
▁הצרפתי	-11.2853
▁תג	-11.2855
▁אשכרה	-11.2855
▁רוטשילד	-11.2856
▁learn	-11.2856
▁המומחים	-11.2857
▁העלמין	-11.286
ker	-11.2863
▁עבורנו	-11.2864
▁לשמח	-11.2864
▁יצירות	-11.2865
▁מהמלון	-11.2865
ber	-11.2866
כולם	-11.2866
▁שטחים	-11.2867
▁Can	-11.2868
▁עשייה	-11.287
▁מוצקין	-11.287
▁אוטובוסים	-11.2872
▁זהירות	-11.2873
▁הגון	-11.2874
▁התחת	-11.2875
▁בדימוס	-11.2876
▁Maya	-11.2876
משהו	-11.2877
םםםםם	-11.2877
▁ניצח	-11.2881
less	-11.2881
▁גולד	-11.2882
▁נפגשו	-11.2882
▁השיח	-11.2882
▁מלאות	-11.2885
▁members	-11.2886
▁והזמנות	-11.2887
▁הרחובות	-11.2887
▁בצוות	-11.2887
▁שכתוב	-11.2889
▁לימים	-11.2889
▁רגיש	-11.2889
▁מיליונים	-11.2892
▁הילדות	-11.2897
▁וואווו	-11.2898
▁מראים	-11.2903
▁התקיפה	-11.2903
▁מסורת	-11.2905
▁הפגיעה	-11.2905
▁כלבה	-11.291
ניה	-11.2913
▁שראוי	-11.2915
▁means	-11.2915
▁לחות	-11.2915
▁בדרכו	-11.2917
▁בילוי	-11.2917
▁אופציות	-11.2918
ti	-11.292
▁משמעותיים	-11.2921
▁יבין	-11.2924
▁בשלושה	-11.2925
▁אקספרס	-11.2925
▁פוטר	-11.2926
אנה	-11.2927
▁הכרתי	-11.2929
▁??????	-11.293
▁שנכנס	-11.2932
▁נוהג	-11.2935
▁מוש	-11.2935
▁Church	-11.2936
▁שמעו	-11.2937
▁לאוכל	-11.2937
▁רשאי	-11.294
▁תורם	-11.294
▁הגדר	-11.294
▁ארנונה	-11.2944
▁הד	-11.2945
▁חביבי	-11.2946
▁לשיחה	-11.2947
▁למבוגרים	-11.2948
▁שמגיעים	-11.295
▁בהנחה	-11.2951
▁ממן	-11.2952
▁למקרה	-11.2954
▁שראש	-11.2956
▁הרצפה	-11.2957
▁Amir	-11.2957
▁תערוכה	-11.2958
▁מוטיבציה	-11.2958
לנד	-11.2961
▁app	-11.2963
▁מוגדר	-11.2963
▁פרצה	-11.2965
▁Of	-11.2965
▁מונע	-11.2965
▁בברלין	-11.2966
▁נענע	-11.2967
▁במחצית	-11.2968
▁ומו	-11.2969
▁קבלן	-11.297
▁האפשרויות	-11.2971
▁ידני	-11.2971
set	-11.2973
▁החשש	-11.2974
▁המכונה	-11.2975
▁תבערה	-11.2976
▁yet	-11.2977
▁מאיים	-11.2978
רוב	-11.2982
▁Design	-11.2984
▁בכמות	-11.2986
▁שחיתות	-11.2986
▁Rotem	-11.2988
▁שהיית	-11.2989
▁לגדול	-11.299
▁הפ	-11.2993
▁גופי	-11.2994
81	-11.2994
▁ותהנו	-11.2995
▁הסדנה	-11.2995
▁אנדרואיד	-11.2998
▁סבירים	-11.2998
▁חבורה	-11.3002
▁לפח	-11.3003
nc	-11.3004
▁חוקר	-11.3007
▁תהליכי	-11.3007
▁אידיאלי	-11.3008
▁אחוזי	-11.3011
▁אמיתיים	-11.3012
▁וחוסר	-11.3013
▁מורשה	-11.3014
▁קוסמטיקה	-11.3014
▁גמישות	-11.3014
▁לזכר	-11.3017
▁בלחץ	-11.3018
▁research	-11.3019
▁טיפוח	-11.302
▁בביקור	-11.3021
הההההה	-11.3024
ימים	-11.3025
▁State	-11.3027
▁להתחתן	-11.3031
▁כשבועיים	-11.3032
▁אעשה	-11.3032
▁שיי	-11.3034
▁הודיה	-11.3035
▁ילדיהם	-11.3038
▁גרפי	-11.3038
▁רוז	-11.3039
▁אייר	-11.3041
▁דופק	-11.3042
▁72	-11.3043
▁עונות	-11.3044
▁לפניכם	-11.3044
▁המיוחדים	-11.3044
▁46	-11.3046
▁טיפש	-11.3046
ונס	-11.3047
▁דיברנו	-11.3053
▁ומנהל	-11.3054
▁חה	-11.3056
▁באפליקציה	-11.3057
▁תני	-11.3057
▁התקשר	-11.3057
▁אגיד	-11.3058
▁חסן	-11.306
▁called	-11.3061
▁המשיכו	-11.3062
▁מודעת	-11.3062
▁מירושלים	-11.307
▁איננה	-11.3072
▁מקרב	-11.3073
▁מרפא	-11.3075
▁גבריאל	-11.3076
▁בעייתי	-11.3077
▁נפלה	-11.3077
▁נהנינו	-11.3078
▁Dana	-11.3078
▁מודעים	-11.3078
▁סחר	-11.3079
▁מאוהב	-11.3079
▁איינשטיין	-11.3079
▁המל	-11.3081
▁לילדי	-11.3082
▁המפתח	-11.3084
▁בכייף	-11.3085
▁customers	-11.3086
▁בעצמם	-11.3087
▁נחשבת	-11.3088
▁הנער	-11.3091
▁שהת	-11.3092
▁הקיימים	-11.3093
▁מעדיפה	-11.3093
▁ולשתף	-11.3093
▁ובלתי	-11.3097
▁במהדורה	-11.3097
▁job	-11.3098
▁הבינו	-11.3099
fa	-11.31
▁אביתר	-11.3103
▁בחג	-11.3103
▁מעצבים	-11.3104
▁התעללות	-11.3105
.&	-11.3106
▁שמכיר	-11.3107
▁מארז	-11.3107
▁קינן	-11.3109
ling	-11.3109
▁מביך	-11.311
▁הסמוך	-11.311
▁ראיתם	-11.3111
▁110	-11.3114
▁אכיפה	-11.3115
▁שעם	-11.3115
photos	-11.3116
יח	-11.3117
▁בתיכון	-11.3118
▁הסיכויים	-11.3118
▁עמודים	-11.3118
▁הנכים	-11.3119
▁מחלת	-11.3121
▁שיק	-11.3121
3<	-11.3121
▁שגב	-11.3121
▁אדי	-11.3121
▁נחש	-11.3122
▁אתא	-11.3123
▁though	-11.3124
▁ממגוון	-11.3125
בור	-11.3127
▁קבועה	-11.3128
▁five	-11.3128
▁ההצעות	-11.313
▁עסקת	-11.3131
▁האתגר	-11.3134
▁הצביעו	-11.3134
▁שו	-11.3136
מכבי	-11.3139
▁פרידה	-11.3141
ירה	-11.3141
▁שיתופי	-11.3147
▁תש	-11.3148
▁ומתוקה	-11.315
▁fb	-11.315
▁הנל	-11.3151
נקו	-11.3152
▁להעיף	-11.3155
▁350	-11.316
▁הנמצאים	-11.316
▁גדר	-11.3161
▁לתמיכה	-11.3161
▁עירית	-11.3166
▁לימין	-11.3168
▁שמתאים	-11.3169
78	-11.317
▁שוחרר	-11.317
מנת	-11.3172
▁ווי	-11.3173
▁חבילה	-11.3173
▁היוזמה	-11.3174
▁בזאת	-11.3176
▁67	-11.3177
פון	-11.3179
lin	-11.318
▁עלוב	-11.318
▁לחדשות	-11.318
▁הצדק	-11.3182
▁מהסוג	-11.3182
▁media	-11.3182
▁call	-11.3183
▁פשוטים	-11.3185
▁ואינו	-11.3186
▁government	-11.3187
erancherpak	-11.3188
▁יישאר	-11.3189
▁בבעיה	-11.3189
▁הפתוח	-11.319
▁ההפסד	-11.3191
▁פגישת	-11.3193
▁מזו	-11.3194
out	-11.3197
▁ההלכה	-11.32
▁סקירה	-11.32
▁גוונים	-11.3205
▁special	-11.3206
▁שתוכלו	-11.3206
/12	-11.3206
▁הפעלת	-11.3209
▁שיקול	-11.3209
▁בפ	-11.3209
▁העובדות	-11.3209
▁הגרסה	-11.3209
▁למגוון	-11.321
▁series	-11.3211
▁Dan	-11.3213
▁הזמנת	-11.3213
יקו	-11.3216
▁אהה	-11.3216
▁בטל	-11.3217
▁דיברתי	-11.3218
▁שלטים	-11.322
נכון	-11.322
▁short	-11.3221
▁כנרת	-11.3222
▁בסיבוב	-11.3222
▁איתנה	-11.3224
▁טלפונים	-11.3225
▁מבקרים	-11.3225
▁תכונות	-11.3225
▁בחלל	-11.3226
▁News	-11.3228
▁המיועד	-11.3228
▁ונוח	-11.3228
▁הספק	-11.323
▁המוצע	-11.3234
▁אמונים	-11.3236
▁שחלק	-11.3236
▁מאמצים	-11.3236
▁Wi	-11.3237
▁אצלם	-11.324
▁שקול	-11.324
▁שוברים	-11.3241
▁הבחורה	-11.3241
▁בקבוצות	-11.3243
▁הכבד	-11.3243
▁דחופה	-11.3245
adi	-11.3245
▁יכל	-11.3246
▁רוע	-11.3247
▁חנין	-11.3248
▁low	-11.325
gantzbe	-11.3251
▁מסרים	-11.3251
▁Best	-11.3251
▁רוט	-11.3254
▁לבסוף	-11.3256
▁56	-11.3257
▁לבג	-11.3259
▁non	-11.3262
▁שכלל	-11.3263
▁בנחל	-11.3266
▁נפלאים	-11.3267
דבר	-11.3269
ynet	-11.3271
▁רד	-11.3272
▁קווים	-11.3272
ler	-11.3272
▁דשא	-11.3272
▁קוקוס	-11.3272
▁דתית	-11.3275
▁להינות	-11.3275
▁מרשימה	-11.3275
▁קרח	-11.3275
▁חבריו	-11.3279
▁לכפר	-11.3279
▁מזגנים	-11.328
▁51	-11.328
▁יאפשר	-11.328
▁ציבוריים	-11.328
▁במתן	-11.3281
דות	-11.3282
▁המשקיעים	-11.3282
▁נאלץ	-11.3283
▁נכה	-11.3285
▁month	-11.3288
▁following	-11.3288
/3	-11.3289
▁לאותו	-11.3289
▁Noam	-11.3289
▁נדע	-11.3289
▁Garden	-11.3293
▁התכוונתי	-11.3293
▁לאלו	-11.3294
▁יונים	-11.3294
▁פרסים	-11.3295
▁רשומות	-11.3295
▁וחוץ	-11.3295
▁לצה	-11.3296
▁check	-11.3296
▁ציר	-11.3296
▁עברי	-11.3297
▁מלאת	-11.3297
▁מציאה	-11.3297
אש	-11.3298
▁hours	-11.3298
▁לקורס	-11.3301
▁South	-11.3301
▁בתחנה	-11.3301
▁54	-11.3302
▁כיפת	-11.3302
▁מלאך	-11.3304
▁תחקיר	-11.3304
▁ולפני	-11.3306
▁ואוהב	-11.3309
▁אגם	-11.3309
▁מסמים	-11.3309
▁ושבוע	-11.331
קצת	-11.3311
79	-11.3312
▁דבורה	-11.3312
▁מדגם	-11.3313
▁הכושר	-11.3314
▁בסביבת	-11.3316
▁צדיקים	-11.3319
▁בימוי	-11.332
▁ישנן	-11.3325
▁נעם	-11.3326
▁ביוב	-11.3327
▁once	-11.3327
▁שקיבלתי	-11.3328
7/	-11.3328
▁חלוץ	-11.3329
▁מרכב	-11.3329
ben	-11.3331
▁נציגים	-11.3333
▁השתתף	-11.3336
▁במבנה	-11.3337
▁פולין	-11.3337
▁took	-11.3339
▁ואלה	-11.334
▁כישרון	-11.3341
▁ויי	-11.3341
▁לבקשת	-11.3342
▁הספיק	-11.3342
צוק	-11.3342
▁נערה	-11.3343
▁מינהל	-11.3344
▁במראה	-11.3345
▁תלך	-11.3345
▁מרתקת	-11.3345
05	-11.3345
▁לחיזוק	-11.3347
▁הכדורסל	-11.3348
▁הסינית	-11.3351
▁רוסי	-11.3352
▁ההרצאה	-11.3356
▁תוכלי	-11.336
שיהיה	-11.336
כו	-11.3361
▁עוטף	-11.3362
▁בב	-11.3363
▁פופולרית	-11.3363
▁סוכן	-11.3363
▁שעובד	-11.3365
▁הבגדים	-11.3369
שתי	-11.3369
▁בגלריה	-11.3371
▁בלו	-11.3371
▁הרקע	-11.3371
FM	-11.3372
▁במחקר	-11.3372
▁המדובר	-11.3373
▁נערכים	-11.3375
▁בלוד	-11.3377
▁West	-11.3377
▁האתיופים	-11.338
▁בתערוכה	-11.3381
▁בסט	-11.3382
▁דינו	-11.3383
▁נרשמה	-11.3385
▁סגול	-11.3386
וביץ	-11.3387
▁לנשום	-11.3387
▁בוזגלו	-11.3387
▁כביכול	-11.3388
▁טס	-11.339
מוס	-11.3392
▁מעורבות	-11.3393
▁וכנראה	-11.3393
▁הקודמים	-11.3394
ילדים	-11.3395
▁דמוקרטית	-11.3399
▁גולדברג	-11.3401
▁העונש	-11.3402
▁בחייו	-11.3403
ודי	-11.3405
500	-11.3406
▁יזרעאל	-11.3407
▁הישיבות	-11.3408
▁head	-11.3409
▁דויד	-11.341
▁המבחן	-11.3413
מל	-11.3414
▁נמרץ	-11.3415
▁שנפל	-11.3415
▁צבעוני	-11.3415
מתוך	-11.3417
▁ועושר	-11.3417
▁נקווה	-11.3419
▁review	-11.3422
▁מושחת	-11.3427
▁מרפאת	-11.3429
▁ממילא	-11.343
▁לחרדים	-11.343
▁אלימלך	-11.343
▁שיצאו	-11.3432
▁עסקאות	-11.3433
עה	-11.3434
▁אזרחית	-11.3434
▁בהזדמנות	-11.3437
▁add	-11.3438
▁שדרוג	-11.3438
▁נפגעו	-11.3439
▁כבדים	-11.3439
▁מירון	-11.344
▁מקסימום	-11.3441
▁ההפקה	-11.3442
▁מוס	-11.3442
רון	-11.3443
▁סלפי	-11.3444
▁יהונתן	-11.3444
▁מנדלבליט	-11.3444
mi	-11.3445
▁באף	-11.3446
▁מדרגות	-11.3448
▁מצבים	-11.3448
ועוד	-11.3448
▁אמירה	-11.3449
▁מסרה	-11.3451
▁ייצוג	-11.3451
55	-11.3455
▁קנייה	-11.3456
▁בטופס	-11.3456
▁נשא	-11.3457
▁להפתיע	-11.3457
▁שאוכל	-11.3457
▁הרצועה	-11.3458
▁מנגנון	-11.3461
צת	-11.3461
▁קופת	-11.3461
▁בשנתיים	-11.3461
▁מפסיק	-11.3463
▁המביא	-11.3463
▁להאשים	-11.3465
▁בעבור	-11.3468
▁טויוטה	-11.3468
▁בעפולה	-11.3469
▁בתולדות	-11.3471
▁הערך	-11.3471
▁מוצ	-11.3471
ווה	-11.3472
▁היות	-11.3473
▁המנה	-11.3475
▁רוטר	-11.3476
▁המחשבה	-11.3479
▁הידוע	-11.3479
▁תופעות	-11.3481
▁שהגיעה	-11.3481
▁בבלעדיות	-11.3482
▁Dr	-11.3482
▁שוקל	-11.3485
▁הסרטים	-11.3487
▁went	-11.3488
▁לקישור	-11.3488
▁בוגרי	-11.349
ran	-11.349
▁במערכות	-11.349
▁איזון	-11.3491
▁מסוכנים	-11.3496
▁יהוה	-11.3496
▁תקלות	-11.3497
▁מייק	-11.3497
תתתתת	-11.3498
▁מבזקים	-11.3498
▁חילופי	-11.3498
................	-11.3499
אנר	-11.3499
▁מהממם	-11.3499
ווווו	-11.3501
ley	-11.3501
▁רגש	-11.3502
▁בצער	-11.3503
▁חפשו	-11.3506
▁עדינה	-11.3506
▁דיווחה	-11.3507
▁להפסיד	-11.3508
▁שטוב	-11.3509
▁המרגש	-11.3509
▁הפרצוף	-11.3511
▁הדעה	-11.3512
▁תהילים	-11.3512
▁problem	-11.3512
▁news	-11.3513
nn	-11.3513
▁Omer	-11.3514
▁אקס	-11.3515
▁current	-11.3515
▁האוכלוסייה	-11.3516
▁early	-11.3521
▁ולהדביק	-11.3521
▁מכונה	-11.3522
▁בור	-11.3522
▁שתדעו	-11.3523
▁סינית	-11.3523
▁מהמשטרה	-11.3523
▁הקצר	-11.3524
▁11:00	-11.3526
▁בקבוקי	-11.3526
▁המעולה	-11.3527
▁הלינק	-11.3527
▁הזמינו	-11.353
▁זמיר	-11.3531
▁רוטמן	-11.3531
▁חבלה	-11.3532
▁שלאחר	-11.3533
▁הובלות	-11.3533
▁הלכו	-11.3534
▁כפיים	-11.3536
▁לטלפון	-11.3537
עבודה	-11.3538
▁המקדש	-11.3538
▁בחרה	-11.354
▁חוששים	-11.354
נם	-11.3543
▁מציוני	-11.3543
▁קנו	-11.3544
▁טבעיים	-11.3545
▁מומלצת	-11.3545
▁לרמת	-11.3546
ארי	-11.3546
▁טונה	-11.3546
▁צלחת	-11.355
▁זמרת	-11.355
▁נובע	-11.355
▁ראויים	-11.3551
▁התעסוקה	-11.3551
▁מרכיבים	-11.3551
▁חריפה	-11.3551
▁הפליטים	-11.3552
-23	-11.3553
▁LG	-11.3556
▁לליכוד	-11.356
▁ללימודי	-11.3562
▁מציגים	-11.3562
▁נחמה	-11.3563
▁בכיוון	-11.3566
רשת	-11.3567
▁מיטות	-11.3568
▁העליונה	-11.3572
We	-11.3577
▁נכנסתי	-11.3578
77	-11.3578
76	-11.3579
▁companies	-11.3579
▁יעדים	-11.3579
▁כס	-11.3579
per	-11.3585
▁פן	-11.3588
אח	-11.3588
▁סירב	-11.3589
▁בברצלונה	-11.3589
ah	-11.3591
▁לפרויקט	-11.3594
▁נגר	-11.3596
ירו	-11.3596
▁התחושה	-11.3598
▁בחמישי	-11.3601
▁למעצר	-11.3601
▁מניסיון	-11.3601
▁בספורט	-11.3602
▁טיים	-11.3602
▁וכהטב	-11.3603
▁אפייה	-11.3603
▁העדכונים	-11.3603
▁חרדה	-11.3603
פול	-11.3604
▁שלומית	-11.3605
▁בחרתי	-11.3605
▁יועצת	-11.3606
▁ירדה	-11.3608
▁סדרות	-11.3608
▁אוראל	-11.3609
▁results	-11.3612
▁בשלטון	-11.3614
▁ותיק	-11.3615
▁אינץ	-11.3616
▁מומלצים	-11.362
▁מאתמול	-11.362
▁ושה	-11.362
▁הכלבה	-11.3621
▁היפות	-11.3621
▁סן	-11.3621
▁הומו	-11.3626
▁המקורית	-11.3626
מנה	-11.3626
▁העביר	-11.3627
▁תקנון	-11.3628
▁מעוצבים	-11.363
▁להסתובב	-11.363
▁‬	-11.3634
‭	-11.3636
▁בעיצומה	-11.3637
▁מקרקעין	-11.3638
▁ולפי	-11.3638
▁וביצוע	-11.3639
▁מהרגיל	-11.3639
קות	-11.3641
▁לאוויר	-11.3641
▁125	-11.3641
▁אהב	-11.3642
▁הוסיפה	-11.3644
▁להגדיר	-11.3644
▁הז	-11.3645
▁88	-11.3647
▁למשפט	-11.3648
▁שמיים	-11.365
▁יחזרו	-11.3652
▁בסימן	-11.3652
▁תישאר	-11.3654
▁אסטרטגי	-11.3654
▁הרוש	-11.3654
▁וערב	-11.3657
▁הירידה	-11.3657
▁אביזרים	-11.3659
▁להתאמץ	-11.3659
▁Hadar	-11.366
▁la	-11.3661
▁תעזרו	-11.3661
▁מרי	-11.3662
▁77	-11.3664
▁שוטף	-11.3666
▁חפצים	-11.3666
▁53	-11.3667
ant	-11.3669
▁שבי	-11.367
va	-11.3671
▁לירות	-11.3672
▁least	-11.3673
▁רינה	-11.3676
▁came	-11.3678
▁תמצא	-11.368
▁רימון	-11.368
34	-11.3685
▁במאמר	-11.3686
▁רג	-11.3686
▁שוות	-11.3687
▁מומחית	-11.3688
▁וכיצד	-11.3688
▁features	-11.3688
▁ישלם	-11.3689
▁וחברי	-11.369
▁הצרכים	-11.369
▁העיתונאי	-11.3692
▁סה	-11.3692
▁Keren	-11.3693
▁מצחיקה	-11.3694
▁ביניהן	-11.3695
▁מדוייק	-11.3696
▁קינג	-11.3696
▁אמינות	-11.3697
▁מתנגד	-11.3698
▁מפחדת	-11.3698
est	-11.3701
▁הסוד	-11.3703
▁תקנה	-11.3707
▁לחלוק	-11.3708
▁לשאת	-11.3709
▁לט	-11.3713
לבן	-11.3714
▁חדשני	-11.3714
▁העבירה	-11.3716
▁לנוכח	-11.3717
▁להתאמן	-11.3718
▁דרוקר	-11.372
▁לאחל	-11.3721
▁הטענות	-11.3722
▁מסתובב	-11.3722
▁שמאי	-11.3722
▁חובת	-11.3723
▁בכסף	-11.3725
▁מכלל	-11.3725
▁שאלוהים	-11.3727
▁47	-11.3727
▁פלד	-11.3727
▁במעבר	-11.3728
▁שאלת	-11.3728
▁כפל	-11.373
▁שאותו	-11.3732
▁עוזרת	-11.3734
▁ממוקמת	-11.3735
▁מחליף	-11.3735
▁זולה	-11.3736
▁שהילדים	-11.3736
▁במפלגה	-11.3736
▁וגברים	-11.3737
▁שתייה	-11.3737
▁האיום	-11.3739
▁cost	-11.3741
▁לגלוש	-11.3742
▁תרופה	-11.3742
דד	-11.3743
▁actually	-11.3747
▁להפועל	-11.3749
▁control	-11.375
▁מקלט	-11.375
▁החובה	-11.3752
אפילו	-11.3753
▁עזב	-11.3753
▁לעזה	-11.3753
ואז	-11.3758
▁קאסם	-11.3759
▁לתיאום	-11.3759
▁מרחבי	-11.3759
▁סיימתי	-11.3762
▁ששם	-11.3763
▁article	-11.3764
▁הפיס	-11.3765
▁פרחי	-11.3765
ul	-11.3767
▁סאונד	-11.3768
▁משקה	-11.3771
▁ההפגנות	-11.3771
▁עשירה	-11.3771
555	-11.3773
▁לעצב	-11.3774
▁דרמטי	-11.3776
▁שחושבים	-11.3782
▁מתו	-11.3786
▁Hen	-11.3786
▁במחלקה	-11.3786
▁הפצועים	-11.3787
▁גרועה	-11.3788
▁הולדתך	-11.3788
▁נחקר	-11.379
▁היסוד	-11.3792
▁אלכסנדר	-11.3793
▁עברנו	-11.3793
אהבתי	-11.3794
▁עליות	-11.3794
▁ובהמשך	-11.3794
שביעות	-11.3794
▁הנדרשים	-11.3795
▁נראת	-11.3797
09	-11.3797
▁פינות	-11.3798
▁הסתם	-11.38
▁למסעדות	-11.3802
▁מיי	-11.3802
▁בבחירת	-11.3804
▁הסרטן	-11.3805
▁הכשרות	-11.3807
משה	-11.3807
▁שיעשו	-11.3808
▁תביעות	-11.3808
▁לכתב	-11.381
▁פרוש	-11.381
▁בסינגל	-11.3812
▁ברקוביץ	-11.3812
▁בגבעת	-11.3814
▁ואיכות	-11.3814
▁האדומים	-11.3816
▁שכ	-11.3818
▁הנקי	-11.3819
▁שכחת	-11.3822
▁7.	-11.3822
▁form	-11.3822
▁הקטנות	-11.3823
▁יוחאי	-11.3823
▁בלשכת	-11.3825
▁מרתון	-11.3825
▁הפרוייקט	-11.3826
▁מעורבת	-11.3828
▁מפשע	-11.3829
▁נרצחו	-11.3829
▁הכהן	-11.383
▁חיסכון	-11.3832
▁בקליפ	-11.3832
▁לפרוש	-11.3833
▁appeared	-11.3836
▁......	-11.3837
▁ברוטב	-11.3838
ארה	-11.3839
▁הנכסים	-11.384
▁פרטנר	-11.3841
▁קירל	-11.3842
▁לשלושה	-11.3842
▁יומית	-11.3843
▁התמודדות	-11.3844
▁נרות	-11.3844
▁בהובלת	-11.3845
▁Shahar	-11.3845
מט	-11.3846
▁מהרגע	-11.3849
▁מטוסים	-11.385
▁גאוני	-11.385
▁לרפואת	-11.3852
▁שקרים	-11.3854
מון	-11.3854
▁הסט	-11.3855
▁בגינה	-11.3856
▁למראה	-11.3857
▁רמב	-11.3859
▁המפורסם	-11.3859
▁להשאר	-11.386
▁מגוונים	-11.386
▁הכריז	-11.3861
▁נופר	-11.3861
▁לירז	-11.3862
▁כיסאות	-11.3862
▁stay	-11.3862
▁יחיאל	-11.3866
▁שבית	-11.3868
▁מכוון	-11.3871
▁air	-11.3873
▁הייטק	-11.3874
▁חחחחחחחחחחחחח	-11.3874
▁״ה	-11.3874
▁קרני	-11.3878
▁להסתיר	-11.388
▁ראשל	-11.3882
▁חסינות	-11.3883
▁משלו	-11.3886
▁יהב	-11.3887
▁everything	-11.3887
▁women	-11.3889
▁שחורים	-11.389
▁רכיבה	-11.3891
▁החולה	-11.3892
▁באורך	-11.3892
▁ואבא	-11.3892
▁מוסיקלית	-11.3896
▁York	-11.3897
▁קייטרינג	-11.3899
▁לארגן	-11.3899
▁המכונית	-11.39
▁תשכח	-11.3901
פרטים	-11.3902
men	-11.3904
▁קניה	-11.3906
42	-11.3906
▁בזירה	-11.391
▁מארק	-11.3911
▁המשיח	-11.3914
▁כידוע	-11.3915
סקי	-11.3915
▁key	-11.3916
▁perfect	-11.3917
▁להמחשה	-11.3918
▁רומן	-11.3919
▁pay	-11.3919
▁ישב	-11.392
▁הפרעות	-11.3921
▁פופ	-11.3924
▁הארנונה	-11.3926
▁Don	-11.3927
▁והילדים	-11.3928
▁בעלים	-11.3929
ונות	-11.393
▁While	-11.3933
sa	-11.3935
ניו	-11.3937
▁ירבו	-11.3939
מהדורה	-11.394
▁מחצית	-11.394
▁נכונים	-11.3941
וצ	-11.3941
▁רגשית	-11.3943
▁לערבים	-11.3943
זהו	-11.3944
▁עמידה	-11.3945
▁נניח	-11.3945
▁המשתמשים	-11.3946
▁בעצמכם	-11.3948
▁המסורת	-11.3948
▁סלקום	-11.3952
▁הירוקה	-11.3952
▁השיב	-11.3954
▁כיפור	-11.3959
▁תאפשר	-11.3961
▁הסיור	-11.3961
▁תקוע	-11.3962
▁מארח	-11.3964
▁שקיבלו	-11.3965
▁ארצית	-11.3965
▁דובי	-11.3965
▁למטבח	-11.3966
▁בתואר	-11.3967
▁בום	-11.3967
▁תהליכים	-11.397
▁וול	-11.397
▁אלקין	-11.3972
▁גרוס	-11.3972
▁ניידים	-11.3972
▁בירי	-11.3973
▁האיגוד	-11.3975
▁בחזית	-11.3976
ft	-11.3978
▁אלבז	-11.398
▁מתמטיקה	-11.3981
▁החזק	-11.3982
▁תורת	-11.3985
▁הועבר	-11.3986
▁בסופר	-11.3989
▁נולדה	-11.399
▁נתנה	-11.3992
▁minutes	-11.3992
▁מכובד	-11.3992
▁friends	-11.3992
▁החלוץ	-11.3992
מבצע	-11.3993
סת	-11.3995
▁אלופת	-11.3996
▁נשבע	-11.3996
▁American	-11.3997
מם	-11.4
▁מדליק	-11.4003
▁הסיוע	-11.4003
▁גופים	-11.4004
=5	-11.401
▁הצפוני	-11.401
▁בשבילו	-11.401
74	-11.4011
▁לוגו	-11.4011
▁סמך	-11.4012
▁בתורה	-11.4012
▁סורי	-11.4014
▁השינויים	-11.4018
תהנו	-11.4018
▁סוללה	-11.4019
▁בלימודים	-11.4022
▁מוריד	-11.4023
▁לעור	-11.4023
▁ופחות	-11.4024
▁איטלקית	-11.4025
▁גולדן	-11.4026
▁בריכת	-11.4027
▁יצרן	-11.4028
▁להתלונן	-11.403
ילד	-11.4031
▁technology	-11.4031
▁העברי	-11.4033
▁הפנסיה	-11.4033
▁ואמרה	-11.4033
▁שגרם	-11.4034
▁someone	-11.4039
▁Friday	-11.4039
▁משותפים	-11.4041
▁מאסטר	-11.4041
כמובן	-11.4042
▁המיזם	-11.4043
קין	-11.4043
▁מפרסמים	-11.4046
▁פער	-11.4047
▁הקסם	-11.4048
▁מעיד	-11.4049
▁סטייק	-11.4051
▁שהתקיימה	-11.4053
▁שרופה	-11.4053
רן	-11.4053
▁תעשייה	-11.4054
▁המנכ	-11.4054
▁הלר	-11.4057
▁הפרלמנט	-11.4058
▁השריפה	-11.4059
5<	-11.4059
▁ומעבר	-11.4059
חח	-11.4059
▁סניפים	-11.4061
▁יפיופה	-11.4062
קרן	-11.4063
▁התוכנה	-11.4064
▁issues	-11.4065
▁דיבור	-11.4066
campaign	-11.4068
▁יזכו	-11.4069
▁נסו	-11.4069
▁שניצל	-11.407
▁הביקוש	-11.407
▁הנמצאת	-11.4071
▁ושום	-11.4071
▁לזכויות	-11.4073
▁השכנים	-11.4073
▁המשימה	-11.4074
▁למרבה	-11.4075
▁לחייו	-11.4076
▁תורג	-11.4076
ir	-11.4076
▁שיכולה	-11.4077
▁המפה	-11.4077
▁ההפעלה	-11.4078
▁מסכנים	-11.4078
▁בניינים	-11.4081
▁שקית	-11.4082
תיק	-11.4082
▁אינני	-11.4083
▁פייק	-11.4085
▁דיווחו	-11.4087
▁58	-11.4087
▁פרא	-11.4088
▁פלאפון	-11.4089
▁מקומו	-11.4089
▁הפרי	-11.4089
▁הובא	-11.409
▁במשרה	-11.4092
ary	-11.4093
▁ישוב	-11.4093
▁fbi	-11.4093
אחת	-11.4094
▁בוגרים	-11.4095
▁שיוצא	-11.4096
▁חניות	-11.4097
▁במערב	-11.4098
▁130	-11.41
▁למופע	-11.41
▁עריכת	-11.4101
▁בדו	-11.4102
▁האקדמיה	-11.4102
▁וועדת	-11.4105
▁להתערב	-11.4106
▁among	-11.4106
▁לעורר	-11.411
▁רכוש	-11.411
▁ההתחלה	-11.4112
▁לשיתוף	-11.4112
▁גדלה	-11.4114
▁במשהו	-11.4115
▁סלטים	-11.4115
▁השילוב	-11.4116
▁הייחודי	-11.4116
▁רגישות	-11.4116
▁כתיבת	-11.4117
▁פרשן	-11.4117
▁בתנועה	-11.412
▁להמתין	-11.4121
▁עצר	-11.4122
▁אלול	-11.4122
▁מהלב	-11.4125
▁מפחדים	-11.4126
▁הדעות	-11.4126
▁לפגיעה	-11.4127
▁וד	-11.4128
▁שיוכל	-11.4129
▁הדג	-11.413
▁משלימה	-11.413
▁נשארת	-11.413
▁לפיו	-11.4131
▁נכים	-11.4134
▁שולחים	-11.4136
▁משלב	-11.4138
▁מסתכל	-11.4139
▁סבב	-11.414
אושר	-11.4142
02	-11.4142
▁השפעת	-11.4144
▁visit	-11.4147
▁לקביעת	-11.4148
he	-11.415
▁הדגיש	-11.4151
▁בשיחות	-11.4151
▁חבד	-11.4155
▁גבינות	-11.4157
▁העלו	-11.4158
▁ערד	-11.4158
▁הרגיל	-11.4159
▁להסכים	-11.4159
▁לטוב	-11.416
▁המעוניינים	-11.4161
▁אזריה	-11.4166
▁יתחיל	-11.4168
▁מטבחים	-11.4168
▁לקפוץ	-11.4169
▁מרווחת	-11.417
▁front	-11.4174
▁חובב	-11.4175
▁הגורם	-11.4176
▁תרד	-11.4176
▁שמעניין	-11.4176
▁Day	-11.4177
io	-11.418
▁שלמים	-11.4182
▁נתפסו	-11.4185
▁לת	-11.4185
כנו	-11.4187
▁אהבתם	-11.4188
▁מסמכי	-11.4189
▁זק	-11.419
my	-11.4192
▁הרחבת	-11.4192
▁חשיפת	-11.4193
▁החוקים	-11.4193
▁מנויים	-11.4193
▁לאייפון	-11.4195
▁אחזור	-11.4199
▁להגביר	-11.4199
▁כראש	-11.42
▁מניעה	-11.4201
▁הכנתי	-11.4202
▁מסרו	-11.4203
▁העוסקים	-11.4203
88	-11.4204
▁חשובות	-11.4207
▁בהשראת	-11.4207
▁מהעיר	-11.4208
▁ואטרקציות	-11.421
▁ואיכותי	-11.4211
▁ותו	-11.4211
▁שפוי	-11.4213
▁הזכיר	-11.4214
▁הרביעית	-11.4215
▁בוגרת	-11.4216
זר	-11.4217
▁לחופש	-11.4217
▁איכשהו	-11.422
▁04	-11.422
▁קלאב	-11.4222
▁מותגים	-11.4223
▁המונים	-11.4226
▁והצלה	-11.4226
▁בהליך	-11.4228
▁הצבעה	-11.4228
▁נישואים	-11.423
▁ולמי	-11.423
▁בהגרלה	-11.4231
▁שטרם	-11.4231
▁הקולות	-11.4233
▁07	-11.4233
▁במסעדת	-11.4239
▁מסכימים	-11.4239
▁להכנת	-11.424
▁בעצמה	-11.4243
▁השבועות	-11.4245
▁הק	-11.4246
▁התחברות	-11.4247
▁פוליטיים	-11.4251
▁לצעירים	-11.4253
▁range	-11.4253
▁במזומן	-11.4254
▁המעשה	-11.4254
▁Black	-11.4254
רית	-11.4254
▁אחיות	-11.4254
▁face	-11.4255
▁kind	-11.4256
▁אלישע	-11.4257
▁מאנשים	-11.4257
▁קיבלת	-11.426
▁Sa	-11.426
▁משאיר	-11.4261
▁החרדיות	-11.4261
▁סוער	-11.4264
אוהבים	-11.4264
▁תוכנת	-11.4267
▁עימות	-11.4269
▁הקשים	-11.4272
▁שווא	-11.4272
=1&	-11.4274
▁סוגרים	-11.4275
▁ימח	-11.4275
▁העולים	-11.4276
▁שנאמר	-11.4276
▁גרין	-11.4276
▁שלייייי	-11.4277
2015	-11.4278
▁סמכות	-11.4278
▁הטילים	-11.4279
▁mm	-11.4281
▁הסברה	-11.4281
▁גד	-11.4281
▁המאפשרים	-11.4282
▁להאזין	-11.4283
▁מושקע	-11.4283
▁הנפלא	-11.4285
▁כסאות	-11.4285
▁הפיצה	-11.4285
▁מציין	-11.4286
▁ואירועים	-11.4286
מקווה	-11.4287
▁ההופעות	-11.4288
▁בנכס	-11.4291
▁בעבירות	-11.4294
GA	-11.4295
▁ודאי	-11.4295
▁מכתבים	-11.4296
▁מבעלי	-11.4296
▁עצבים	-11.4296
▁דנינו	-11.4299
▁value	-11.4299
▁המדהימים	-11.43
▁ובר	-11.4301
▁עסקיים	-11.4301
▁נפתחת	-11.4303
▁האזרח	-11.4303
▁וניסיון	-11.4304
▁עוזב	-11.4304
▁נתיבות	-11.4307
▁מתוכם	-11.4309
▁כשל	-11.431
if	-11.4311
▁הסינגל	-11.4311
▁שקוף	-11.4312
▁בהודו	-11.4313
▁הערכים	-11.4313
▁במוסדות	-11.4313
▁ממלא	-11.4314
▁לסביבה	-11.4316
▁מוסלמים	-11.4316
▁רביבו	-11.4319
▁האנגלית	-11.432
▁מילואים	-11.4322
▁staff	-11.4323
▁160	-11.4323
▁ישראליות	-11.4326
▁רשימות	-11.4326
▁שיקרה	-11.4327
▁13:00	-11.4328
▁האמריקנית	-11.4328
▁משל	-11.4331
▁שמאפשר	-11.4335
▁קופה	-11.4335
▁בבטן	-11.4335
נק	-11.4336
ga	-11.4338
הו	-11.4338
▁everyone	-11.4338
ומים	-11.4342
▁חלי	-11.4342
▁תפספסו	-11.4344
▁שמחפש	-11.4345
▁התיקון	-11.4346
36	-11.4346
▁הצדיק	-11.4346
▁ago	-11.4347
חצי	-11.4347
▁כשאנחנו	-11.4348
▁לס	-11.4349
▁תאמין	-11.4349
Or	-11.435
נצ	-11.4351
▁המשא	-11.4351
▁מעבירה	-11.4351
▁לפנים	-11.4352
▁הגולשים	-11.4355
▁Matan	-11.4357
▁במגדל	-11.4357
67	-11.4358
▁זמנים	-11.4358
▁הורי	-11.436
▁ההגרלה	-11.436
▁להשתנות	-11.4362
▁להשתלב	-11.4363
▁הובלה	-11.4365
▁משאבים	-11.4365
▁Maor	-11.4366
▁לראותכם	-11.4366
▁דיונים	-11.4366
▁בצפת	-11.4366
aviadglickman	-11.4368
▁לעין	-11.4369
▁הנדסה	-11.4371
למי	-11.4371
▁מוגש	-11.4372
▁דוגמנית	-11.4372
▁השמאלנים	-11.4373
Shaked	-11.4378
▁move	-11.4379
ac	-11.438
▁later	-11.4381
▁רצינו	-11.4381
▁הקושי	-11.4382
טון	-11.4385
▁מורכבות	-11.4386
ment	-11.4387
▁עקרונות	-11.4388
▁שמוליק	-11.439
fb	-11.4391
▁Tomer	-11.4391
▁כעבור	-11.4391
רדיו	-11.4392
▁להתגבר	-11.4393
▁קנדה	-11.4393
▁בכרטיס	-11.4394
▁ממוקמות	-11.4394
▁Man	-11.4395
▁הזמין	-11.4395
▁לינוי	-11.4396
▁לדווח	-11.4396
▁מבוססת	-11.4397
צפו	-11.4398
▁הביע	-11.4399
▁68	-11.4399
▁גליק	-11.44
▁בונוס	-11.4402
▁מסוכנת	-11.4402
▁פירוק	-11.4403
▁North	-11.4404
▁החוזה	-11.4405
▁תנובה	-11.4406
▁האמור	-11.4408
▁דיוק	-11.4409
▁אלעזר	-11.441
גה	-11.441
▁והלא	-11.4413
▁ושמח	-11.4413
▁רחוקה	-11.4413
▁התראה	-11.4415
-35	-11.4415
▁כתבנו	-11.4416
▁ומשלוח	-11.4418
▁ותוך	-11.4418
▁קחי	-11.4419
▁פיפי	-11.4423
▁אגד	-11.4423
▁הכיוונים	-11.4426
▁נשמות	-11.4426
▁פייר	-11.4427
▁משמרת	-11.4428
▁שצפוי	-11.4429
▁הדשא	-11.4429
▁שביט	-11.4429
▁ערכת	-11.443
תמונה	-11.4431
▁מב	-11.4434
▁צמצום	-11.4434
▁ליו	-11.4438
▁החול	-11.444
▁Not	-11.4441
▁שמענו	-11.4442
▁2004	-11.4443
▁Mr	-11.4443
▁הנמוך	-11.4443
▁האחורי	-11.4445
▁אהלן	-11.4445
▁האויב	-11.4448
▁הזוכים	-11.4449
▁בשכר	-11.445
▁מקסימות	-11.445
dor	-11.4451
▁101	-11.4452
▁נלמד	-11.4453
▁לעוף	-11.4455
▁הרוחות	-11.4455
▁בצבעים	-11.4458
▁סול	-11.4461
▁ואיש	-11.4463
▁סלבס	-11.4463
65	-11.4463
סס	-11.4465
▁לקפה	-11.4466
▁לחוף	-11.4467
▁מוסרי	-11.4469
▁24/7	-11.4471
קן	-11.4472
▁לשדר	-11.4472
▁below	-11.4472
▁גרעיני	-11.4472
▁אובדן	-11.4474
pa	-11.4477
פרו	-11.4477
▁רבינוביץ	-11.4479
▁יכלו	-11.448
▁להתקרב	-11.4481
▁חשמלית	-11.4482
▁במפלגת	-11.4483
דברים	-11.4483
▁בנסיבות	-11.4484
▁האישיים	-11.4484
▁הצילומים	-11.4485
▁מחברות	-11.4488
▁טק	-11.4489
se	-11.449
▁המהיר	-11.449
▁לתרבות	-11.4493
▁ירה	-11.4494
▁ושנה	-11.4495
▁ארבעת	-11.4495
▁סמדר	-11.4497
▁אמה	-11.4497
▁known	-11.4497
▁לבשר	-11.4497
▁למפלגה	-11.4498
▁תדאג	-11.4499
▁קופות	-11.4499
▁מתייחסים	-11.4499
▁Red	-11.4499
▁Moran	-11.4501
▁הצעד	-11.4505
נתי	-11.4507
▁שעלו	-11.4507
▁מדבקת	-11.4507
▁היציאה	-11.4509
▁חוט	-11.4511
ערוץ	-11.4516
▁צוואר	-11.4517
▁פריד	-11.4518
▁בודק	-11.4521
▁Hila	-11.4521
▁לרשויות	-11.4521
▁מצבה	-11.4523
▁בניון	-11.4524
▁ומיוחדת	-11.4525
▁ברבע	-11.4526
▁שותה	-11.4526
▁יערה	-11.4527
הנה	-11.4529
▁שיבוא	-11.453
ur	-11.4531
▁השחיתות	-11.4531
▁חוקרי	-11.4532
▁סהר	-11.4534
ja	-11.4535
▁♥	-11.4535
▁מתכננת	-11.4535
▁חגיגת	-11.4536
▁שורש	-11.4536
▁ומגוון	-11.4537
▁ממד	-11.4538
▁הנהגים	-11.4538
▁נפשית	-11.4538
▁גלישה	-11.4539
▁thought	-11.4539
▁ייצא	-11.4539
▁האופציה	-11.4544
▁ונעימה	-11.4544
▁באוטו	-11.4545
▁חזי	-11.4547
▁ובגלל	-11.4548
▁שחם	-11.4548
רוצה	-11.4549
▁בכיס	-11.4549
▁והו	-11.4551
▁במקומו	-11.4552
▁לומדת	-11.4554
▁דרכם	-11.4555
▁צימרים	-11.4557
▁זכרונות	-11.4557
▁ואווו	-11.4559
▁נבחרה	-11.456
▁העלתה	-11.456
▁תבנית	-11.4563
▁פנייה	-11.4563
▁משתמשת	-11.4565
▁2.0	-11.4566
מלא	-11.4567
▁בענייני	-11.4568
▁שביל	-11.4569
▁מתכנן	-11.457
▁יחזקאל	-11.457
:-)	-11.4571
▁יקירי	-11.4572
▁שהביא	-11.4573
▁בבריכה	-11.4575
▁:))	-11.4576
▁יבינו	-11.4576
▁להטיל	-11.4579
▁יוגב	-11.4581
▁האיפור	-11.4581
▁ממרכז	-11.4581
list	-11.4583
היו	-11.4584
רררר	-11.4584
▁בדק	-11.4587
▁ולהגיע	-11.4588
▁אד	-11.4589
בול	-11.4589
▁מתווה	-11.4589
▁לשקול	-11.4592
ina	-11.4594
▁לבוש	-11.4596
▁כבת	-11.4597
▁הגרלה	-11.4599
▁העתיקו	-11.46
▁מבושל	-11.4601
▁forward	-11.4604
▁מטופלים	-11.4604
חבר	-11.4606
▁לתבוע	-11.4606
▁אביבית	-11.4608
פס	-11.4611
▁הוארך	-11.4611
▁main	-11.4612
▁בסלע	-11.4612
▁מהילדים	-11.4613
▁ויצא	-11.4614
▁ופתאום	-11.4615
איש	-11.4615
▁גרמה	-11.4616
▁השכלה	-11.4618
▁Haim	-11.4622
▁לאזרחים	-11.4624
▁הצלחנו	-11.4624
39	-11.4626
▁פיגועים	-11.4626
▁התקנה	-11.4628
▁כשנתיים	-11.4633
▁נשארים	-11.4633
▁הגבוהים	-11.4634
▁ולקחת	-11.4636
ev	-11.4636
▁זי	-11.4637
▁בגרסה	-11.4638
za	-11.4639
▁לסיכום	-11.4639
▁חוש	-11.464
▁הקיימות	-11.464
▁אטרקציה	-11.4642
▁המפרץ	-11.4643
▁ארבל	-11.4644
▁מוגן	-11.4644
▁מכבד	-11.4646
▁סרי	-11.4646
▁משוגע	-11.4647
▁תחשבו	-11.4647
▁בודקים	-11.4648
▁במלוא	-11.4648
▁המוני	-11.4648
▁30%	-11.465
▁אומן	-11.4651
▁לאיחוד	-11.4651
▁צליל	-11.4653
שימו	-11.4654
▁מחברי	-11.4657
▁יוטיוב	-11.4657
ol	-11.4657
▁מועלם	-11.4657
▁€	-11.4659
▁היתרון	-11.466
בוטינסקי	-11.4661
האח	-11.4662
▁הורשע	-11.4662
▁אחרינו	-11.4665
▁reading	-11.4668
▁1.2	-11.4672
▁שנאת	-11.4674
▁פל	-11.4675
▁יציאת	-11.4676
▁פונים	-11.4678
▁ומשרד	-11.4678
▁מזרחית	-11.468
▁ובאמת	-11.468
?????	-11.4681
▁שומרי	-11.4683
▁66	-11.469
▁בעשרות	-11.469
▁הסף	-11.469
▁מהווים	-11.4691
▁מהכל	-11.4692
▁ולהביא	-11.4692
▁מגלים	-11.4693
▁film	-11.4694
רמי	-11.4694
▁חגיגית	-11.4696
▁באדם	-11.4696
▁נלחמים	-11.4696
▁מסדרת	-11.4696
לללל	-11.4697
▁בינלאומיים	-11.4697
▁מהמקרים	-11.4698
▁קי	-11.4699
▁המכרזים	-11.4702
▁חושפת	-11.4703
הגיע	-11.4706
▁נסע	-11.4708
▁אסתי	-11.4708
▁לקיץ	-11.4708
▁תודות	-11.4708
▁מעניקה	-11.4709
▁בחמש	-11.471
▁עיון	-11.471
▁15:00	-11.4711
▁69	-11.4712
▁להיפרד	-11.4717
▁לארה	-11.472
ונ	-11.4721
Ayelet	-11.4721
▁ריכוז	-11.4724
▁גלגל	-11.4727
▁המתחם	-11.4727
▁להיראות	-11.4728
▁הביצוע	-11.4728
▁ניידת	-11.4728
שוק	-11.4728
▁אבחון	-11.473
▁ולהנות	-11.4731
▁המטה	-11.4731
פנו	-11.4732
▁שמלת	-11.4733
▁close	-11.4734
▁addition	-11.4735
▁חתמו	-11.4735
▁יחל	-11.4736
▁פנטסטי	-11.4738
▁ומזל	-11.474
▁בכותל	-11.4744
▁פליטים	-11.4746
▁ההוצאה	-11.4747
▁התערבות	-11.4749
▁נגרם	-11.475
צר	-11.4751
▁צמודה	-11.4752
▁כובע	-11.4752
▁לפגישות	-11.4754
▁performance	-11.4754
▁חזרנו	-11.4754
▁למגורים	-11.4755
▁כמויות	-11.4756
▁קדם	-11.4757
▁השמלה	-11.4758
▁works	-11.4758
▁simple	-11.4759
▁יפן	-11.4759
▁ידנית	-11.476
▁המועצות	-11.4761
▁59	-11.4761
▁הוסיפו	-11.4761
▁מעבד	-11.4761
▁מטורפים	-11.4763
▁דפוק	-11.4763
▁שמחתי	-11.4763
▁הל	-11.4763
▁משדרים	-11.4764
▁שמם	-11.4764
▁פאקינג	-11.4765
▁פעילה	-11.4765
למכירה	-11.4768
▁הברכה	-11.4768
סליחה	-11.4769
▁ביער	-11.4769
▁פיל	-11.477
▁קטעים	-11.477
▁חדה	-11.4772
▁הרישום	-11.4774
▁דוקטור	-11.4776
▁ניסוי	-11.4776
▁אוזניות	-11.4777
▁להפחית	-11.4777
▁במס	-11.4777
▁ראיה	-11.4778
▁training	-11.4778
▁מעלפת	-11.478
ארד	-11.478
▁תופעת	-11.4781
▁Nir	-11.4781
▁מערבבים	-11.4781
▁קופון	-11.4781
▁המרכזיים	-11.4782
▁building	-11.4782
▁יהוד	-11.4782
▁various	-11.4784
▁בירות	-11.4784
▁מתקיימת	-11.4784
▁מטומטמת	-11.4786
▁Love	-11.4787
▁תפתח	-11.4788
▁הגדלת	-11.4789
▁צמחוני	-11.4791
▁עבריין	-11.4793
▁במעלה	-11.4793
▁האיראנית	-11.4793
▁התכנים	-11.4796
CO	-11.4796
▁מסתדר	-11.4797
▁Bay	-11.4798
▁הסטודיו	-11.4798
▁ביטחוני	-11.4799
▁סכנין	-11.4802
▁אתגרים	-11.4804
▁ושקט	-11.4805
▁הוספת	-11.4806
▁ואשר	-11.4806
▁ההתנהגות	-11.4807
▁יציבות	-11.4807
▁עסוקים	-11.4809
▁WordPress	-11.481
מישהו	-11.481
▁הציגה	-11.4811
▁given	-11.4811
▁חולדאי	-11.4813
▁idea	-11.4818
▁ולהת	-11.4822
▁ערכה	-11.4823
▁Green	-11.4825
▁קסומה	-11.4826
▁לחסל	-11.4829
▁באמונה	-11.4829
89	-11.483
מגן	-11.4831
▁התיאטרון	-11.4833
▁בלאט	-11.4834
▁57	-11.4835
▁single	-11.4835
▁תקראו	-11.4838
year	-11.4839
▁צולם	-11.4842
▁התאריכים	-11.4844
▁IT	-11.4846
▁שמשהו	-11.4846
▁ושוער	-11.4847
▁אינטרס	-11.4847
▁oil	-11.4848
▁לצפון	-11.4851
▁במלאי	-11.4851
▁באושר	-11.4851
▁נתקלתי	-11.4852
▁חילוץ	-11.4853
▁ולך	-11.4855
אגב	-11.4859
▁told	-11.4861
▁מאמא	-11.4862
▁היוקרתי	-11.4863
▁שבאו	-11.4864
La	-11.4864
▁בחרנו	-11.4866
▁הטיפולים	-11.4868
▁גרשון	-11.4868
▁באיחור	-11.4869
▁לחלום	-11.4869
▁אינטל	-11.4872
▁במקרר	-11.4874
▁אזרחות	-11.4876
▁לשרוד	-11.4876
▁שנפצע	-11.4876
▁מוגבלויות	-11.4877
▁Some	-11.488
▁שחי	-11.4881
▁Palace	-11.4883
▁עדויות	-11.4884
▁מטומטמים	-11.4885
▁הוועד	-11.4885
▁יעלון	-11.4885
▁ריפוי	-11.4886
▁מהציבור	-11.4887
▁בתיאום	-11.4887
▁שחייה	-11.4887
▁רצים	-11.4888
▁מעמ	-11.489
▁energy	-11.4892
▁דיוויד	-11.4893
▁אהרוני	-11.4894
▁הקבינט	-11.4894
▁לכניסה	-11.4895
▁חוויית	-11.4895
▁המודיעין	-11.4896
▁ומחר	-11.4897
▁מפעיל	-11.4899
▁הורידו	-11.4899
▁פנתה	-11.4899
▁recent	-11.4899
▁אשמה	-11.49
▁management	-11.49
▁לפגישה	-11.4902
▁קהילתי	-11.4902
▁פיתרון	-11.4903
▁בכי	-11.4903
-45	-11.4904
▁מנצחת	-11.4905
▁לרצוח	-11.4907
▁עיקר	-11.4909
▁לדמיין	-11.4909
▁עודף	-11.4909
▁בספק	-11.491
▁אריזה	-11.491
▁לשדרג	-11.4912
▁מסכנה	-11.4912
▁החוג	-11.4913
85	-11.4913
▁להודעה	-11.4914
▁דגמי	-11.4915
▁areas	-11.4916
▁להתייעץ	-11.4916
-28	-11.4916
▁המקבילה	-11.4919
▁דיאטה	-11.4921
▁אוהבי	-11.4923
▁יורדת	-11.4924
▁האות	-11.4925
▁תבין	-11.4926
▁שותפה	-11.4926
▁חסידי	-11.4926
▁אלהרר	-11.4929
▁חופשת	-11.493
▁סימנים	-11.4931
▁האנושות	-11.4931
▁הפסח	-11.4932
▁בימין	-11.4933
▁ביל	-11.4934
ידה	-11.4934
so	-11.4937
▁הצער	-11.4937
▁קריאות	-11.4938
▁הגבלה	-11.4939
▁נעל	-11.494
▁ותיקים	-11.4941
▁ענו	-11.4941
-300	-11.4943
בס	-11.4943
▁Liron	-11.4944
▁ההתנהלות	-11.4946
▁ויכוח	-11.4946
▁field	-11.4946
▁הפרת	-11.4947
fe	-11.4947
▁ששמעתי	-11.4949
פן	-11.495
▁מאזדה	-11.495
▁וחיים	-11.495
▁הפשע	-11.495
▁מילא	-11.495
▁להפיק	-11.4951
▁שהחברה	-11.4952
▁תחל	-11.4953
▁הע	-11.4954
▁שעובדים	-11.4956
In	-11.4956
▁הנדרש	-11.4957
▁Raz	-11.4957
▁מחסור	-11.4959
▁בלייק	-11.4959
▁ונוחות	-11.496
אילן	-11.4962
▁לכלב	-11.4963
ספורט	-11.4964
וכל	-11.4964
▁יעברו	-11.4966
>.1	-11.4966
▁העומד	-11.4967
▁פרקים	-11.4967
▁התאחדות	-11.4968
▁תעודה	-11.4969
▁לפתרון	-11.497
▁וילות	-11.497
▁ובטחון	-11.4973
▁מאכלי	-11.4973
▁מהחברה	-11.4973
ללת	-11.4974
▁בפוליטיקה	-11.4974
▁Western	-11.4975
▁שנפגע	-11.4977
▁95	-11.4977
▁מתרגש	-11.4978
▁מזונות	-11.498
▁טופ	-11.4981
▁ארט	-11.4982
▁קרס	-11.4983
זי	-11.4983
▁תלמד	-11.4984
▁רחוקים	-11.4985
·	-11.4985
▁God	-11.4985
▁II	-11.4987
▁האייפון	-11.4987
400	-11.4988
▁המינוי	-11.4988
▁המציעה	-11.499
במשך	-11.4994
▁בפייס	-11.4994
▁במוח	-11.4995
▁נתתי	-11.4997
▁ותי	-11.4998
▁זעם	-11.4998
▁לעצמנו	-11.4999
▁שביתה	-11.5
▁הנחת	-11.5002
▁לבניין	-11.5004
▁מוכיח	-11.5006
▁לגשת	-11.5008
▁חזקות	-11.5009
▁לפרוץ	-11.501
▁שותפות	-11.5011
▁ענן	-11.5011
▁הצגות	-11.5012
▁לר	-11.5015
▁מניחים	-11.5016
▁ראשונות	-11.5016
pm	-11.5016
▁משקפי	-11.5019
▁העולה	-11.5019
▁קק	-11.5019
▁Mo	-11.502
▁study	-11.5021
גפן	-11.5022
▁זורם	-11.5025
בנוסף	-11.5025
▁הסופי	-11.5025
▁להרשם	-11.5025
▁חלבון	-11.5028
▁שאמרת	-11.503
▁האתרים	-11.5031
▁עש	-11.5034
▁המתיחות	-11.5034
▁החילוץ	-11.5034
▁רצתה	-11.5034
▁סכסוך	-11.5035
▁ולהבין	-11.5036
▁בעסק	-11.5037
▁הסורי	-11.5037
▁הנערים	-11.5037
73	-11.5037
▁שעליו	-11.5037
▁Mi	-11.5037
▁סייבר	-11.5039
ek	-11.5041
מית	-11.5046
▁נשית	-11.5046
▁bring	-11.5049
רום	-11.505
▁הגישו	-11.5051
▁למיטה	-11.5052
▁לתגובות	-11.5052
▁5%	-11.5053
▁טלויזיה	-11.5054
▁כרמי	-11.5055
▁הגיבו	-11.5057
▁software	-11.5057
▁מחזיקים	-11.5057
▁הישוב	-11.5058
▁נדרשים	-11.5059
▁משקפיים	-11.5059
▁picture	-11.506
▁ייחודיים	-11.5062
▁ברכת	-11.5063
▁תקרא	-11.5063
▁קריטי	-11.5064
▁יחימוביץ	-11.5067
▁חמורים	-11.5071
▁הודות	-11.5071
▁המגמה	-11.5072
▁נשוי	-11.5073
▁משגע	-11.5073
ועדת	-11.5073
▁עשיתם	-11.5074
▁שבטוח	-11.5074
▁שנתן	-11.5076
▁מלה	-11.5076
▁לתכנן	-11.5077
▁ביצועים	-11.5077
▁עקבו	-11.5078
69	-11.5078
▁התחום	-11.5079
מערכת	-11.5079
68	-11.5079
▁הפגנת	-11.508
▁enjoy	-11.508
▁מצטערת	-11.5081
▁Please	-11.5083
▁תוהה	-11.5084
▁מחזק	-11.5085
▁gt	-11.5085
▁בשמאל	-11.5086
▁הוותיק	-11.5086
▁האמנים	-11.5087
▁קורן	-11.5089
▁אחורי	-11.509
▁ובגדול	-11.5091
▁כהנא	-11.5092
לין	-11.5093
▁המאפשרת	-11.5094
▁רצף	-11.5096
ליד	-11.5097
רמן	-11.5102
ive	-11.5104
▁העמדה	-11.5104
▁שפות	-11.5106
▁לסניף	-11.5108
▁הנס	-11.5109
▁example	-11.511
▁חקירות	-11.511
▁הנאצים	-11.511
▁צפויות	-11.5111
▁תזכורת	-11.5112
▁לתינוקות	-11.5112
▁טסה	-11.5113
▁רפואיים	-11.5113
▁fact	-11.5113
אשר	-11.5113
▁ריקה	-11.5114
▁נערות	-11.5115
▁מגמה	-11.5116
▁ידענו	-11.5116
▁VIP	-11.5117
▁בתיה	-11.5117
▁report	-11.5123
▁באנו	-11.5126
▁המספרים	-11.5127
03	-11.5127
▁בעור	-11.5128
▁עיצובים	-11.5129
▁במכשיר	-11.513
▁הרחוק	-11.5133
▁beautiful	-11.5133
▁מכניסים	-11.5134
▁יה	-11.5135
▁מילצ	-11.5135
.*	-11.5138
▁יפרח	-11.5138
▁קינוחים	-11.5139
▁הנקודה	-11.5141
▁anything	-11.5141
▁וקשה	-11.5142
▁לכבוש	-11.5145
▁במתמטיקה	-11.5146
▁עמדו	-11.5149
▁נוסעת	-11.5149
ate	-11.515
▁המתאימים	-11.5151
▁מהליכוד	-11.5152
▁אחכ	-11.5155
▁62	-11.5156
ak	-11.5156
▁נרצח	-11.5158
▁מחלקה	-11.5159
▁יאומן	-11.516
▁במכללה	-11.5161
▁summer	-11.5161
חם	-11.5161
▁ספציפית	-11.5164
▁איני	-11.5165
▁מלאו	-11.5165
▁ביזיון	-11.5165
▁פון	-11.5165
▁מקוריים	-11.5166
▁pre	-11.5166
▁וציוד	-11.5167
▁Just	-11.5168
▁הכלה	-11.5168
ננו	-11.5169
▁contact	-11.517
▁אדומה	-11.517
▁טחינה	-11.5171
▁גלם	-11.5171
▁העניק	-11.5172
▁שקוראים	-11.5175
▁הדוא	-11.5175
▁טיולי	-11.5177
▁למתאימים	-11.5178
▁השישי	-11.5178
▁בכתובת	-11.5179
▁שאדם	-11.5179
אב	-11.5181
▁בסן	-11.5182
▁מוגזם	-11.5183
▁מצאה	-11.5183
▁קינוח	-11.5183
▁במילוי	-11.5185
▁אשרייך	-11.5185
segal	-11.5185
▁71	-11.5186
▁לוק	-11.5189
▁סטטוס	-11.5192
▁further	-11.5192
▁בערים	-11.5192
▁מתקשה	-11.5194
▁תחנה	-11.5194
▁גלאון	-11.5195
▁ומצד	-11.5195
▁הדוח	-11.5196
▁בשאר	-11.5197
▁coming	-11.5197
ff	-11.5197
▁מהפכה	-11.5198
▁understand	-11.5199
▁משעשע	-11.52
▁וכדי	-11.52
▁להרגיע	-11.5202
▁יתנו	-11.5202
▁יעילה	-11.5204
▁טוהר	-11.5204
▁לתחרות	-11.5205
▁אטרקטיבי	-11.5205
▁הריח	-11.5206
▁Gil	-11.5207
▁תהילה	-11.5207
▁בלונים	-11.5209
sher	-11.5209
▁מתבקש	-11.521
▁המערב	-11.521
▁הופעת	-11.521
▁שתזכו	-11.5211
▁הוקרה	-11.5211
▁תורים	-11.5212
▁ציפורניים	-11.5212
▁ברצועה	-11.5212
▁המחפשים	-11.5213
▁יצרנית	-11.5214
▁lead	-11.5218
▁שהחל	-11.5218
▁להתפנק	-11.5218
▁ונכון	-11.5223
▁בוחרת	-11.5226
▁מיניות	-11.5226
▁FOB	-11.5226
▁רונאלדו	-11.5229
▁ירח	-11.523
בנות	-11.5233
▁מלוא	-11.5234
▁נובל	-11.5234
▁רווחה	-11.5236
▁המגורים	-11.5238
▁ציפיות	-11.5239
▁לעיין	-11.524
▁טובבבב	-11.5241
▁לאלתר	-11.5243
לם	-11.5243
▁שמנסה	-11.5247
▁בכוחות	-11.5247
▁והגנים	-11.5248
▁בשאלה	-11.5248
▁הפיקוח	-11.5248
רגע	-11.525
▁פרנק	-11.5251
▁המתח	-11.5252
▁April	-11.5253
▁הנוחות	-11.5253
▁החטיבה	-11.5256
ana	-11.5256
▁שנותן	-11.5256
▁בנצרת	-11.5257
▁שכנראה	-11.5257
▁ובמקביל	-11.5258
bo	-11.5259
▁אכזבה	-11.526
▁מגיבים	-11.5261
▁לגבות	-11.5262
▁בגב	-11.5262
ןןןן	-11.5262
▁points	-11.5263
▁לשמירה	-11.5264
▁מיתוג	-11.5265
▁מעוצבות	-11.5265
▁בתאבון	-11.5265
▁מתנדבי	-11.5265
▁ליבה	-11.5266
▁אראל	-11.5267
▁פינטו	-11.5267
▁ירושלמי	-11.5268
▁מורי	-11.5269
▁yes	-11.5271
▁שכבות	-11.5272
▁חכמת	-11.5272
▁לתפארת	-11.5273
▁באישור	-11.5274
▁כמ	-11.5276
▁מטריד	-11.5276
▁שיו	-11.5278
▁תומכי	-11.5279
▁Grand	-11.5279
▁אנ	-11.5281
▁שעשינו	-11.5281
▁תפיסת	-11.5282
▁בירת	-11.5286
▁excited	-11.5286
ייר	-11.5287
▁הטעות	-11.5287
חברת	-11.5287
▁מסייע	-11.5288
▁יצרו	-11.5289
▁פוליטיקאים	-11.529
▁הפריטים	-11.5291
▁וירקות	-11.5292
▁האף	-11.5293
▁השקל	-11.5294
▁שבדרך	-11.5294
▁לשיער	-11.5295
▁לוחות	-11.5295
▁לטעמי	-11.5296
▁ובטוח	-11.5296
▁לאהבה	-11.5297
▁שיוכלו	-11.5299
▁האמון	-11.5299
▁לשיעור	-11.5302
▁קליל	-11.5303
▁בזהירות	-11.5303
יון	-11.5304
▁טיעון	-11.5305
ot	-11.5306
▁בתיאטרון	-11.5306
▁חופי	-11.5307
);	-11.5308
▁Here	-11.5311
▁קליק	-11.5311
▁במדור	-11.5312
▁שלילית	-11.5313
▁באזורים	-11.5315
dana	-11.5319
▁נהדרות	-11.532
▁מכורה	-11.5321
▁ידיד	-11.5321
▁סגנית	-11.5322
▁מלול	-11.5322
▁הגרמני	-11.5323
▁חסרה	-11.5323
▁דיבורים	-11.5325
▁אוטומט	-11.5326
▁המרחב	-11.5328
▁כסא	-11.5328
▁הנאום	-11.5328
▁בדחיפות	-11.5329
▁לשפוט	-11.5332
▁מכ	-11.5333
▁קודמות	-11.5335
▁בירך	-11.5335
▁בינוי	-11.5335
▁המבוקש	-11.5337
▁בגילאי	-11.5338
און	-11.5338
▁ואמרו	-11.5339
▁מברך	-11.5339
▁צרכנות	-11.5341
▁שקדים	-11.5342
▁שמרו	-11.5344
old	-11.5345
▁האבות	-11.5346
▁באם	-11.5347
▁תתחילו	-11.5347
▁לשאר	-11.5347
▁ושיתוף	-11.5349
▁personal	-11.535
▁☎	-11.5352
▁לילי	-11.5353
▁הרפואית	-11.5355
▁רובינשטיין	-11.5356
▁נוהגים	-11.5357
▁שתו	-11.5359
▁רשיון	-11.536
▁קרמיקה	-11.5361
▁כשמדובר	-11.5362
כות	-11.5363
▁:*	-11.5363
מק	-11.5364
▁רכבי	-11.5366
▁אכילה	-11.5367
▁created	-11.5367
▁ופרטים	-11.5367
▁הרוסית	-11.5368
▁לבדיקת	-11.537
▁לפוליטיקה	-11.537
▁הצהובים	-11.5371
▁לשמר	-11.5374
07	-11.5374
▁אחימאיר	-11.5375
▁נכשל	-11.5379
▁סהכ	-11.5382
▁הצרפתית	-11.5385
▁הרגיש	-11.5387
▁שצריכים	-11.5388
▁אמצע	-11.5388
▁צמרת	-11.5389
▁אלך	-11.5389
▁איתור	-11.539
▁למטרות	-11.5391
▁360	-11.5392
44	-11.5393
לר	-11.5393
▁נראות	-11.5397
▁לנגן	-11.5398
▁שמעתם	-11.54
▁בימינו	-11.54
▁איטי	-11.54
▁רוצח	-11.54
▁לתקנון	-11.5401
▁שגורם	-11.5402
▁יותם	-11.5402
▁חינוכית	-11.5403
▁האביב	-11.5405
▁לקול	-11.5407
▁נאלצו	-11.5409
▁שנועד	-11.5409
▁משימות	-11.541
קוב	-11.541
▁נהנתי	-11.541
▁באתרים	-11.5411
▁שמס	-11.5411
▁בהגשת	-11.5412
▁קץ	-11.5412
▁נקבל	-11.5415
מני	-11.5415
▁בכדורסל	-11.5415
▁השמן	-11.5416
▁מנור	-11.5417
▁לשנים	-11.5417
▁hope	-11.5418
▁הפארק	-11.5418
▁Dahan	-11.5419
▁קואליציה	-11.5421
▁האליפות	-11.5422
▁הנמצא	-11.5422
▁4.5	-11.5423
one	-11.5424
▁כבית	-11.5426
98	-11.5427
▁האויר	-11.5427
▁הב	-11.5428
▁Mizrahi	-11.5429
▁מימד	-11.543
▁לשקר	-11.543
▁להגנה	-11.5432
▁שחקנית	-11.5433
▁בערבית	-11.5435
▁complete	-11.5436
▁שור	-11.5437
▁מוכנות	-11.5437
▁גדלים	-11.5437
▁לתנאי	-11.5438
▁אסיה	-11.5438
מציע	-11.544
▁art	-11.5441
▁אסולין	-11.5443
▁נדרשת	-11.5445
▁הבשורה	-11.5445
▁whole	-11.5446
▁תקינה	-11.5448
▁אתיופים	-11.5448
▁נצ	-11.5448
04	-11.5448
▁עט	-11.5448
▁השמות	-11.5449
▁התחדשות	-11.545
▁נגישה	-11.5451
▁bar	-11.5452
▁עפר	-11.5453
▁2005	-11.5453
▁קוטלר	-11.5454
דירה	-11.5455
▁שעלול	-11.5456
▁פריצה	-11.5457
▁מאכלים	-11.5457
▁גומי	-11.5457
פל	-11.5458
▁הישנה	-11.5459
▁מאוחדת	-11.5459
▁כשבוע	-11.546
103	-11.546
▁ניתנת	-11.546
▁רס	-11.5461
▁הסוכר	-11.5462
gal	-11.5463
▁מאתר	-11.5463
▁טר	-11.5467
צוות	-11.5467
▁בעוצמה	-11.5468
64	-11.5468
▁מינה	-11.5469
▁ביהמ	-11.5469
po	-11.5469
▁רישוי	-11.5471
▁ירין	-11.5472
▁דומות	-11.5472
▁ונגד	-11.5475
▁הרה	-11.5475
יתי	-11.5477
▁DJ	-11.5478
▁דותן	-11.5478
▁ענקי	-11.5479
▁פרימיום	-11.5479
עיר	-11.5484
▁השוואה	-11.5485
▁הגידול	-11.5485
▁לייצג	-11.5485
▁כולי	-11.5487
▁נפלו	-11.5487
טות	-11.5487
▁issue	-11.5488
▁role	-11.5489
לפחות	-11.5492
▁half	-11.5493
▁לעשן	-11.5494
▁ולשמור	-11.5494
▁מכסה	-11.5495
▁מחשש	-11.5496
▁likely	-11.5502
▁התחומים	-11.5503
▁מילות	-11.5503
▁שכח	-11.5504
▁לנשק	-11.5504
▁דורות	-11.5507
▁בחיפוש	-11.5507
▁עמיד	-11.5507
▁סלמון	-11.5507
▁נגה	-11.5509
▁הרשתות	-11.5509
ויש	-11.551
▁המתנדבים	-11.5511
▁Biton	-11.5513
▁העניינים	-11.5515
6<	-11.5516
▁בקרת	-11.5516
72	-11.5518
לנו	-11.5519
▁result	-11.5521
▁משדר	-11.5521
▁לשירותים	-11.5521
▁כיבוש	-11.5522
▁יזם	-11.5523
עוגת	-11.5525
▁Hi	-11.5526
▁quite	-11.5529
▁בביה	-11.553
=6	-11.5531
▁והשני	-11.5532
▁אהובות	-11.5537
tz	-11.5537
▁סוני	-11.5537
ance	-11.5537
▁בדמות	-11.5537
▁חושש	-11.5538
▁לכלי	-11.554
▁גמליאל	-11.5541
▁התמ	-11.5541
לט	-11.5544
ho	-11.5545
av	-11.5546
▁ספי	-11.5546
▁אקדמי	-11.5549
▁קודמים	-11.5551
▁במשמרות	-11.5553
▁יצירתי	-11.5555
49	-11.5556
▁כעס	-11.5557
▁המוסלמים	-11.5558
▁heart	-11.5558
וקים	-11.5558
▁לאירופה	-11.5561
▁התל	-11.5561
▁פיננסי	-11.5563
▁מעוצבת	-11.5565
▁ליישם	-11.5565
▁security	-11.5566
▁Peretz	-11.5567
▁חוקיים	-11.5568
▁Cafe	-11.5568
▁המזרחי	-11.5568
▁תנסי	-11.5571
▁תקפו	-11.5571
▁האסון	-11.5572
▁buy	-11.5572
▁עסקיות	-11.5573
▁Tom	-11.5573
▁למשתכן	-11.5573
מש	-11.5576
תא	-11.5577
▁למגזר	-11.5578
▁הדגים	-11.5578
ביבי	-11.5581
▁במבחן	-11.5582
▁הגנים	-11.5582
▁כשהייתי	-11.5584
▁היישר	-11.5584
אופציה	-11.5584
▁באנגליה	-11.5585
▁מעניקים	-11.5586
▁לקרב	-11.5586
▁ולקרוא	-11.5586
▁הירוקים	-11.5587
▁קשישים	-11.5589
▁מעתה	-11.5592
IT	-11.5592
▁בעכו	-11.5592
▁דרש	-11.5595
▁From	-11.5595
▁וידידותי	-11.5597
▁מתנגדים	-11.5598
▁מאלה	-11.56
▁סוכני	-11.5602
▁רביד	-11.5603
▁שיזוף	-11.5603
▁ברובע	-11.5604
▁השקה	-11.5604
▁מגש	-11.5606
▁בנתיים	-11.5606
▁unique	-11.5609
▁אקדח	-11.5609
▁מיעוט	-11.5609
▁היטלר	-11.5611
▁בוול	-11.5611
▁אספקה	-11.5611
▁במצעד	-11.5611
▁קציצות	-11.5614
▁ברצף	-11.5616
▁ביניים	-11.5617
yarivop	-11.5618
▁בוסקילה	-11.5618
▁שובל	-11.5618
▁נשי	-11.5621
היי	-11.5621
▁קונג	-11.5622
▁מעבדה	-11.5622
▁וכד	-11.5622
משטרת	-11.5622
▁3000	-11.5622
▁מדבקות	-11.5625
▁במדי	-11.5626
▁והוסיף	-11.5626
▁offers	-11.5627
▁הרגעים	-11.5629
▁וע	-11.5629
▁young	-11.5631
▁הפרחים	-11.5631
▁Da	-11.5632
▁תימן	-11.5632
▁מצוי	-11.5633
▁השיתוף	-11.5633
▁יזמות	-11.5635
▁יצטרכו	-11.5636
עניין	-11.5637
▁מופיעה	-11.5637
▁לשלטון	-11.5637
▁אורגני	-11.5638
אלא	-11.5641
▁בובות	-11.5642
▁שמירת	-11.5643
המשך	-11.5644
eli	-11.5646
▁לראיון	-11.5648
▁טהור	-11.5648
▁בראשו	-11.565
▁choose	-11.5653
arutz	-11.5653
org	-11.5653
▁ימינה	-11.5655
▁מות	-11.5657
▁למימוש	-11.5658
▁תשמע	-11.5659
-27	-11.5659
▁2021	-11.566
▁ובהתאם	-11.5661
▁בספרד	-11.5662
▁מאיזה	-11.5663
▁סבג	-11.5663
▁עצי	-11.5665
▁ואלו	-11.5665
▁Noy	-11.5666
▁מתנהל	-11.5667
▁נשאל	-11.5668
▁Windows	-11.5668
▁המדבר	-11.5668
▁הוסף	-11.5669
▁המטבע	-11.5673
▁ההוצאות	-11.5674
▁גופו	-11.5677
▁בולט	-11.5678
▁בהוד	-11.5678
מאוד	-11.5679
▁continue	-11.5682
▁ינאי	-11.5682
▁מעניינות	-11.5682
▁אהרן	-11.5683
-26	-11.5683
▁YNET	-11.5683
56	-11.5684
▁לבעיות	-11.5686
▁ההתנגדות	-11.5686
▁החתיך	-11.5687
▁אהבנו	-11.5687
▁דנון	-11.5687
▁המנהלת	-11.5689
▁היל	-11.5689
▁השוער	-11.5689
▁major	-11.5689
▁הפקולטה	-11.569
▁International	-11.569
▁בקרו	-11.5693
▁מקומם	-11.5693
▁המצלמות	-11.5694
▁הפרטיות	-11.5694
▁שנוצר	-11.5694
▁חסרים	-11.5695
▁החופשה	-11.5696
007	-11.5697
▁רומא	-11.5699
▁באירועים	-11.5701
▁משמעית	-11.5701
▁התוכניות	-11.5703
▁אוסטרליה	-11.5704
משרד	-11.5704
▁Maayan	-11.5705
פתי	-11.5706
▁ניסתה	-11.5707
▁השחקנית	-11.5709
▁ישראליים	-11.5711
▁להבדיל	-11.5711
ריס	-11.5714
#<	-11.5714
▁רגועה	-11.5714
▁והדביקו	-11.5716
▁לשחרור	-11.5717
▁זרה	-11.5717
▁ונוער	-11.5718
-29	-11.5719
▁המתאימה	-11.5719
▁חבריי	-11.5721
▁להתחדש	-11.5722
▁ניווט	-11.5722
▁Yossi	-11.5722
▁תנועות	-11.5722
▁test	-11.5723
▁הועברו	-11.5724
▁לפרטי	-11.5725
▁מדווחת	-11.5725
▁המנוע	-11.5726
▁בגצ	-11.5727
▁לפסול	-11.5727
▁ואחסון	-11.5728
▁דיגיטלית	-11.5728
▁הצל	-11.5729
▁נמכרה	-11.5729
▁אנגליה	-11.5729
וידאו	-11.573
▁Ariel	-11.5732
▁needed	-11.5735
▁להשתחרר	-11.5735
▁מפרט	-11.5736
▁עוזרים	-11.5736
▁mind	-11.5736
▁האמריקאים	-11.5737
▁דימונה	-11.5738
▁לקחה	-11.5738
▁עמותה	-11.5738
▁events	-11.5739
▁ששי	-11.5739
▁בכירה	-11.574
▁בשיטה	-11.5742
▁בנשים	-11.5743
▁להציב	-11.5744
▁פורסמה	-11.5744
משפחה	-11.5744
▁זהר	-11.5747
▁הבכירים	-11.5747
2<	-11.575
▁הקליטה	-11.5751
▁yourself	-11.5752
לסי	-11.5753
▁מחווה	-11.5753
▁שהוביל	-11.5753
▁לצעוק	-11.5753
▁שאתן	-11.5753
▁שמעת	-11.5754
כמעט	-11.5756
▁וברור	-11.5757
▁מלכתחילה	-11.5762
▁התשתיות	-11.5764
▁לחסום	-11.5764
ינסקי	-11.5765
▁המר	-11.5765
▁הכנרת	-11.5766
▁השומרון	-11.5766
▁התותח	-11.5767
▁שירלי	-11.5767
▁final	-11.5768
▁מגמת	-11.5768
(:	-11.5769
▁אימה	-11.577
▁מיה	-11.577
▁המכתב	-11.5771
אלו	-11.5771
▁web	-11.5771
▁מפורט	-11.5771
▁כראוי	-11.5771
▁האקדמי	-11.5772
▁לסיור	-11.5774
▁קטגוריות	-11.5774
▁ההיא	-11.5775
▁שעכשיו	-11.5775
פרס	-11.5775
▁שאחד	-11.5778
▁הררי	-11.5778
▁הנבחרים	-11.5781
▁מתגאה	-11.5781
▁שיבא	-11.5781
96	-11.5782
▁להתנהג	-11.5783
▁החולצה	-11.5783
▁באוכל	-11.5783
Ha	-11.5785
▁באמא	-11.5786
▁לצומת	-11.5786
▁רפואיות	-11.5788
▁סלומון	-11.5789
▁העשייה	-11.579
▁פרג	-11.579
▁מאותו	-11.5794
▁לחוויה	-11.5794
▁נקייה	-11.5795
▁ליפול	-11.5796
ee	-11.5796
▁especially	-11.5798
▁increase	-11.5798
▁שוקו	-11.5801
▁החשיפה	-11.5802
▁גבינת	-11.5802
▁ושלום	-11.5803
▁לדבריה	-11.5808
▁בעשור	-11.5808
▁מצוינים	-11.5808
גת	-11.581
סקו	-11.5812
ירי	-11.5813
▁לשגרה	-11.5813
▁נהניתי	-11.5813
▁strong	-11.5814
▁לגובה	-11.5815
▁משקיע	-11.5815
▁לאיראן	-11.5817
▁מיכה	-11.5818
▁pro	-11.5818
▁יורדים	-11.5819
▁ההטבה	-11.582
▁ספציפי	-11.5821
▁גאולה	-11.5822
▁פנחס	-11.5823
▁במוצאי	-11.5824
▁יונית	-11.5824
▁שאמא	-11.5828
▁האמנות	-11.5828
▁חוצפה	-11.5828
▁לבדיקה	-11.5829
▁ההפך	-11.583
▁הדלקת	-11.583
▁מצאת	-11.5835
▁במירון	-11.5835
▁וכאשר	-11.5836
▁משלוחי	-11.5836
▁צוחק	-11.5836
▁קשוב	-11.5837
▁הכיתה	-11.5838
כנראה	-11.5839
▁רכה	-11.5842
▁החירום	-11.5844
▁מצרפת	-11.5844
off	-11.5846
▁המצווה	-11.585
▁ילדינו	-11.585
▁התחלת	-11.585
▁checked	-11.5853
▁ואווירה	-11.5853
▁העלות	-11.5854
▁העיתונות	-11.5855
Re	-11.5856
▁ואלי	-11.5856
▁בלבנון	-11.5857
▁שבח	-11.5859
▁צמחים	-11.5859
מד	-11.5862
▁הט	-11.5862
800	-11.5863
▁נלחם	-11.5863
▁שנמצאת	-11.5863
▁התמחות	-11.5864
▁ומנכ	-11.5865
▁נקנה	-11.5865
▁במזל	-11.5865
▁הפעולות	-11.5866
▁בקצה	-11.5869
▁גואטה	-11.587
▁שערך	-11.5871
▁קונספט	-11.5874
▁שהדבר	-11.5874
▁isn	-11.5874
▁view	-11.5874
ham	-11.5876
GLZRadio	-11.5878
▁מגובה	-11.588
▁כתובות	-11.588
▁לנכים	-11.5883
▁קיש	-11.5883
▁Zohar	-11.5884
▁ידיעה	-11.5884
▁מכניס	-11.5885
▁לציפורניים	-11.5885
▁פגשתי	-11.5886
▁שעשית	-11.5886
▁בוגד	-11.5887
▁האכיפה	-11.5889
▁למנכ	-11.5889
▁חשפה	-11.5889
▁גמל	-11.5889
▁באיחוד	-11.5889
▁זכרה	-11.589
▁76	-11.589
ווי	-11.589
▁רכז	-11.5892
▁הקווים	-11.5893
וול	-11.5894
▁לאיתור	-11.5895
▁הקורונה	-11.5899
▁הטרדה	-11.5899
▁מעודכן	-11.59
▁לגנוב	-11.5901
▁הרגת	-11.5901
▁מודים	-11.5902
123	-11.5903
▁הוציאו	-11.5904
▁שתת	-11.5904
▁במלואה	-11.5904
▁הלם	-11.5905
nd	-11.5906
▁נזכר	-11.5907
▁מאכזב	-11.5908
טלפון	-11.5908
▁מפתיעה	-11.591
??????	-11.591
בתי	-11.5911
▁קלאסית	-11.5911
רכב	-11.5911
▁יישום	-11.5911
ting	-11.5912
▁חלבי	-11.5913
▁אחיד	-11.5914
▁לתאם	-11.5915
▁Ya	-11.5916
שנים	-11.5918
▁הרבנית	-11.5919
▁דלקת	-11.5919
▁הכס	-11.592
▁השלמת	-11.592
▁נוסח	-11.5922
▁whether	-11.5924
▁property	-11.5924
ירושלים	-11.5924
▁שאינן	-11.5924
38	-11.5925
▁לאיבוד	-11.5926
▁ושתי	-11.5926
▁המנהלים	-11.5926
▁לסרטון	-11.5927
▁צפה	-11.5927
▁וקבלת	-11.5927
▁גיבוי	-11.5927
▁שורות	-11.593
▁למחנה	-11.5931
▁אתיופי	-11.5933
▁סבור	-11.5933
▁מנוסה	-11.5933
▁נה	-11.5934
▁John	-11.5936
▁דיזל	-11.5936
▁טירוף	-11.5937
▁הנעליים	-11.5938
▁וביום	-11.5939
▁שכטר	-11.594
▁שיתופים	-11.5941
▁מקדם	-11.5941
▁בעיראק	-11.5941
▁הכתיבה	-11.5944
No	-11.5945
▁learning	-11.5946
מגיע	-11.5948
▁production	-11.5949
▁בגבעתיים	-11.5949
▁מבטיחים	-11.5951
מח	-11.5954
▁נכות	-11.5954
▁‪	-11.5954
▁דואגת	-11.5955
▁יבואו	-11.5957
▁מצחיקים	-11.5958
▁בנסיעה	-11.5958
▁בשמי	-11.5958
▁ומחיר	-11.5959
קום	-11.596
▁הסייבר	-11.5963
▁לכסף	-11.5963
▁הפרדה	-11.5965
▁דיג	-11.5965
▁הובילה	-11.5965
הפועל	-11.5965
ניסיון	-11.5966
▁הבינה	-11.5967
ach	-11.5967
▁אנטישמיות	-11.5967
נדר	-11.5968
▁חגג	-11.597
▁required	-11.5972
▁חינוכי	-11.5973
▁מעוררת	-11.5974
▁ההסתה	-11.5975
▁במכירות	-11.5976
▁הסוכנות	-11.5976
▁לשעות	-11.5979
▁Group	-11.5981
▁Lee	-11.5982
▁כפרי	-11.5983
▁הרכבות	-11.5984
▁המכשירים	-11.5984
▁היכולות	-11.5984
▁אפקט	-11.5985
▁שוהם	-11.5985
באר	-11.5985
▁תופים	-11.5989
▁מעונן	-11.5989
▁Gallery	-11.599
▁לרציניים	-11.5991
▁לניקוי	-11.5994
▁יעבוד	-11.5998
▁digital	-11.5998
▁החזרה	-11.5999
▁תמצית	-11.6001
▁שקיות	-11.6002
▁לגרש	-11.6002
▁professional	-11.6002
▁ונהנים	-11.6003
▁במשטרת	-11.6003
▁עונים	-11.6003
אא	-11.6004
▁ממתי	-11.6006
▁ספה	-11.6007
▁הקב	-11.6007
▁אברמוביץ	-11.601
▁couple	-11.6011
▁פרש	-11.6011
▁style	-11.6012
▁אותנטי	-11.6013
95	-11.6014
אנא	-11.6015
▁ניפלא	-11.6015
▁Ar	-11.6015
▁משיק	-11.6015
▁פיצויים	-11.6015
▁מופיעים	-11.6017
▁בתערוכת	-11.602
▁באגף	-11.6021
▁2001	-11.6023
▁יעילות	-11.6024
▁שושנה	-11.6025
▁ומהיר	-11.6025
▁ראשונית	-11.6027
▁הותר	-11.6027
▁הבל	-11.6028
▁האפשר	-11.6028
ki	-11.6029
▁אחריי	-11.6029
▁לרשימה	-11.6029
▁זכינו	-11.603
▁תקפה	-11.6031
=4	-11.6033
▁סויסה	-11.6034
▁הניהול	-11.6038
▁מכת	-11.6038
▁ברזיל	-11.604
▁שיאפשר	-11.604
▁מבתי	-11.604
▁חיצונית	-11.6041
▁קיצוניים	-11.6041
▁בקפה	-11.6043
▁הקונגרס	-11.6044
▁האחראי	-11.6044
▁משמח	-11.6045
▁האגף	-11.6045
▁ירצה	-11.6045
▁וחלילה	-11.6046
▁חזית	-11.6046
▁מחליט	-11.6047
▁Hall	-11.6048
▁meet	-11.6049
op	-11.605
כיה	-11.605
רב	-11.6053
▁ערכו	-11.6053
מאחלת	-11.6054
▁לשרוף	-11.6056
▁English	-11.6057
▁תערובת	-11.6057
▁השגרירות	-11.6057
▁סיכם	-11.6057
▁חחחחחחחחחחחחחח	-11.6061
▁מרב	-11.6061
מע	-11.6064
▁יפיפיה	-11.6065
▁מסתמן	-11.6065
▁עולמית	-11.6065
▁קילומטרים	-11.6066
▁הוריו	-11.6066
▁שככל	-11.6066
▁מחצי	-11.6068
▁taken	-11.6068
▁אזורים	-11.6069
uk	-11.6069
▁גבות	-11.6069
▁Shiran	-11.607
יף	-11.607
▁לעכשיו	-11.6071
yairlapid	-11.6071
▁תצטרך	-11.6072
▁גולדשטיין	-11.6072
▁תלויה	-11.6073
▁דמיון	-11.6073
ייייייי	-11.6074
▁UK	-11.6074
▁עזריה	-11.6074
Id	-11.6075
רוני	-11.6076
▁לתשומת	-11.6077
▁יסמין	-11.6077
▁מלאכותית	-11.6078
פט	-11.608
▁למר	-11.6082
▁63	-11.6082
▁בסרטן	-11.6083
▁ובניית	-11.6083
▁אושרה	-11.6084
▁בתעשייה	-11.6085
▁האמן	-11.6085
▁מרפסות	-11.6086
▁לשמוח	-11.6088
▁טיפת	-11.6089
▁נצל	-11.6089
ism	-11.609
▁מתמודד	-11.6092
Bar	-11.6094
▁הנמל	-11.6096
▁בתחת	-11.6096
▁בידור	-11.6096
▁להתמקד	-11.6097
▁המוקד	-11.6097
▁ענייני	-11.6098
▁מתפקידו	-11.6099
1000	-11.61
ארץ	-11.61
▁ההשקה	-11.6101
▁ברוכה	-11.6103
נאי	-11.6103
▁אביבי	-11.6104
▁האיראנים	-11.6105
▁above	-11.6108
ori	-11.6108
▁המשמש	-11.6109
▁אוטוטו	-11.611
▁מוסיפה	-11.611
▁איבגי	-11.611
▁מתחייב	-11.6111
▁search	-11.6111
▁הנקודות	-11.6114
▁אלונה	-11.6114
▁וריכוז	-11.6114
ter	-11.6115
רז	-11.6116
▁הרוסים	-11.6117
▁להכנה	-11.6117
▁תיהנה	-11.6118
▁מדריכים	-11.6122
▁soon	-11.6123
▁כר	-11.6125
▁דיו	-11.6125
▁הרעש	-11.6126
▁מיטת	-11.6126
▁למסיבת	-11.6127
▁חשבתם	-11.6127
▁שקראתי	-11.6127
▁משמאל	-11.6127
שמח	-11.6128
▁יפית	-11.6129
▁המכוניות	-11.6133
▁השכרה	-11.6134
▁בנ	-11.6136
▁בשלל	-11.6136
▁מוסך	-11.6138
▁נתיבי	-11.6138
דון	-11.614
▁לסיוע	-11.6141
▁ספורים	-11.6145
▁להתנצל	-11.6145
ייד	-11.6145
▁opportunity	-11.6146
לכן	-11.6147
▁איכפת	-11.6147
▁Free	-11.6148
▁office	-11.6148
▁בשבילנו	-11.6149
..)	-11.615
▁לבנק	-11.6152
71	-11.6153
▁הבאת	-11.6154
▁פומבי	-11.6154
▁מכור	-11.6154
ברג	-11.6154
▁להתעדכן	-11.6156
▁המערבית	-11.6157
▁06	-11.6157
▁almost	-11.6158
▁צרה	-11.6162
▁שהרי	-11.6162
▁בראון	-11.6163
▁נהר	-11.6164
▁Yosef	-11.6167
▁הונדה	-11.6167
▁ביכולת	-11.6167
▁believe	-11.6168
▁בקבלת	-11.6168
▁עמנואל	-11.6169
▁ארגז	-11.617
▁לסף	-11.6171
▁School	-11.6172
▁למתחם	-11.6174
▁Avraham	-11.6179
▁מרווחים	-11.6181
▁מרטין	-11.6181
▁מקו	-11.6181
▁1500	-11.6182
▁ותנאי	-11.6182
▁כשעה	-11.6183
▁בסקר	-11.6184
▁מרגיעים	-11.6184
ליין	-11.6185
▁השטויות	-11.6185
▁Ofir	-11.6186
▁האבא	-11.6186
▁בדרישה	-11.6187
▁פיטר	-11.6187
▁אמזון	-11.6188
▁התחברו	-11.619
▁החרא	-11.6191
▁עוסקים	-11.6191
▁מרציאנו	-11.6194
▁נרשם	-11.6195
▁בהדרגה	-11.6196
▁חמסה	-11.6196
▁יצירתיות	-11.6197
▁מסתננים	-11.6199
▁משלחת	-11.6201
▁לכת	-11.6201
▁תואם	-11.6202
▁תפס	-11.6203
ברור	-11.6203
▁קטי	-11.6204
▁פרשנות	-11.6207
▁לגילאי	-11.6207
בדרך	-11.6207
▁גרועים	-11.6209
▁players	-11.621
pe	-11.621
▁איים	-11.6213
▁מפגר	-11.6213
▁ההוראה	-11.6214
▁trying	-11.6215
▁באצטדיון	-11.6215
▁שנותר	-11.6216
▁ערה	-11.6216
▁לאלימות	-11.6217
▁מפכ	-11.6218
://	-11.6218
▁build	-11.6219
▁באלוהים	-11.6221
▁נזקים	-11.6222
▁הגילאים	-11.6223
▁בקטגוריה	-11.6224
▁לסיפור	-11.6224
▁כישלון	-11.6225
▁תותחים	-11.6225
mer	-11.6225
▁להוות	-11.6226
Fi	-11.6227
▁קבעו	-11.623
▁והחל	-11.623
▁שכירות	-11.6231
▁עוצרים	-11.6232
▁גזע	-11.6234
▁הגזענות	-11.6237
▁however	-11.624
▁לרעה	-11.624
▁קארי	-11.6241
59	-11.6241
▁המקסימים	-11.6242
▁questions	-11.6242
▁options	-11.6242
▁היחידים	-11.6242
▁בלילות	-11.6242
איי	-11.6244
▁חוזרות	-11.6245
▁מכוערת	-11.6246
▁שית	-11.6247
פרסום	-11.6247
▁בקיר	-11.6247
אוכל	-11.6247
▁Good	-11.6248
▁מפנה	-11.6248
אסור	-11.625
▁מפגיעת	-11.625
▁שככה	-11.6251
▁ציינה	-11.6251
▁בזוגיות	-11.6251
▁עייף	-11.6251
▁Sivan	-11.6251
▁למחבלים	-11.6254
▁אמריקאים	-11.6255
▁הסגל	-11.6257
▁המשפחתי	-11.6258
▁מנו	-11.626
▁הארכת	-11.6262
▁בארון	-11.6262
▁בארסה	-11.6262
▁התרופה	-11.6263
▁תובנות	-11.6264
2018	-11.6264
▁שכמעט	-11.6264
▁שאלון	-11.6266
אוהב	-11.6267
▁מסוגו	-11.6268
▁model	-11.6269
▁הביתי	-11.627
▁הגל	-11.6271
▁והג	-11.6277
▁ירוקים	-11.6277
▁יגרום	-11.6278
7%9	-11.6278
▁קיה	-11.6278
▁recently	-11.6278
▁גרמו	-11.6279
▁זמינים	-11.6279
▁לנסיכה	-11.6282
▁לנשיאות	-11.6282
▁ראשלצ	-11.6286
▁צורת	-11.6286
▁בנייד	-11.6286
▁אורות	-11.6286
סתם	-11.6287
▁הגנת	-11.6287
▁ממשל	-11.6288
▁הדרישות	-11.6288
בבקשה	-11.6289
▁allow	-11.629
▁רוצחים	-11.629
▁תפילין	-11.629
▁THE	-11.629
▁ולהמשיך	-11.6292
▁והאוכל	-11.6292
שהות	-11.6294
▁עשירים	-11.6294
▁אירית	-11.6296
▁05	-11.6298
▁ways	-11.6299
▁חובבי	-11.63
▁בשרון	-11.63
▁באחרונה	-11.6301
92	-11.6302
▁brand	-11.6302
▁יאמי	-11.6306
.(	-11.6307
▁either	-11.6307
▁watch	-11.6308
▁צרות	-11.6308
▁running	-11.6308
▁שירצו	-11.6309
▁לגל	-11.6309
▁מתבייש	-11.631
▁וס	-11.6312
▁המדרש	-11.6314
▁חכה	-11.6317
▁currently	-11.6317
▁מסבירה	-11.6317
▁בסד	-11.6317
טט	-11.6317
▁לבבות	-11.6318
▁רוחני	-11.6319
▁קירור	-11.632
▁האישיות	-11.632
▁טכנולוגי	-11.632
▁הפצוע	-11.6321
▁נגיש	-11.6324
▁ושיהיה	-11.6324
▁הראוי	-11.6324
▁למדינות	-11.6326
▁נמנע	-11.6326
▁third	-11.6327
cat	-11.6327
▁ותת	-11.6327
▁מידת	-11.633
▁האיטלקי	-11.633
▁צבעי	-11.633
▁במכללת	-11.6331
▁קט	-11.6331
▁אידיוט	-11.6332
▁המטען	-11.6333
▁ביפן	-11.6333
▁מסתכלים	-11.6333
▁לחשבון	-11.6334
radio	-11.6335
▁הקודמות	-11.6336
▁הישר	-11.6337
▁החכם	-11.6337
▁שאמרו	-11.6338
▁הגאה	-11.634
▁ניסינו	-11.6341
250	-11.6342
▁מפסיקה	-11.6343
St	-11.6346
▁ממתינים	-11.6346
▁United	-11.6346
▁בוש	-11.6349
▁המנוח	-11.635
ster	-11.6351
▁פירוט	-11.6355
mor	-11.6355
▁בצערך	-11.6357
▁גורים	-11.6359
▁ילמדו	-11.6359
טובים	-11.636
▁ליבו	-11.636
▁במידת	-11.6362
▁בסיר	-11.6364
▁הקופה	-11.6364
▁איז	-11.6365
▁סר	-11.6365
▁השתלת	-11.6366
▁לדרום	-11.6366
▁יונייטד	-11.6367
▁79	-11.6369
▁נתח	-11.6369
▁skin	-11.6371
▁Post	-11.6372
▁כינוס	-11.6373
▁ההכנות	-11.6374
▁לנקוט	-11.6375
▁חיון	-11.6378
▁תח	-11.638
▁דפוס	-11.6382
▁בקלפי	-11.6383
▁החלון	-11.6383
▁נפלאות	-11.6384
▁מוכשרים	-11.6385
▁מעצרם	-11.6385
▁הפוטנציאל	-11.6386
▁וביקש	-11.6386
▁ONE	-11.6386
▁צנוע	-11.6387
▁מלחמות	-11.6388
להיות	-11.639
▁מבריכ	-11.639
‘	-11.6391
▁Royal	-11.6391
▁סבון	-11.6392
▁יכנס	-11.6392
▁האולם	-11.6393
▁הצלם	-11.6393
▁יתברך	-11.6393
ואת	-11.6393
▁שכונות	-11.6394
▁בחיל	-11.6395
▁ויכולת	-11.6395
▁רשף	-11.6396
▁High	-11.6396
▁שהרבה	-11.6397
▁קום	-11.6398
▁בתיעוד	-11.6401
▁ימצא	-11.6401
▁מדא	-11.6402
▁ערעור	-11.6402
▁בסיסית	-11.6405
▁con	-11.6405
▁סיסמה	-11.6405
ny	-11.6405
▁לתלמידי	-11.6406
▁בסכנה	-11.6406
▁חובש	-11.6406
▁המלצר	-11.6408
▁ייערך	-11.6409
▁יחצ	-11.6412
▁המשיכה	-11.6414
▁המסמכים	-11.6414
▁deal	-11.6415
▁מבזק	-11.6416
▁המוכשר	-11.6417
▁מראות	-11.6418
▁ניגש	-11.6421
▁באתרי	-11.6423
▁del	-11.6424
ינים	-11.6424
▁שיפוצים	-11.6424
▁אגדה	-11.6425
▁עייפה	-11.6427
han	-11.6428
▁הציגו	-11.6429
▁מניעת	-11.6431
▁והרב	-11.6433
צבע	-11.6434
▁לחי	-11.6435
▁המשטר	-11.6435
▁הסחר	-11.6435
▁חתיכות	-11.6435
מומלץ	-11.6436
▁הסיני	-11.6436
▁יג	-11.6437
▁לפ	-11.6441
▁תכף	-11.6441
▁שוקרון	-11.6441
▁ציפוי	-11.6442
▁near	-11.6442
▁התאגיד	-11.6445
▁מנהיגי	-11.6446
▁בנינו	-11.6446
▁נצח	-11.6446
▁ניגוד	-11.6447
▁India	-11.645
▁התרחש	-11.645
▁האווירית	-11.6451
▁אביטן	-11.6451
▁ההרכב	-11.6452
▁נרקיס	-11.6453
▁בצירוף	-11.6454
▁ההערכה	-11.6454
רוח	-11.6455
▁מסקנות	-11.6456
▁Oren	-11.6457
▁account	-11.6458
▁bad	-11.6459
▁עמרי	-11.646
▁עידוד	-11.6462
▁date	-11.6462
37	-11.6463
▁ביוקר	-11.6463
▁שתיהנו	-11.6464
▁שופרסל	-11.6465
▁שמעוני	-11.6467
▁להדגיש	-11.6469
▁אצלינו	-11.6469
▁מענין	-11.6469
▁הדי	-11.6469
▁הוידאו	-11.647
▁סיר	-11.647
▁בנין	-11.6471
▁שוד	-11.6471
▁משתנים	-11.6472
▁Liat	-11.6475
▁שמרים	-11.6476
▁בתחבורה	-11.6476
קרא	-11.6479
▁latest	-11.6479
▁בקונגרס	-11.648
▁פרסמו	-11.648
ברק	-11.648
▁השיקה	-11.648
▁נזכרתי	-11.6481
▁הצפוי	-11.6481
▁המידות	-11.6483
▁האימונים	-11.6483
▁חוצות	-11.6483
▁קליטה	-11.6484
▁אודה	-11.6485
▁סורוקה	-11.6485
ash	-11.6485
דל	-11.6486
▁מרכזיים	-11.6487
▁בליל	-11.6488
▁באסה	-11.6488
▁המרכיבים	-11.6489
▁מתוכנן	-11.649
▁✨	-11.6492
▁תבינו	-11.6492
▁מחזירים	-11.6492
בון	-11.6494
▁התחזית	-11.6496
▁השרות	-11.6498
▁ישמח	-11.65
▁מתנת	-11.6501
▁חרדית	-11.6501
▁לקואליציה	-11.6502
▁הגרמנית	-11.6502
▁בהוצאות	-11.6502
▁לפתע	-11.6504
▁נשות	-11.6505
▁בקטנה	-11.6506
▁common	-11.6506
▁הקים	-11.6507
▁דוברת	-11.6507
שעות	-11.6508
▁רול	-11.6509
▁עדים	-11.6509
▁רגשי	-11.6509
בושה	-11.6511
▁צימר	-11.6512
▁לצילום	-11.6512
▁ההליך	-11.6513
▁צבר	-11.6514
▁החבילה	-11.6514
▁19:30	-11.6515
▁דיירים	-11.6515
▁לגדר	-11.6516
▁מיקס	-11.6517
▁גלילי	-11.6517
based	-11.6517
▁תפילת	-11.6517
▁living	-11.6519
▁נמוכות	-11.6519
▁נצטרך	-11.652
בט	-11.6521
▁חיכיתי	-11.6523
▁focus	-11.6524
▁במסמכי	-11.6528
▁בשכונות	-11.6529
▁בזול	-11.6529
▁המבט	-11.653
barak	-11.653
▁הנופש	-11.6531
▁להתפטר	-11.6532
▁חייים	-11.6532
▁הירח	-11.6533
▁מתושבי	-11.6533
▁לשי	-11.6536
▁תחתון	-11.6536
ואל	-11.6537
▁שמך	-11.6537
▁תחתית	-11.6537
▁רוסית	-11.6539
▁מניחה	-11.6539
לגבי	-11.654
עע	-11.6541
▁בשב	-11.6542
▁להפסקת	-11.6542
▁משתף	-11.6543
שב	-11.6544
▁החשובה	-11.6545
▁Ynet	-11.6545
▁הנייר	-11.6546
▁חוסן	-11.6547
day	-11.6548
▁שניסה	-11.6549
▁מכין	-11.6549
▁ועושים	-11.6549
▁פיג	-11.6551
▁פינס	-11.6551
▁leave	-11.6553
▁נאמנות	-11.6553
▁במד	-11.6553
▁פלאפל	-11.6554
▁המדף	-11.6555
▁ע״י	-11.6556
▁מובנה	-11.6558
▁אושרי	-11.6563
שווה	-11.6563
▁נוב	-11.6564
▁ואור	-11.6564
fc	-11.6565
▁הפרה	-11.6565
▁טבעונית	-11.6566
▁כהה	-11.6569
▁המח	-11.6571
▁שמעולם	-11.6572
▁סטיילינג	-11.6573
▁שרונה	-11.6573
▁מאחד	-11.6574
▁למתכון	-11.6575
▁המחוז	-11.6575
▁Boutique	-11.6576
▁בכלכלה	-11.6577
▁נפרדים	-11.6577
▁Music	-11.6578
▁ניצולי	-11.6578
▁שיגיעו	-11.658
כפר	-11.658
▁ולנסות	-11.658
▁הכריזה	-11.6581
▁size	-11.6582
▁פרווה	-11.6583
▁Yarden	-11.6585
▁סיכונים	-11.6587
▁תבניות	-11.6587
▁ensure	-11.6588
▁לולו	-11.6589
▁ליישוב	-11.6589
▁הלחימה	-11.6589
▁החזרת	-11.659
▁השכירות	-11.659
▁תיאום	-11.659
▁לעיני	-11.6591
▁שייכת	-11.6593
pic	-11.6593
▁פנאי	-11.6593
▁איבדה	-11.6595
▁לליגה	-11.6597
▁ברא	-11.6601
▁דבק	-11.6603
▁וחברת	-11.6603
▁מקרקעי	-11.6603
▁מתפללים	-11.6604
▁תע	-11.6604
zer	-11.6606
▁בשומרון	-11.6608
▁הדגמים	-11.6608
▁הפינה	-11.6608
▁דיברו	-11.6609
▁הסכסוך	-11.661
▁אלוני	-11.661
▁מוצש	-11.661
כית	-11.6614
▁ומקבלים	-11.6614
שן	-11.6615
▁יצטרך	-11.6615
▁מתקיימים	-11.6616
▁שניידר	-11.6617
▁תבדוק	-11.6618
▁מחלוקת	-11.662
▁גדלו	-11.6621
▁יוצאות	-11.6621
▁pretty	-11.6625
▁תגיעו	-11.6626
▁מצייצים	-11.6626
▁תשלח	-11.6626
▁התגלה	-11.6627
▁סומך	-11.6628
▁לחייל	-11.6628
▁ומעל	-11.6629
▁בנזין	-11.6629
▁ready	-11.663
▁turn	-11.663
▁פלילית	-11.6631
▁הטיסות	-11.6633
▁כשיר	-11.6634
▁הספרדי	-11.6634
GuyCamelmacher	-11.6634
▁העומדים	-11.6634
▁נבו	-11.6635
▁פרטיכם	-11.6635
▁בוצעה	-11.6637
▁מלווים	-11.6638
▁nice	-11.6639
▁כואבת	-11.6639
▁מזנון	-11.6639
wall	-11.6639
▁הזכייה	-11.6639
af	-11.6639
▁במתכונת	-11.6641
▁1,000	-11.6642
לן	-11.6642
▁1.4	-11.6642
▁בדרכי	-11.6642
▁ביתן	-11.6643
▁בחקירת	-11.6644
▁Roni	-11.6645
נז	-11.6647
▁תיקונים	-11.6648
▁הבריטית	-11.6649
▁ששווה	-11.665
▁תורמים	-11.665
▁המשלב	-11.6651
גור	-11.6652
▁חמד	-11.6653
▁View	-11.6654
▁אורט	-11.6654
▁בדגש	-11.6655
▁עדשות	-11.6657
▁למסלול	-11.6657
▁סלולרי	-11.6657
▁טכנולוגית	-11.6658
▁מחמאות	-11.6658
▁היוצרים	-11.6659
▁תיבת	-11.666
/14	-11.666
▁!!!!!	-11.666
ברי	-11.6661
▁למחשבה	-11.6661
▁להגרלה	-11.6663
▁שתרצו	-11.6664
▁גולש	-11.6665
▁חוויתי	-11.6667
▁הקיימת	-11.6668
▁להיסטוריה	-11.6669
▁משאיות	-11.6669
▁סביבת	-11.667
שום	-11.6671
▁המינימום	-11.6671
▁בפי	-11.6672
▁רוחות	-11.6672
▁אינטרסים	-11.6673
▁חיסון	-11.6673
▁מסובך	-11.6674
▁popular	-11.6675
▁Instagram	-11.6675
▁להרכיב	-11.6676
▁900	-11.6676
▁סידור	-11.6677
▁לשירותי	-11.6677
▁TheMarker	-11.6678
▁החוקה	-11.668
▁דוגמת	-11.668
▁הצרכנים	-11.668
▁בטי	-11.6681
▁לניצחון	-11.6682
▁בשירותים	-11.6683
▁האחרות	-11.6683
▁הסכימו	-11.6683
▁שכבת	-11.6684
▁Meir	-11.6685
▁present	-11.6686
▁13.	-11.6686
▁מוערך	-11.6686
▁כחודשיים	-11.6686
▁חשבנו	-11.6687
▁מובילות	-11.6688
▁ההשתתפות	-11.6688
▁Air	-11.6688
▁מגוונות	-11.6693
▁מסרב	-11.6694
▁הצדקה	-11.6694
מקס	-11.6696
▁יתקבלו	-11.6696
▁מסכת	-11.6696
▁מהשטח	-11.6696
▁systems	-11.6699
▁נבון	-11.67
▁קטלני	-11.67
▁פעמית	-11.67
52	-11.67
▁לנ	-11.6701
▁וכלי	-11.6701
▁לבעיה	-11.6701
ארט	-11.6703
▁פשרה	-11.6704
▁הילוכים	-11.6704
▁פלסטינית	-11.6706
▁specific	-11.6707
▁בתאל	-11.6707
▁חותם	-11.6708
חדר	-11.6709
▁כמוכם	-11.671
▁צחקתי	-11.671
▁2002	-11.671
▁הרכש	-11.671
▁עישון	-11.671
ErelSegal	-11.6713
▁מלמדת	-11.6714
▁כשלא	-11.6714
▁קביעת	-11.6716
guy	-11.6716
▁המנצח	-11.6716
▁אספקת	-11.6716
▁האיומים	-11.6717
▁לתוקף	-11.6721
▁הזרים	-11.6721
▁יממה	-11.6722
▁לקשר	-11.6723
▁rest	-11.6723
▁הפגינו	-11.6723
▁probably	-11.6724
בגלל	-11.6724
▁ובניה	-11.6724
נסקי	-11.6725
▁לשלוש	-11.6726
43	-11.6727
▁מחמם	-11.6727
0,0,0,	-11.6729
מוזמנים	-11.673
▁סיורים	-11.6732
▁מוציאה	-11.6734
▁משחרר	-11.6734
▁למוזיקה	-11.6735
▁men	-11.6736
▁גורן	-11.674
▁תות	-11.6742
▁בנוף	-11.6743
▁tell	-11.6744
▁ותוכל	-11.6745
▁בהמון	-11.6746
▁שפעם	-11.6746
▁מוותר	-11.6747
▁תקשיבו	-11.6748
---	-11.6749
▁לבזבז	-11.675
▁לבעל	-11.6751
▁17:30	-11.6751
גים	-11.6753
▁העתירה	-11.6756
הרי	-11.6757
▁לעברית	-11.6758
▁קבר	-11.6758
hi	-11.6759
▁תקנות	-11.676
▁self	-11.676
▁מתאימות	-11.6763
▁החזקה	-11.6764
▁המשקל	-11.6765
▁בשמיים	-11.6766
▁אצלה	-11.6766
▁שהממשלה	-11.6767
מקור	-11.6767
▁בפולין	-11.6767
▁בט	-11.6767
▁ועבודה	-11.6768
▁מופת	-11.6768
▁ניכרת	-11.6769
▁חשבת	-11.677
▁נועדה	-11.677
way	-11.6771
ששש	-11.6772
▁הסוגים	-11.6773
▁במסגרתו	-11.6774
▁ההערכות	-11.6776
▁ונקי	-11.6776
▁מקורה	-11.6778
▁בחוסר	-11.678
▁ורוצים	-11.6781
▁משפחתה	-11.6783
▁County	-11.6783
▁שנהרג	-11.6783
▁בחופשה	-11.6783
▁לחתוך	-11.6784
▁אדריכלות	-11.6785
▁Sh	-11.6785
▁שכזו	-11.6786
Sh	-11.6786
▁תחפושות	-11.6786
▁רחצה	-11.6786
97	-11.6788
▁הלחם	-11.6788
ולים	-11.6789
▁הגדרות	-11.6789
▁(2	-11.6789
▁אגו	-11.6789
▁Blue	-11.6791
סרטון	-11.6793
▁הולכות	-11.6794
▁העבירו	-11.6797
▁בננה	-11.6799
150	-11.6801
▁הודי	-11.6801
▁מרום	-11.6802
▁עצובה	-11.6803
▁נבחרים	-11.6803
▁מרגשים	-11.6804
▁להקיא	-11.6805
▁באוקראינה	-11.6806
נך	-11.6807
▁מבאס	-11.6807
▁מתישהו	-11.6807
▁צעירות	-11.6807
▁לל	-11.6808
▁לעובדי	-11.6808
600	-11.6808
▁מוט	-11.6809
דם	-11.6809
▁שנינו	-11.681
▁פשרות	-11.681
▁en	-11.681
ge	-11.6811
▁according	-11.6812
▁הערה	-11.6813
▁נוראי	-11.6813
▁טלפונית	-11.6813
▁הספה	-11.6814
▁יצוין	-11.6815
▁הפסידה	-11.6816
▁שוכחים	-11.6819
▁השנתית	-11.6821
▁חתיכה	-11.6821
▁הקל	-11.6822
▁problems	-11.6824
▁natural	-11.6825
▁תשואה	-11.6827
▁סוסים	-11.6827
▁ההרגשה	-11.6827
▁ריב	-11.6828
▁?!	-11.6828
▁ולבני	-11.6828
נע	-11.6829
▁שולט	-11.6832
▁action	-11.6833
▁מפעם	-11.6833
▁מורכבים	-11.6833
▁פערים	-11.6833
▁שעשתה	-11.6834
▁חתמה	-11.6834
▁חדשנות	-11.6834
▁השד	-11.6835
▁מכוונת	-11.6836
▁גורדון	-11.6837
▁לשניהם	-11.6837
▁hit	-11.6837
▁takes	-11.6839
▁total	-11.6839
▁מרשה	-11.684
▁חרם	-11.684
▁בראשה	-11.6841
new	-11.6842
▁בקהל	-11.6843
▁השמים	-11.6843
▁נשכחת	-11.6845
▁קטיף	-11.6845
ef	-11.6847
▁התרגיל	-11.6848
▁בעוטף	-11.6848
פרק	-11.6849
▁מושחתים	-11.685
יוסי	-11.6852
▁האזרחי	-11.6852
▁בעבודות	-11.6853
▁מסוק	-11.6854
▁held	-11.6855
▁בפרשה	-11.6856
▁הכ	-11.6857
▁החיסון	-11.6858
▁Amar	-11.6858
▁בישוב	-11.6859
▁שון	-11.6859
סרט	-11.686
ובי	-11.686
▁שהופך	-11.686
▁עתיק	-11.6861
▁יאו	-11.6862
▁מדויקת	-11.6862
קצות	-11.6863
▁הישגים	-11.6863
▁לרכבת	-11.6864
▁בארבע	-11.6865
▁child	-11.6866
קישור	-11.6867
▁פריצת	-11.6869
▁לשער	-11.687
▁ונמצא	-11.6871
▁שלחי	-11.6871
▁באלבום	-11.6872
▁מתקשר	-11.6873
▁להחרים	-11.6874
▁להתגייס	-11.6874
▁המותגים	-11.6874
סיפור	-11.6876
▁היסטורית	-11.688
▁להסדר	-11.6881
▁לרשותכם	-11.6882
▁באות	-11.6882
▁behind	-11.6883
▁בארוחת	-11.6884
▁תפעול	-11.6886
▁הקשיים	-11.6886
0<	-11.6886
▁store	-11.6886
▁ליאורה	-11.6888
▁הלהיט	-11.6888
▁יוקרתית	-11.6888
▁הקיבוץ	-11.6889
▁מתגעגעים	-11.6889
▁עולמות	-11.6891
▁option	-11.6891
▁יהלום	-11.6891
▁ערבות	-11.6892
▁פתחתי	-11.6894
▁להבהיר	-11.6894
▁אויב	-11.6895
▁מושבים	-11.6896
▁בחדרי	-11.6898
ציות	-11.6899
▁playing	-11.69
▁חריגה	-11.6901
▁כשמחפש	-11.6902
▁אישתי	-11.6903
▁ישבו	-11.6903
▁העצים	-11.6903
▁בח	-11.6904
▁106	-11.6904
▁morning	-11.6904
▁גופני	-11.6904
▁לכתובת	-11.6905
▁Her	-11.6906
▁Am	-11.6907
כיכר	-11.6907
▁להמלצות	-11.691
▁תתנו	-11.691
▁בדבריו	-11.6911
It	-11.6911
▁שונאים	-11.6913
▁לזוז	-11.6915
▁בחריפות	-11.6915
▁נהנית	-11.6916
▁170	-11.6916
▁אגוזים	-11.6916
▁לצמצום	-11.6917
חברה	-11.6917
▁ילדיו	-11.6918
▁ההסבר	-11.6918
▁דיסני	-11.6918
▁הנדלן	-11.6919
▁וללמוד	-11.6919
▁מלמדים	-11.692
▁החזון	-11.692
▁שנולד	-11.692
▁ועריכה	-11.6921
▁party	-11.6921
▁movie	-11.6923
▁שחיים	-11.6923
▁details	-11.6923
▁תותים	-11.6924
החיים	-11.6925
▁במעט	-11.6926
דף	-11.6927
▁ושלווה	-11.6928
▁מיצובישי	-11.6929
▁המבקר	-11.693
▁נתינה	-11.6931
▁אקו	-11.6932
51	-11.6932
▁מועדי	-11.6933
▁פסקי	-11.6935
▁תנ	-11.6936
חד	-11.6938
▁מנהרות	-11.6939
▁ההיסטורי	-11.6939
▁הדרומי	-11.6941
▁מפלס	-11.6944
▁ביקרנו	-11.6945
אאא	-11.6946
111	-11.6947
▁שתחווה	-11.6947
▁ולהגיד	-11.6948
▁בינו	-11.6948
▁ושב	-11.6948
▁בקטגוריית	-11.6948
▁ללימוד	-11.6948
▁לצייר	-11.695
▁מכפר	-11.6952
▁Ma	-11.6954
▁שופטי	-11.6956
▁ירק	-11.6956
▁ביריד	-11.6957
▁לנחש	-11.6958
▁האירופית	-11.6958
▁מפסיקים	-11.6958
▁שעמד	-11.6959
▁הדיגיטלי	-11.696
באמת	-11.6961
▁הלכת	-11.6961
▁וכמעט	-11.6962
▁להתווכח	-11.6964
▁עשורים	-11.6964
▁העוף	-11.6964
▁March	-11.6965
▁Dear	-11.6965
▁ומעניין	-11.6965
▁הזוגיות	-11.6965
▁ממוקד	-11.6966
▁מכמה	-11.6969
mode	-11.6969
▁תקציבים	-11.6969
▁travel	-11.697
▁Apple	-11.697
▁הפחות	-11.697
▁הבוגרים	-11.6971
▁USB	-11.6971
▁אלמנטים	-11.6971
▁בפעולה	-11.6973
Me	-11.6973
[...]
