<pad>	0
<unk>	0
[CLS]	0
[SEP]	0
[MASK]	0
<0x00>	0
<0x01>	0
<0x02>	0
<0x03>	0
<0x04>	0
<0x05>	0
<0x06>	0
<0x07>	0
<0x08>	0
<0x09>	0
<0x0A>	0
<0x0B>	0
<0x0C>	0
<0x0D>	0
<0x0E>	0
<0x0F>	0
<0x10>	0
<0x11>	0
<0x12>	0
<0x13>	0
<0x14>	0
<0x15>	0
<0x16>	0
<0x17>	0
<0x18>	0
<0x19>	0
<0x1A>	0
<0x1B>	0
<0x1C>	0
<0x1D>	0
<0x1E>	0
<0x1F>	0
<0x20>	0
<0x21>	0
<0x22>	0
<0x23>	0
<0x24>	0
<0x25>	0
<0x26>	0
<0x27>	0
<0x28>	0
<0x29>	0
<0x2A>	0
<0x2B>	0
<0x2C>	0
<0x2D>	0
<0x2E>	0
<0x2F>	0
<0x30>	0
<0x31>	0
<0x32>	0
<0x33>	0
<0x34>	0
<0x35>	0
<0x36>	0
<0x37>	0
<0x38>	0
<0x39>	0
<0x3A>	0
<0x3B>	0
<0x3C>	0
<0x3D>	0
<0x3E>	0
<0x3F>	0
<0x40>	0
<0x41>	0
<0x42>	0
<0x43>	0
<0x44>	0
<0x45>	0
<0x46>	0
<0x47>	0
<0x48>	0
<0x49>	0
<0x4A>	0
<0x4B>	0
<0x4C>	0
<0x4D>	0
<0x4E>	0
<0x4F>	0
<0x50>	0
<0x51>	0
<0x52>	0
<0x53>	0
<0x54>	0
<0x55>	0
<0x56>	0
<0x57>	0
<0x58>	0
<0x59>	0
<0x5A>	0
<0x5B>	0
<0x5C>	0
<0x5D>	0
<0x5E>	0
<0x5F>	0
<0x60>	0
<0x61>	0
<0x62>	0
<0x63>	0
<0x64>	0
<0x65>	0
<0x66>	0
<0x67>	0
<0x68>	0
<0x69>	0
<0x6A>	0
<0x6B>	0
<0x6C>	0
<0x6D>	0
<0x6E>	0
<0x6F>	0
<0x70>	0
<0x71>	0
<0x72>	0
<0x73>	0
<0x74>	0
<0x75>	0
<0x76>	0
<0x77>	0
<0x78>	0
<0x79>	0
<0x7A>	0
<0x7B>	0
<0x7C>	0
<0x7D>	0
<0x7E>	0
<0x7F>	0
<0x80>	0
<0x81>	0
<0x82>	0
<0x83>	0
<0x84>	0
<0x85>	0
<0x86>	0
<0x87>	0
<0x88>	0
<0x89>	0
<0x8A>	0
<0x8B>	0
<0x8C>	0
<0x8D>	0
<0x8E>	0
<0x8F>	0
<0x90>	0
<0x91>	0
<0x92>	0
<0x93>	0
<0x94>	0
<0x95>	0
<0x96>	0
<0x97>	0
<0x98>	0
<0x99>	0
<0x9A>	0
<0x9B>	0
<0x9C>	0
<0x9D>	0
<0x9E>	0
<0x9F>	0
<0xA0>	0
<0xA1>	0
<0xA2>	0
<0xA3>	0
<0xA4>	0
<0xA5>	0
<0xA6>	0
<0xA7>	0
<0xA8>	0
<0xA9>	0
<0xAA>	0
<0xAB>	0
<0xAC>	0
<0xAD>	0
<0xAE>	0
<0xAF>	0
<0xB0>	0
<0xB1>	0
<0xB2>	0
<0xB3>	0
<0xB4>	0
<0xB5>	0
<0xB6>	0
<0xB7>	0
<0xB8>	0
<0xB9>	0
<0xBA>	0
<0xBB>	0
<0xBC>	0
<0xBD>	0
<0xBE>	0
<0xBF>	0
<0xC0>	0
<0xC1>	0
<0xC2>	0
<0xC3>	0
<0xC4>	0
<0xC5>	0
<0xC6>	0
<0xC7>	0
<0xC8>	0
<0xC9>	0
<0xCA>	0
<0xCB>	0
<0xCC>	0
<0xCD>	0
<0xCE>	0
<0xCF>	0
<0xD0>	0
<0xD1>	0
<0xD2>	0
<0xD3>	0
<0xD4>	0
<0xD5>	0
<0xD6>	0
<0xD7>	0
<0xD8>	0
<0xD9>	0
<0xDA>	0
<0xDB>	0
<0xDC>	0
<0xDD>	0
<0xDE>	0
<0xDF>	0
<0xE0>	0
<0xE1>	0
<0xE2>	0
<0xE3>	0
<0xE4>	0
<0xE5>	0
<0xE6>	0
<0xE7>	0
<0xE8>	0
<0xE9>	0
<0xEA>	0
<0xEB>	0
<0xEC>	0
<0xED>	0
<0xEE>	0
<0xEF>	0
<0xF0>	0
<0xF1>	0
<0xF2>	0
<0xF3>	0
<0xF4>	0
<0xF5>	0
<0xF6>	0
<0xF7>	0
<0xF8>	0
<0xF9>	0
<0xFA>	0
<0xFB>	0
<0xFC>	0
<0xFD>	0
<0xFE>	0
<0xFF>	0
▁ה	-0
▁ל	-1
▁מ	-2
▁א	-3
▁ב	-4
▁ש	-5
ים	-6
ות	-7
▁ו	-8
▁ע	-9
▁כ	-10
ני	-11
▁י	-12
ור	-13
▁של	-14
ול	-15
▁ח	-16
יר	-17
ית	-18
וד	-19
נו	-20
▁ת	-21
וב	-22
▁את	-23
לי	-24
▁המ	-25
רי	-26
ון	-27
..	-28
▁נ	-29
▁ר	-30
▁פ	-31
יי	-32
▁לא	-33
▁ק	-34
נה	-35
▁ג	-36
בר	-37
ום	-38
▁לה	-39
▁ז	-40
יל	-41
די	-42
יה	-43
שר	-44
▁ס	-45
בי	-46
וא	-47
▁על	-48
מי	-49
רו	-50
מה	-51
▁ד	-52
תי	-53
▁t	-54
מו	-55
שי	-56
▁הא	-57
▁ט	-58
גי	-59
וק	-60
▁מה	-61
▁הי	-62
▁a	-63
כל	-64
ופ	-65
in	-66
▁אי	-67
on	-68
▁<	-69
▁צ	-70
וע	-71
נים	-72
he	-73
שה	-74
▁הת	-75
לה	-76
וח	-77
re	-78
▁הח	-79
ומ	-80
▁בי	-81
▁במ	-82
נות	-83
רים	-84
רא	-85
▁בא	-86
בל	-87
▁זה	-88
סי	-89
וו	-90
!!	-91
▁וה	-92
טי	-93
▁-	-94
זה	-95
לא	-96
▁הש	-97
▁אח	-98
וצ	-99
▁עם	-100
אל	-101
▁למ	-102
▁שה	-103
er	-104
פר	-105
▁כל	-106
▁מא	-107
▁הע	-108
▁מי	-109
▁לי	-110
חח	-111
▁בע	-112
▁1	-113
▁או	-114
צי	-115
וש	-116
ur	-117
בה	-118
...	-119
▁s	-120
an	-121
▁מת	-122
▁מש	-123
קר	-124
▁שי	-125
וי	-126
פי	-127
רכ	-128
▁@	-129
▁2	-130
▁וא	-131
מש	-132
מת	-133
נת	-134
קי	-135
ha	-136
▁"	-137
▁מע	-138
▁לע	-139
or	-140
▁the	-141
▁(	-142
▁אות	-143
דר	-144
טר	-145
דה	-146
וג	-147
▁אני	-148
▁בש	-149
חי	-150
it	-151
וס	-152
en	-153
▁הפ	-154
▁הר	-155
▁הב	-156
▁מס	-157
עה	-158
▁הכ	-159
▁מח	-160
▁שא	-161
בת	-162
▁יש	-163
שים	-164
ובה	-165
▁בה	-166
▁p	-167
ותר	-168
▁שמ	-169
▁w	-170
▁בת	-171
▁כי	-172
al	-173
פה	-174
00	-175
▁לש	-176
דים	-177
is	-178
נס	-179
וכ	-180
ar	-181
▁ומ	-182
חה	-183
נית	-184
▁הוא	-185
אי	-186
at	-187
url	-188
רת	-189
es	-190
מן	-191
כם	-192
שת	-193
▁גם	-194
בע	-195
קה	-196
▁בר	-197
▁אל	-198
חת	-199
▁הס	-200
▁c	-201
▁מק	-202
מים	-203
▁H	-204
▁לב	-205
▁לפ	-206
▁הה	-207
▁שלך	-208
▁o	-209
el	-210
וט	-211
▁הק	-212
??	-213
את	-214
▁לח	-215
כה	-216
ודה	-217
כול	-218
ed	-219
ירה	-220
לים	-221
וז	-222
▁f	-223
בים	-224
שות	-225
ירות	-226
עות	-227
▁נו	-228
▁בח	-229
שראל	-230
ing	-231
▁טוב	-232
ou	-233
▁הג	-234
ין	-235
רה	-236
▁חי	-237
וף	-238
בור	-239
▁an	-240
▁b	-241
עת	-242
▁ול	-243
▁הנ	-244
חר	-245
▁לק	-246
▁הצ	-247
one	-248
יות	-249
פת	-250
os	-251
רג	-252
ניה	-253
▁וע	-254
▁to	-255
▁S	-256
▁רא	-257
בות	-258
וני	-259
▁מצ	-260
▁,	-261
▁אמ	-262
▁שלי	-263
▁הז	-264
ot	-265
▁אנ	-266
▁m	-267
ונה	-268
il	-269
▁וב	-270
ph	-271
אות	-272
אה	-273
▁T	-274
עים	-275
▁מכ	-276
▁אם	-277
▁היה	-278
▁עד	-279
ורה	-280
טים	-281
ic	-282
ונ	-283
מות	-284
▁אבל	-285
▁רק	-286
כת	-287
id	-288
phone	-289
ולם	-290
▁יותר	-291
חות	-292
▁A	-293
▁חד	-294
גובה	-295
▁in	-296
▁and	-297
▁בב	-298
▁of	-299
לת	-300
קים	-301
om	-302
as	-303
▁שב	-304
▁בס	-305
דת	-306
▁ני	-307
▁היא	-308
▁עוד	-309
▁פר	-310
▁מות	-311
אר	-312
▁.	-313
▁מז	-314
▁d	-315
▁I	-316
▁תגי	-317
ion	-318
ולי	-319
▁לת	-320
גל	-321
▁כא	-322
דות	-323
וה	-324
01	-325
חחחח	-326
פור	-327
ולה	-328
▁3	-329
▁מב	-330
le	-331
▁הד	-332
צל	-333
לב	-334
▁המש	-335
עי	-336
כי	-337
לק	-338
▁M	-339
צה	-340
▁סי	-341
יתי	-342
▁ממ	-343
אים	-344
▁אפ	-345
▁אז	-346
פים	-347
▁התגובה	-348
▁כמו	-349
חק	-350
פו	-351
TM	-352
▁אין	-353
שמ	-354
▁חבר	-355
▁וי	-356
▁יה	-357
TML	-358
▁לך	-359
▁HTML	-360
▁מותרים	-361
מצ	-362
רב	-363
▁ישראל	-364
לו	-365
מר	-366
כן	-367
ראש	-368
גר	-369
▁פע	-370
▁C	-371
נט	-372
▁ראש	-373
חים	-374
כות	-375
ורי	-376
▁:	-377
לות	-378
▁בק	-379
יין	-380
ונים	-381
▁מד	-382
נק	-383
et	-384
גד	-385
גיע	-386
▁פי	-387
▁עלי	-388
▁שע	-389
ילה	-390
red	-391
▁להת	-392
ent	-393
ורים	-394
▁B	-395
▁בפ	-396
כים	-397
▁בכל	-398
▁אחד	-399
מוד	-400
טה	-401
▁בכ	-402
▁הזה	-403
▁די	-404
▁מר	-405
▁n	-406
▁מפ	-407
ra	-408
ריך	-409
us	-410
חנו	-411
▁יכול	-412
▁יום	-413
יא	-414
▁הם	-415
▁היום	-416
ראה	-417
....	-418
הה	-419
ירים	-420
▁לו	-421
ווה	-422
▁שנ	-423
או	-424
▁שת	-425
▁אלי	-426
▁לד	-427
▁אתה	-428
וך	-429
קום	-430
שב	-431
פות	-432
▁P	-433
דם	-434
▁y	-435
ער	-436
חד	-437
זור	-438
▁|	-439
▁כדי	-440
▁בט	-441
ro	-442
▁/	-443
▁v	-444
▁l	-445
▁עצ	-446
בוד	-447
!!!	-448
im	-449
▁כבר	-450
▁בני	-451
▁שלא	-452
▁כמה	-453
▁לצ	-454
▁ולא	-455
▁כך	-456
▁4	-457
▁נת	-458
של	-459
▁הט	-460
▁ות	-461
▁מאוד	-462
am	-463
▁re	-464
יים	-465
▁5	-466
ad	-467
יתה	-468
▁g	-469
תר	-470
וקר	-471
חל	-472
יק	-473
סט	-474
סים	-475
סה	-476
ir	-477
▁שק	-478
ייה	-479
גע	-480
▁R	-481
ברים	-482
כו	-483
hared	-484
יו	-485
דו	-486
וצה	-487
▁בין	-488
ay	-489
".	-490
▁?	-491
▁L	-492
▁אבי	-493
ומר	-494
וות	-495
▁בית	-496
ac	-497
נג	-498
שוב	-499
▁זו	-500
ולים	-501
סת	-502
שהו	-503
ומי	-504
וץ	-505
▁ממש	-506
▁לנו	-507
▁הכי	-508
שא	-509
ברה	-510
זר	-511
▁shared	-512
▁גד	-513
▁D	-514
▁מל	-515
▁לג	-516
צע	-517
ol	-518
▁בן	-519
▁לפני	-520
כר	-521
ec	-522
קות	-523
צוע	-524
גם	-525
▁מג	-526
▁הכל	-527
▁להיות	-528
▁בג	-529
▁אחרי	-530
כון	-531
סף	-532
ut	-533
ברי	-534
▁וח	-535
ve	-536
▁תק	-537
נד	-538
▁אותו	-539
▁#	-540
ודי	-541
▁לס	-542
▁קי	-543
▁יע	-544
מין	-545
▁אה	-546
ווי	-547
ow	-548
שיו	-549
ויות	-550
קת	-551
▁שם	-552
▁שלנו	-553
▁שר	-554
צר	-555
תת	-556
פל	-557
▁תודה	-558
שור	-559
ילו	-560
▁בו	-561
▁אוה	-562
▁שני	-563
צת	-564
▁שלה	-565
▁לכל	-566
ירי	-567
זי	-568
▁רי	-569
▁איזה	-570
▁G	-571
▁וש	-572
▁e	-573
▁יל	-574
▁חיי	-575
▁הרבה	-576
▁קר	-577
▁צי	-578
▁N	-579
▁is	-580
ig	-581
בודה	-582
▁מט	-583
▁האי	-584
▁!	-585
▁איך	-586
▁עי	-587
▁'	-588
בא	-589
▁טי	-590
▁בצ	-591
▁דר	-592
ובר	-593
▁שח	-594
שו	-595
▁נפ	-596
ירת	-597
נם	-598
▁–	-599
▁כת	-600
פון	-601
מיד	-602
מא	-603
בוע	-604
ers	-605
לך	-606
▁נה	-607
▁בלי	-608
▁המח	-609
▁201	-610
גה	-611
▁הבי	-612
ith	-613
▁שלו	-614
▁לכ	-615
רץ	-616
ופה	-617
פט	-618
▁אור	-619
טח	-620
כשיו	-621
▁for	-622
ייל	-623
ide	-624
▁לר	-625
ניות	-626
בו	-627
עם	-628
קו	-629
▁לכם	-630
דינה	-631
▁האם	-632
מד	-633
em	-634
▁אפשר	-635
▁E	-636
▁בד	-637
▁יצ	-638
ילים	-639
שוט	-640
▁וכ	-641
▁אנחנו	-642
▁ידי	-643
ew	-644
▁ונ	-645
קס	-646
▁כול	-647
▁with	-648
רט	-649
דע	-650
ly	-651
▁שאת	-652
רכז	-653
עד	-654
-1	-655
חו	-656
קור	-657
hat	-658
▁תה	-659
▁מהמ	-660
!!!!	-661
▁ברי	-662
▁h	-663
▁6	-664
טרה	-665
ניים	-666
לט	-667
▁F	-668
▁ביותר	-669
▁נוס	-670
▁למה	-671
▁בנו	-672
▁W	-673
▁7	-674
▁כאן	-675
ציה	-676
ניין	-677
▁צריך	-678
ost	-679
לם	-680
▁לאחר	-681
un	-682
hot	-683
ri	-684
▁קט	-685
▁יוד	-686
▁בל	-687
▁הראש	-688
▁ha	-689
▁שיש	-690
▁ולה	-691
▁יי	-692
▁תל	-693
צב	-694
▁מזל	-695
ילות	-696
םם	-697
אלי	-698
her	-699
ואה	-700
בין	-701
ופי	-702
קרה	-703
▁שנה	-704
חרו	-705
▁הלי	-706
מור	-707
▁זאת	-708
▁th	-709
▁שהוא	-710
פק	-711
▁החד	-712
וסי	-713
ירוע	-714
▁כן	-715
וכל	-716
▁בבית	-717
פשר	-718
▁מלא	-719
רות	-720
ag	-721
▁אותך	-722
▁במה	-723
▁תע	-724
▁תח	-725
תיים	-726
ונות	-727
▁נע	-728
דור	-729
▁לעשות	-730
▁הל	-731
ch	-732
▁O	-733
▁חיים	-734
▁on	-735
פס	-736
▁עכשיו	-737
כנס	-738
וחד	-739
רכת	-740
▁פשוט	-741
ak	-742
▁בז	-743
ייס	-744
/1	-745
",	-746
▁שאני	-747
תח	-748
our	-749
מונה	-750
▁מנ	-751
▁אית	-752
▁אתם	-753
ביר	-754
גים	-755
▁The	-756
▁??	-757
דרך	-758
st	-759
▁במי	-760
▁be	-761
ובות	-762
▁8	-763
▁ללא	-764
▁אביב	-765
▁ועוד	-766
▁רוצה	-767
מע	-768
קל	-769
▁להם	-770
ul	-771
קב	-772
▁בדי	-773
פול	-774
▁מוצ	-775
▁נח	-776
▁לנ	-777
▁שכ	-778
קט	-779
▁שנים	-780
▁st	-781
▁העיר	-782
▁בחי	-783
בח	-784
אן	-785
ינו	-786
ילת	-787
▁אנשים	-788
טל	-789
▁עוב	-790
▁אותי	-791
צים	-792
▁נית	-793
ראות	-794
▁you	-795
▁להי	-796
בד	-797
▁עו	-798
▁הפר	-799
▁חדש	-800
▁טל	-801
20	-802
▁המת	-803
▁לפי	-804
סק	-805
בק	-806
▁10	-807
▁כש	-808
ation	-809
פע	-810
וחות	-811
.1	-812
▁אחת	-813
▁הצי	-814
שרד	-815
▁אשר	-816
▁יפה	-817
ומים	-818
מון	-819
▁היו	-820
ניהו	-821
:00	-822
▁פעם	-823
▁השי	-824
▁0	-825
▁*	-826
▁יהיה	-827
▁מדי	-828
בוק	-829
▁מוש	-830
משלה	-831
קד	-832
▁אש	-833
iv	-834
שית	-835
גת	-836
▁מצי	-837
▁רח	-838
▁לט	-839
▁phot	-840
▁אר	-841
▁...	-842
▁למע	-843
▁נגד	-844
רוש	-845
▁הול	-846
סטי	-847
ריה	-848
ואי	-849
עדה	-850
צו	-851
חס	-852
ילדים	-853
מל	-854
ter	-855
▁אך	-856
פש	-857
▁דבר	-858
).	-859
ודש	-860
▁that	-861
▁המל	-862
▁משפ	-863
▁מדה	-864
▁גי	-865
ליה	-866
▁גב	-867
צור	-868
▁20	-869
▁וגם	-870
ill	-871
oo	-872
▁יא	-873
נון	-874
▁המס	-875
▁טובה	-876
ילום	-877
רופ	-878
צלחה	-879
ev	-880
▁מוז	-881
▁מגי	-882
ומות	-883
▁בנ	-884
▁קור	-885
כנ	-886
צות	-887
▁אמר	-888
--	-889
זו	-890
וון	-891
ce	-892
▁שבוע	-893
ab	-894
גש	-895
▁9	-896
אם	-897
ורך	-898
▁הקר	-899
▁במס	-900
▁אותה	-901
▁נש	-902
▁תי	-903
▁Y	-904
▁שבת	-905
ליון	-906
צח	-907
ובי	-908
מח	-909
▁יוצ	-910
▁המי	-911
▁שזה	-912
▁בישראל	-913
מית	-914
▁חחחחח	-915
▁חז	-916
▁אס	-917
וצים	-918
pp	-919
▁אחר	-920
▁גל	-921
▁שלום	-922
▁כה	-923
▁לל	-924
▁ור	-925
▁אותם	-926
▁מספר	-927
▁:)	-928
▁מקום	-929
מס	-930
▁אופ	-931
▁it	-932
▁הנו	-933
▁במקום	-934
▁אד	-935
▁התק	-936
▁הגד	-937
▁ad	-938
לל	-939
ווח	-940
▁K	-941
if	-942
▁אדם	-943
av	-944
▁סט	-945
▁באי	-946
▁שירות	-947
▁במש	-948
▁חלק	-949
▁מתח	-950
▁היי	-951
000	-952
פרי	-953
▁דרך	-954
שש	-955
בית	-956
▁לפר	-957
▁נתניהו	-958
▁נראה	-959
▁בעי	-960
▁המק	-961
עוד	-962
▁הסי	-963
▁at	-964
▁בלב	-965
משי	-966
גן	-967
▁גר	-968
▁חוש	-969
▁גדול	-970
▁ארו	-971
▁al	-972
▁מול	-973
▁משהו	-974
ht	-975
um	-976
▁המע	-977
ov	-978
▁למי	-979
▁רכ	-980
▁ביום	-981
▁החל	-982
▁post	-983
ושים	-984
ate	-985
▁תמיד	-986
▁פה	-987
▁זמן	-988
▁באמת	-989
▁ניתן	-990
▁are	-991
-2	-992
est	-993
▁חל	-994
▁עבור	-995
▁יד	-996
oun	-997
נוי	-998
גור	-999
▁בתח	-1000
▁הרב	-1001
▁מוכ	-1002
and	-1003
יייי	-1004
נטי	-1005
▁מנה	-1006
30	-1007
▁צרי	-1008
מוש	-1009
רח	-1010
▁ית	-1011
נסת	-1012
אני	-1013
▁we	-1014
▁•	-1015
ועל	-1016
▁הממשלה	-1017
▁תא	-1018
▁תש	-1019
▁ואת	-1020
ct	-1021
ובת	-1022
ופן	-1023
גות	-1024
מרי	-1025
▁לקבל	-1026
▁or	-1027
▁במח	-1028
▁V	-1029
▁לראות	-1030
▁במהלך	-1031
▁האחרו	-1032
▁בעולם	-1033
▁הדי	-1034
▁בקר	-1035
▁קצת	-1036
ומה	-1037
ומת	-1038
ורות	-1039
▁אנו	-1040
▁אולי	-1041
▁שלכם	-1042
מול	-1043
ניי	-1044
עו	-1045
▁לז	-1046
▁בשב	-1047
**	-1048
▁מוע	-1049
ort	-1050
>/	-1051
ore	-1052
▁שמח	-1053
ik	-1054
▁פור	-1055
▁בוקר	-1056
▁as	-1057
▁אב	-1058
▁פת	-1059
▁צה	-1060
▁ראשון	-1061
▁התח	-1062
▁אוכל	-1063
ברת	-1064
▁תת	-1065
▁אצל	-1066
▁קב	-1067
▁נק	-1068
ess	-1069
▁תפ	-1070
ant	-1071
קיים	-1072
▁ליי	-1073
▁שלהם	-1074
סם	-1075
▁ער	-1076
שם	-1077
ובים	-1078
▁יח	-1079
על	-1080
ail	-1081
▁בגל	-1082
נתי	-1083
▁19	-1084
),	-1085
▁במו	-1086
ואר	-1087
מנים	-1088
ect	-1089
וסט	-1090
לח	-1091
▁חברת	-1092
▁ברח	-1093
ריות	-1094
▁למש	-1095
▁השר	-1096
▁בסי	-1097
ודים	-1098
ודעה	-1099
▁נא	-1100
▁להגי	-1101
ודות	-1102
ואו	-1103
ובן	-1104
op	-1105
וקה	-1106
ליט	-1107
▁נמצ	-1108
50	-1109
▁קשה	-1110
▁הגי	-1111
▁הבית	-1112
res	-1113
▁חחח	-1114
▁add	-1115
ולות	-1116
▁הגיע	-1117
▁אומ	-1118
▁J	-1119
▁כר	-1120
▁ברו	-1121
▁פרי	-1122
נטר	-1123
▁המדינה	-1124
רכב	-1125
כס	-1126
▁כזה	-1127
▁שוב	-1128
גב	-1129
▁כנ	-1130
▁פל	-1131
▁חשוב	-1132
מונות	-1133
מנות	-1134
▁פרס	-1135
▁החברה	-1136
▁נכון	-1137
סיון	-1138
▁המון	-1139
▁ילדים	-1140
▁הזמן	-1141
רכי	-1142
דן	-1143
▁ככה	-1144
▁12	-1145
▁ואני	-1146
▁וזה	-1147
▁עבודה	-1148
▁pro	-1149
גרת	-1150
▁יק	-1151
▁וס	-1152
▁קל	-1153
▁שיר	-1154
▁הייתי	-1155
▁he	-1156
ine	-1157
▁שהם	-1158
▁להע	-1159
ריים	-1160
נחנו	-1161
▁רב	-1162
▁נד	-1163
????	-1164
נוע	-1165
▁..	-1166
▁בהצלחה	-1167
טחון	-1168
▁עדיין	-1169
▁com	-1170
▁איר	-1171
▁new	-1172
ירוש	-1173
שמח	-1174
ia	-1175
נייה	-1176
ןן	-1177
201	-1178
ביא	-1179
שיא	-1180
▁לחי	-1181
▁מחיר	-1182
art	-1183
ld	-1184
▁אלא	-1185
אא	-1186
▁אוהבת	-1187
se	-1188
▁חדשות	-1189
▁הרי	-1190
רוץ	-1191
טת	-1192
מפ	-1193
▁your	-1194
▁אף	-1195
ist	-1196
▁שהיא	-1197
נשים	-1198
▁חברים	-1199
▁באתר	-1200
ud	-1201
▁הייתה	-1202
פיק	-1203
▁מסעדה	-1204
▁con	-1205
rou	-1206
▁נוספים	-1207
▁חס	-1208
▁באמצ	-1209
▁U	-1210
וויר	-1211
oc	-1212
▁שט	-1213
▁בשביל	-1214
שרה	-1215
ופר	-1216
▁מכל	-1217
vide	-1218
נר	-1219
כיר	-1220
rom	-1221
▁ואי	-1222
▁וק	-1223
תם	-1224
▁השבוע	-1225
▁כשה	-1226
▁בפר	-1227
גו	-1228
▁חוק	-1229
שרות	-1230
ופים	-1231
פתח	-1232
▁השנה	-1233
▁בלבד	-1234
כולם	-1235
hen	-1236
ry	-1237
▁לבית	-1238
ייסבוק	-1239
qu	-1240
▁כולל	-1241
▁גבוה	-1242
▁ספר	-1243
▁המא	-1244
גוע	-1245
▁שעות	-1246
▁ערב	-1247
ביב	-1248
▁צילום	-1249
נן	-1250
10	-1251
מוך	-1252
ניהול	-1253
▁חש	-1254
מעות	-1255
12	-1256
▁רפ	-1257
▁שמע	-1258
▁עושה	-1259
▁בגלל	-1260
▁ומת	-1261
פורט	-1262
▁בשי	-1263
▁סוף	-1264
צוב	-1265
▁משת	-1266
▁קבל	-1267
▁מור	-1268
▁ומה	-1269
od	-1270
▁הספר	-1271
ity	-1272
▁יודע	-1273
וגי	-1274
▁לאי	-1275
צמ	-1276
משך	-1277
▁בכלל	-1278
▁יר	-1279
▁חשב	-1280
▁שאתה	-1281
▁גור	-1282
▁In	-1283
▁בארץ	-1284
ושר	-1285
מק	-1286
▁ומש	-1287
יהיה	-1288
▁תר	-1289
עור	-1290
▁המשפט	-1291
▁הרו	-1292
משיך	-1293
▁באופן	-1294
ard	-1295
ולד	-1296
▁אומר	-1297
videos	-1298
▁תכ	-1299
▁מקצוע	-1300
אב	-1301
▁ופ	-1302
ליק	-1303
רכה	-1304
▁מיליון	-1305
▁₪	-1306
קיד	-1307
▁לוי	-1308
ווק	-1309
שראלי	-1310
▁פרו	-1311
צלי	-1312
וכנית	-1313
▁קשר	-1314
▁לבד	-1315
▁הבא	-1316
ולר	-1317
▁למו	-1318
ראי	-1319
▁קרי	-1320
▁זכ	-1321
▁photo	-1322
▁wh	-1323
▁יו	-1324
רר	-1325
זק	-1326
שום	-1327
▁ירוש	-1328
▁בדיוק	-1329
לית	-1330
ףף	-1331
▁ספ	-1332
▁מיי	-1333
▁r	-1334
▁כולם	-1335
▁מומ	-1336
▁ירושלים	-1337
▁ex	-1338
▁דברים	-1339
דרה	-1340
שורת	-1341
▁המשפ	-1342
▁להר	-1343
▁להש	-1344
ראת	-1345
▁החיים	-1346
pe	-1347
▁כמ	-1348
▁us	-1349
▁כאשר	-1350
th	-1351
▁כח	-1352
בלים	-1353
▁בעיר	-1354
.5	-1355
▁כהן	-1356
▁המוע	-1357
ive	-1358
▁רוצים	-1359
קש	-1360
▁עז	-1361
גיש	-1362
▁משרד	-1363
▁שבע	-1364
▁הכבוד	-1365
▁בריאות	-1366
▁11	-1367
▁ברק	-1368
▁לשי	-1369
וווו	-1370
▁15	-1371
▁הראשון	-1372
▁החדש	-1373
up	-1374
▁)	-1375
וריה	-1376
ויים	-1377
▁מתוך	-1378
▁אלה	-1379
▁הנה	-1380
זל	-1381
רכות	-1382
▁רבה	-1383
▁שפ	-1384
כתב	-1385
▁אתמול	-1386
▁במע	-1387
▁רע	-1388
מנו	-1389
▁»	-1390
▁St	-1391
▁בטוח	-1392
▁יכולים	-1393
▁מדהים	-1394
40	-1395
▁שש	-1396
▁שקל	-1397
הם	-1398
טית	-1399
ust	-1400
▁הארץ	-1401
ירושלים	-1402
▁דוד	-1403
▁בתי	-1404
▁עס	-1405
ain	-1406
▁העולם	-1407
בט	-1408
קשה	-1409
נסה	-1410
▁במיוחד	-1411
▁שית	-1412
▁מחר	-1413
ברות	-1414
▁חוד	-1415
שרת	-1416
▁by	-1417
דרת	-1418
▁לצי	-1419
▁דעת	-1420
נא	-1421
ren	-1422
▁מדובר	-1423
▁צע	-1424
לון	-1425
▁was	-1426
▁!!!	-1427
▁!!	-1428
רכים	-1429
▁ימים	-1430
דון	-1431
man	-1432
▁הופ	-1433
▁האחר	-1434
קבות	-1435
ub	-1436
▁אותנו	-1437
רופיל	-1438
▁חינם	-1439
▁והת	-1440
▁בעלי	-1441
ורת	-1442
▁עש	-1443
ideo	-1444
וקים	-1445
▁פחות	-1446
▁להגיע	-1447
▁יחד	-1448
▁שהת	-1449
▁בשעה	-1450
▁משה	-1451
ךך	-1452
בב	-1453
▁ההת	-1454
▁from	-1455
אלה	-1456
ment	-1457
▁ומו	-1458
end	-1459
▁18	-1460
▁טר	-1461
▁הזו	-1462
▁אפילו	-1463
▁בהת	-1464
שמה	-1465
טרי	-1466
▁כד	-1467
חור	-1468
▁have	-1469
ff	-1470
all	-1471
▁וכל	-1472
▁להצ	-1473
otel	-1474
▁מבי	-1475
▁הערב	-1476
▁מישהו	-1477
▁ביט	-1478
וצר	-1479
ver	-1480
וזי	-1481
חחחחחחחח	-1482
ight	-1483
רונות	-1484
ילד	-1485
▁הור	-1486
▁קרא	-1487
ואים	-1488
▁video	-1489
חז	-1490
▁קול	-1491
iz	-1492
▁חג	-1493
▁התי	-1494
▁למצ	-1495
▁להפ	-1496
יש	-1497
ומית	-1498
▁מזה	-1499
▁this	-1500
23	-1501
▁כתב	-1502
▁מוס	-1503
▁הזאת	-1504
הההה	-1505
▁מרג	-1506
▁מתי	-1507
ib	-1508
ונית	-1509
ציות	-1510
▁נס	-1511
▁added	-1512
▁מנת	-1513
▁שצ	-1514
99	-1515
▁k	-1516
חן	-1517
רטון	-1518
זיה	-1519
ell	-1520
''	-1521
han	-1522
ביע	-1523
▁בדרך	-1524
▁איפה	-1525
▁ובע	-1526
▁לפרטים	-1527
ast	-1528
ap	-1529
בול	-1530
▁שתי	-1531
▁14	-1532
▁ווא	-1533
55	-1534
▁חמי	-1535
▁ומי	-1536
▁היר	-1537
סל	-1538
▁רג	-1539
▁מגיע	-1540
__	-1541
og	-1542
▁תוש	-1543
▁למכ	-1544
ודם	-1545
▁אירוע	-1546
מם	-1547
▁רצ	-1548
11	-1549
▁העי	-1550
▁can	-1551
▁ועד	-1552
▁רבים	-1553
▁שמש	-1554
דוד	-1555
מך	-1556
▁שמת	-1557
▁ענק	-1558
▁הלב	-1559
▁הפרופיל	-1560
רגון	-1561
▁האחרון	-1562
▁הגדול	-1563
▁באמצעות	-1564
ליים	-1565
עתי	-1566
▁הקי	-1567
▁טבע	-1568
▁ומע	-1569
▁הציבור	-1570
יך	-1571
ies	-1572
לוח	-1573
ניק	-1574
▁הילדים	-1575
▁16	-1576
▁מאז	-1577
ולוג	-1578
בש	-1579
▁ממו	-1580
▁איש	-1581
▁הפי	-1582
ee	-1583
▁תג	-1584
▁רבי	-1585
▁בזמן	-1586
▁>	-1587
▁פני	-1588
▁שנת	-1589
טע	-1590
▁שוק	-1591
▁עומ	-1592
▁אחרת	-1593
▁בעקבות	-1594
צא	-1595
▁הן	-1596
▁200	-1597
▁הרצ	-1598
▁העבודה	-1599
▁חול	-1600
▁התע	-1601
▁אהבה	-1602
▁חיפה	-1603
▁קיבל	-1604
▁עושים	-1605
▁יור	-1606
▁וג	-1607
שט	-1608
▁will	-1609
▁13	-1610
▁דור	-1611
▁להשת	-1612
כני	-1613
▁מעולה	-1614
ure	-1615
▁שום	-1616
▁עדי	-1617
ear	-1618
▁לבי	-1619
▁בשל	-1620
▁הפע	-1621
▁לפע	-1622
▁אוהב	-1623
har	-1624
▁לקר	-1625
▁17	-1626
▁עליו	-1627
▁הבוקר	-1628
▁photos	-1629
rael	-1630
מעט	-1631
▁ים	-1632
▁רכב	-1633
▁מדהי	-1634
פיות	-1635
roup	-1636
▁הבר	-1637
▁j	-1638
▁מעל	-1639
ופש	-1640
ome	-1641
▁שהיה	-1642
▁לאור	-1643
▁המשטרה	-1644
צד	-1645
שמי	-1646
▁דקות	-1647
טב	-1648
חירות	-1649
▁איכות	-1650
▁בראש	-1651
ount	-1652
▁הטי	-1653
▁חר	-1654
שימה	-1655
▁גול	-1656
בוצה	-1657
▁למח	-1658
ip	-1659
▁וד	-1660
▁שיהיה	-1661
רגע	-1662
▁יכולה	-1663
▁והוא	-1664
אור	-1665
ליך	-1666
.2	-1667
▁מוג	-1668
▁חת	-1669
▁גדולה	-1670
מנ	-1671
▁תוך	-1672
לין	-1673
▁להז	-1674
▁עבר	-1675
▁בתחום	-1676
▁לדעת	-1677
▁Hotel	-1678
חוד	-1679
▁במסגרת	-1680
▁ועל	-1681
,000	-1682
▁איי	-1683
ge	-1684
▁שכל	-1685
ריאות	-1686
ופת	-1687
▁מתק	-1688
▁נשים	-1689
▁מוק	-1690
▁מרו	-1691
▁צפ	-1692
ob	-1693
כוד	-1694
▁ארי	-1695
▁״	-1696
▁30	-1697
▁צוות	-1698
גון	-1699
▁מחפ	-1700
תיות	-1701
▁אלו	-1702
▁מסת	-1703
▁מערכת	-1704
▁שאין	-1705
▁חדשה	-1706
שק	-1707
▁מאח	-1708
וצת	-1709
ink	-1710
וטי	-1711
▁ואז	-1712
az	-1713
out	-1714
▁מיוח	-1715
▁not	-1716
▁ברור	-1717
▁אמן	-1718
><	-1719
▁הכנסת	-1720
נטרנט	-1721
▁“	-1722
▁+	-1723
מודים	-1724
ial	-1725
ובל	-1726
▁מרכז	-1727
',	-1728
תה	-1729
▁מאד	-1730
ווים	-1731
אז	-1732
▁המה	-1733
▁לתת	-1734
▁וט	-1735
▁טיפול	-1736
טות	-1737
▁יב	-1738
▁בהם	-1739
דרות	-1740
▁ובי	-1741
▁בתל	-1742
▁le	-1743
אין	-1744
נסי	-1745
▁עמ	-1746
per	-1747
וליטי	-1748
▁שישי	-1749
▁בנושא	-1750
וכן	-1751
▁הלא	-1752
▁pl	-1753
▁מוד	-1754
וסיף	-1755
בורה	-1756
ניסה	-1757
ביבה	-1758
▁קלי	-1759
▁סל	-1760
נאי	-1761
גישה	-1762
מייל	-1763
▁כסף	-1764
ll	-1765
יום	-1766
הבה	-1767
ook	-1768
ach	-1769
▁פס	-1770
▁Th	-1771
▁תהיה	-1772
▁אתכם	-1773
▁האלה	-1774
אס	-1775
▁Sh	-1776
בן	-1777
13	-1778
דש	-1779
מתי	-1780
מט	-1781
▁בירושלים	-1782
ther	-1783
ורף	-1784
▁כס	-1785
מוע	-1786
ite	-1787
חרות	-1788
▁נכ	-1789
וצאות	-1790
▁למצוא	-1791
זע	-1792
▁שול	-1793
למת	-1794
▁משמעות	-1795
▁24	-1796
▁החי	-1797
▁מידע	-1798
▁לקראת	-1799
יילים	-1800
▁טובים	-1801
▁יחי	-1802
▁נות	-1803
▁לכולם	-1804
▁ירי	-1805
קע	-1806
ביש	-1807
▁קטן	-1808
נהל	-1809
▁באזור	-1810
שיים	-1811
וכה	-1812
אפ	-1813
▁למרות	-1814
▁חדרים	-1815
▁כיף	-1816
----	-1817
▁חוז	-1818
▁אג	-1819
▁צפו	-1820
▁החינו	-1821
עבר	-1822
▁נור	-1823
▁בתוך	-1824
שיר	-1825
▁אמא	-1826
▁וצ	-1827
▁מעניין	-1828
דד	-1829
▁לפחות	-1830
▁באר	-1831
email	-1832
▁לזה	-1833
פתי	-1834
▁טלפון	-1835
ack	-1836
▁כאלה	-1837
sh	-1838
פן	-1839
ents	-1840
.3	-1841
▁מעט	-1842
ark	-1843
תיד	-1844
▁נסי	-1845
טו	-1846
▁שווה	-1847
▁עיר	-1848
יקט	-1849
מני	-1850
ותו	-1851
▁היתה	-1852
▁שאל	-1853
מאס	-1854
15	-1855
ייק	-1856
דיו	-1857
age	-1858
own	-1859
eb	-1860
▁השני	-1861
-3	-1862
▁בשבוע	-1863
▁מסי	-1864
▁ויש	-1865
19	-1866
▁מני	-1867
▁sh	-1868
▁בבע	-1869
▁גיל	-1870
דיה	-1871
זכ	-1872
ould	-1873
▁דני	-1874
▁אחרים	-1875
▁המכ	-1876
ice	-1877
▁עולה	-1878
▁אושר	-1879
▁השמ	-1880
▁מכבי	-1881
▁שונים	-1882
▁הראשונה	-1883
מיים	-1884
שאר	-1885
ירו	-1886
▁חברה	-1887
▁גן	-1888
▁אלף	-1889
ass	-1890
וכלו	-1891
▁פרטי	-1892
סיק	-1893
▁הצל	-1894
▁לסי	-1895
▁דולר	-1896
חם	-1897
פני	-1898
▁wor	-1899
▁מיוחד	-1900
▁ללי	-1901
וחה	-1902
▁ab	-1903
▁ביקור	-1904
פרס	-1905
▁&	-1906
שלום	-1907
רצ	-1908
בצע	-1909
▁נוסף	-1910
אית	-1911
▁צריכים	-1912
▁רואה	-1913
▁מים	-1914
▁יקר	-1915
▁הו	-1916
.0	-1917
▁מצב	-1918
קרים	-1919
▁Is	-1920
▁רוב	-1921
וצאה	-1922
▁תנו	-1923
net	-1924
ind	-1925
:30	-1926
▁מומל	-1927
▁להתח	-1928
pl	-1929
▁הבע	-1930
88	-1931
▁להס	-1932
▁בעל	-1933
45	-1934
ah	-1935
▁לוח	-1936
ודיע	-1937
▁בצורה	-1938
ake	-1939
▁לגבי	-1940
▁חברי	-1941
וצות	-1942
▁ישי	-1943
▁יצא	-1944
סות	-1945
בלה	-1946
▁המקום	-1947
▁100	-1948
זים	-1949
שע	-1950
▁צריכה	-1951
▁הדרך	-1952
כח	-1953
▁כרטי	-1954
▁שמו	-1955
ואל	-1956
טרת	-1957
▁היחי	-1958
▁לבדוק	-1959
▁איל	-1960
▁חברות	-1961
▁זי	-1962
▁אתר	-1963
▁בתק	-1964
▁app	-1965
▁????	-1966
^^	-1967
ייע	-1968
מנה	-1969
▁הודעה	-1970
ype	-1971
▁עור	-1972
▁מילים	-1973
▁השת	-1974
▁חדשים	-1975
▁ילד	-1976
▁החינוך	-1977
נוך	-1978
▁בחינם	-1979
▁שרו	-1980
▁group	-1981
▁תיק	-1982
וכר	-1983
זאת	-1984
▁has	-1985
ich	-1986
מינה	-1987
נסות	-1988
oy	-1989
▁תמונות	-1990
יתר	-1991
▁למס	-1992
רך	-1993
▁חוות	-1994
▁ידע	-1995
▁התא	-1996
▁בסוף	-1997
▁בקי	-1998
▁ליה	-1999
▁החוק	-2000
▁הני	-2001
46	-2002
▁מאי	-2003
▁כמעט	-2004
▁המט	-2005
▁un	-2006
▁הוד	-2007
ress	-2008
יתוח	-2009
▁שאי	-2010
קבל	-2011
קירה	-2012
▁ציבור	-2013
▁ניסיון	-2014
ie	-2015
ood	-2016
/201	-2017
▁החר	-2018
▁יודעת	-2019
ber	-2020
בתי	-2021
גוד	-2022
▁all	-2023
▁אשמח	-2024
▁המרכז	-2025
▁ראשי	-2026
סר	-2027
▁נכנס	-2028
סוף	-2029
▁כנראה	-2030
22	-2031
שון	-2032
ran	-2033
▁קיי	-2034
/0	-2035
af	-2036
▁הקט	-2037
טין	-2038
▁יס	-2039
▁לקחת	-2040
▁!!!!	-2041
▁מצוי	-2042
▁our	-2043
▁טע	-2044
ניהם	-2045
▁עולם	-2046
▁מפל	-2047
▁עבוד	-2048
▁res	-2049
▁זוג	-2050
▁חחחח	-2051
▁תחת	-2052
▁Z	-2053
▁שקלים	-2054
גיד	-2055
▁לראש	-2056
פג	-2057
למי	-2058
▁סופ	-2059
▁חודש	-2060
חלט	-2061
▁חודשים	-2062
▁קורה	-2063
▁מוב	-2064
▁חשמ	-2065
ציב	-2066
▁ליד	-2067
קן	-2068
יהם	-2069
מכ	-2070
▁השירות	-2071
▁reg	-2072
ייי	-2073
▁מילי	-2074
▁עצמו	-2075
▁צבע	-2076
ייב	-2077
▁מנו	-2078
▁מהם	-2079
▁שלמה	-2080
פוך	-2081
▁האוכל	-2082
▁כלל	-2083
ong	-2084
ערך	-2085
סו	-2086
▁21	-2087
▁חושב	-2088
▁מהת	-2089
▁בבקשה	-2090
▁קו	-2091
זרת	-2092
▁שבי	-2093
▁כפי	-2094
▁טעים	-2095
▁אחי	-2096
אום	-2097
▁קצר	-2098
▁חצי	-2099
▁their	-2100
וניות	-2101
▁כפר	-2102
▁מספיק	-2103
ick	-2104
וציא	-2105
גיעה	-2106
.....	-2107
▁פרטים	-2108
▁במרכז	-2109
▁החולים	-2110
חתי	-2111
▁החדשה	-2112
▁לעד	-2113
▁sp	-2114
תף	-2115
▁הרא	-2116
▁נג	-2117
▁שבו	-2118
17	-2119
▁שעה	-2120
▁נפלא	-2121
כלי	-2122
▁סיפור	-2123
אללה	-2124
▁הפועל	-2125
li	-2126
▁העוב	-2127
▁מושלם	-2128
▁ממלי	-2129
שמע	-2130
▁כמובן	-2131
▁other	-2132
▁הביטחון	-2133
▁שחק	-2134
אח	-2135
וסף	-2136
▁לילדים	-2137
דל	-2138
▁פא	-2139
▁הולדת	-2140
▁במר	-2141
זרה	-2142
▁שבה	-2143
▁כדאי	-2144
▁רגע	-2145
▁מאת	-2146
90	-2147
▁אישי	-2148
▁מבין	-2149
סקי	-2150
ברג	-2151
▁הכול	-2152
▁22	-2153
▁do	-2154
▁משחק	-2155
▁איתי	-2156
ואב	-2157
▁להגיב	-2158
ברו	-2159
ומן	-2160
וגה	-2161
▁ובה	-2162
▁ביבי	-2163
▁ממשי	-2164
ime	-2165
▁An	-2166
▁שיע	-2167
▁50	-2168
▁הישראלי	-2169
▁האירוע	-2170
any	-2171
יריית	-2172
שרים	-2173
▁תמונה	-2174
וויזיה	-2175
▁בעיקר	-2176
▁לצאת	-2177
▁כוח	-2178
▁בעצ	-2179
טור	-2180
מוס	-2181
טון	-2182
uc	-2183
▁up	-2184
ליל	-2185
53	-2186
▁הטוב	-2187
ase	-2188
▁נהדר	-2189
▁רבות	-2190
דית	-2191
▁בנוסף	-2192
▁שאנחנו	-2193
16	-2194
▁הבאה	-2195
ומרים	-2196
זם	-2197
▁בסדר	-2198
▁מקבל	-2199
▁מלון	-2200
▁נמצא	-2201
▁ברחוב	-2202
▁סתם	-2203
14	-2204
▁יקרה	-2205
▁This	-2206
מלי	-2207
▁המצ	-2208
▁משפחת	-2209
ally	-2210
▁סג	-2211
▁רשת	-2212
ייחס	-2213
▁לשעבר	-2214
▁It	-2215
▁type	-2216
ומיים	-2217
▁חמישי	-2218
▁האח	-2219
ign	-2220
▁השלי	-2221
pt	-2222
.6	-2223
▁ביי	-2224
▁המלא	-2225
רק	-2226
▁מוזמנים	-2227
ואלי	-2228
ריכה	-2229
חוק	-2230
ue	-2231
▁הדבר	-2232
▁הגר	-2233
▁בעלות	-2234
פיה	-2235
▁להכ	-2236
▁לכן	-2237
ייך	-2238
▁מגוון	-2239
ראו	-2240
▁25	-2241
▁חופ	-2242
are	-2243
▁פעילות	-2244
▁מתאים	-2245
bs	-2246
כלה	-2247
דרום	-2248
▁שאתם	-2249
▁אוויר	-2250
טיבי	-2251
קק	-2252
▁חבל	-2253
קול	-2254
▁כלי	-2255
סס	-2256
▁....	-2257
▁ספק	-2258
▁יודעים	-2259
ונן	-2260
כנית	-2261
▁רמת	-2262
ef	-2263
תרון	-2264
נור	-2265
▁האיר	-2266
iel	-2267
פית	-2268
און	-2269
▁לדבר	-2270
▁שמי	-2271
70	-2272
פקיד	-2273
▁שיל	-2274
eg	-2275
▁מומלץ	-2276
▁מלח	-2277
▁but	-2278
▁כלום	-2279
▁הישראל	-2280
זון	-2281
▁הפס	-2282
▁count	-2283
▁במשך	-2284
קין	-2285
ולוגיה	-2286
חרונה	-2287
ופול	-2288
▁ואם	-2289
▁וכן	-2290
rop	-2291
▁סרט	-2292
ושבים	-2293
▁מתאי	-2294
▁בחיים	-2295
▁תגובות	-2296
ated	-2297
וויה	-2298
ציע	-2299
ound	-2300
ודית	-2301
▁לבן	-2302
▁;	-2303
וגל	-2304
▁מקסים	-2305
▁הולך	-2306
▁להגיד	-2307
▁משפחה	-2308
▁בימים	-2309
ותי	-2310
▁החש	-2311
טרק	-2312
▁out	-2313
▁עליה	-2314
▁לטי	-2315
▁הקרוב	-2316
▁מן	-2317
ile	-2318
▁מציע	-2319
▁יהודה	-2320
▁המשפחה	-2321
▁מנהל	-2322
ions	-2323
וסר	-2324
םםםם	-2325
ian	-2326
▁והמ	-2327
חקים	-2328
▁במצב	-2329
▁מראש	-2330
ציג	-2331
▁היית	-2332
רוס	-2333
▁מקסי	-2334
▁מסע	-2335
▁רוח	-2336
80	-2337
וחים	-2338
▁לישראל	-2339
▁ולכן	-2340
ish	-2341
▁שנות	-2342
▁en	-2343
▁מיני	-2344
▁קפה	-2345
ארד	-2346
▁ללכת	-2347
25	-2348
▁עובד	-2349
נדר	-2350
כום	-2351
▁למשפ	-2352
קון	-2353
▁comp	-2354
רוק	-2355
חית	-2356
▁לקרוא	-2357
▁אוהבים	-2358
▁מעבר	-2359
▁לפנות	-2360
▁מדהימה	-2361
פא	-2362
רבה	-2363
▁me	-2364
דק	-2365
והים	-2366
▁חיל	-2367
▁בואו	-2368
נץ	-2369
▁סוג	-2370
ייט	-2371
כונים	-2372
▁ומח	-2373
▁בבי	-2374
▁בהחלט	-2375
'.	-2376
▁נר	-2377
▁Israel	-2378
▁והס	-2379
▁בגי	-2380
סון	-2381
ועדה	-2382
▁והי	-2383
▁מכירה	-2384
ווירה	-2385
▁שמחה	-2386
com	-2387
▁תוכ	-2388
וסים	-2389
▁והש	-2390
▁האחרונות	-2391
▁מקווה	-2392
נגל	-2393
▁שלישי	-2394
▁int	-2395
▁שהי	-2396
הי	-2397
vi	-2398
▁פנים	-2399
▁so	-2400
▁המד	-2401
▁הרג	-2402
ריק	-2403
▁שעבר	-2404
נטים	-2405
▁הפל	-2406
שטיין	-2407
▁האופ	-2408
▁גבוהה	-2409
▁לכי	-2410
▁הכת	-2411
▁מופ	-2412
▁קוב	-2413
▁לעבוד	-2414
שן	-2415
▁בבר	-2416
▁משי	-2417
▁קודם	-2418
▁בניהול	-2419
▁מהממת	-2420
וחר	-2421
▁כוס	-2422
▁ומס	-2423
▁מיל	-2424
▁בטי	-2425
so	-2426
▁השם	-2427
▁והפ	-2428
int	-2429
▁בעבר	-2430
▁ובר	-2431
▁שות	-2432
▁הרכב	-2433
חיים	-2434
▁טיפ	-2435
44	-2436
▁והא	-2437
▁תב	-2438
ליחה	-2439
▁לשמוע	-2440
▁המחיר	-2441
ous	-2442
▁יעקב	-2443
▁חייב	-2444
לול	-2445
נין	-2446
▁ממנו	-2447
סטר	-2448
▁עוז	-2449
▁והע	-2450
וביץ	-2451
▁המלון	-2452
טרף	-2453
▁למען	-2454
▁וחצי	-2455
gh	-2456
זב	-2457
▁יהיו	-2458
▁יצחק	-2459
סום	-2460
87	-2461
▁1.	-2462
הת	-2463
▁לגמרי	-2464
▁אמיתי	-2465
▁ברשת	-2466
▁בלתי	-2467
▁הנכס	-2468
▁לאורך	-2469
▁בזה	-2470
נלא	-2471
ווקא	-2472
▁במחיר	-2473
0,	-2474
▁לכת	-2475
▁מבחי	-2476
▁ושי	-2477
▁להק	-2478
ליי	-2479
▁כגון	-2480
▁הבחירות	-2481
▁דירה	-2482
▁מהא	-2483
▁בכי	-2484
▁בבעלות	-2485
▁עיצוב	-2486
▁לוק	-2487
עימה	-2488
▁כאילו	-2489
בעת	-2490
▁fe	-2491
▁ליום	-2492
▁קה	-2493
▁דווקא	-2494
▁vers	-2495
ופות	-2496
צילום	-2497
▁more	-2498
able	-2499
▁מאיר	-2500
מריק	-2501
▁they	-2502
▁שלוש	-2503
▁סד	-2504
▁השיר	-2505
▁su	-2506
▁my	-2507
▁country	-2508
▁החלט	-2509
▁האל	-2510
▁האמת	-2511
▁נעים	-2512
▁הגב	-2513
נע	-2514
▁לצד	-2515
▁שגם	-2516
▁לבר	-2517
66	-2518
דורגל	-2519
▁אישית	-2520
▁בפני	-2521
ire	-2522
חש	-2523
אבל	-2524
וניי	-2525
היה	-2526
▁הבל	-2527
נוס	-2528
מיכה	-2529
=1	-2530
▁בפייסבוק	-2531
▁מבית	-2532
▁בנימין	-2533
▁קרה	-2534
▁בבוקר	-2535
33	-2536
▁לחץ	-2537
▁היהודי	-2538
ושי	-2539
▁הדין	-2540
▁שלושה	-2541
▁למכירה	-2542
▁דיווח	-2543
▁בקרוב	-2544
▁האחרונה	-2545
▁מסך	-2546
▁מהר	-2547
▁אוט	-2548
▁בעוד	-2549
▁לעדכן	-2550
▁אליה	-2551
▁בשנה	-2552
▁Sha	-2553
▁מרגש	-2554
▁אנשי	-2555
▁im	-2556
▁אחוז	-2557
ord	-2558
▁טוע	-2559
▁קבוצת	-2560
▁הדברים	-2561
▁מחדש	-2562
▁ne	-2563
▁^	-2564
▁מוח	-2565
▁להבין	-2566
▁ביחד	-2567
▁Am	-2568
▁המוצ	-2569
▁מלאה	-2570
▁טובות	-2571
▁40	-2572
▁משנה	-2573
▁הקבוצה	-2574
▁להח	-2575
▁לעולם	-2576
ופעה	-2577
▁אייל	-2578
ace	-2579
▁ניצ	-2580
רבי	-2581
▁דרו	-2582
▁בשנת	-2583
▁למקום	-2584
▁לילה	-2585
▁מגישה	-2586
▁עובדים	-2587
▁שרי	-2588
דמנות	-2589
▁חזק	-2590
וניים	-2591
▁ברא	-2592
גיות	-2593
▁לעזור	-2594
▁והיא	-2595
פרים	-2596
▁בטח	-2597
לן	-2598
בנה	-2599
צרים	-2600
מטי	-2601
ep	-2602
▁ללמוד	-2603
▁version	-2604
ליח	-2605
▁Al	-2606
▁נוספת	-2607
▁cl	-2608
▁גבר	-2609
וביל	-2610
=3	-2611
ike	-2612
▁דין	-2613
▁ספורט	-2614
▁לכך	-2615
▁עית	-2616
בלו	-2617
▁לעמוד	-2618
שתת	-2619
▁להמשיך	-2620
▁מעור	-2621
▁הלו	-2622
סקים	-2623
נסים	-2624
▁ברוך	-2625
▁pr	-2626
ory	-2627
▁פעולה	-2628
אג	-2629
נתיים	-2630
פגש	-2631
כרה	-2632
לום	-2633
רחי	-2634
▁region	-2635
▁אק	-2636
וקי	-2637
תתתת	-2638
▁תס	-2639
co	-2640
▁לפת	-2641
▁האד	-2642
פוש	-2643
27	-2644
ame	-2645
▁23	-2646
▁חובה	-2647
▁להג	-2648
ליף	-2649
▁אינו	-2650
כונת	-2651
▁נשיא	-2652
▁יוצא	-2653
ותם	-2654
▁שס	-2655
▁מקר	-2656
▁הלילה	-2657
oss	-2658
ודל	-2659
▁ואין	-2660
ליות	-2661
נאים	-2662
▁>>	-2663
▁פעמים	-2664
▁שצריך	-2665
נח	-2666
ונת	-2667
▁If	-2668
מרת	-2669
▁one	-2670
▁ar	-2671
פסת	-2672
מינים	-2673
▁משפט	-2674
▁לאחרונה	-2675
ולוגי	-2676
רכו	-2677
▁לציון	-2678
▁האחרונים	-2679
ההה	-2680
▁ימי	-2681
מיר	-2682
חיק	-2683
ult	-2684
▁עיריית	-2685
▁כוחות	-2686
נויות	-2687
▁המוש	-2688
▁זוה	-2689
אט	-2690
כמה	-2691
▁עשרות	-2692
▁בינו	-2693
▁אישה	-2694
▁וכי	-2695
60	-2696
מנת	-2697
▁חמ	-2698
▁ac	-2699
▁יוסי	-2700
ond	-2701
לקת	-2702
זית	-2703
▁לשם	-2704
שירים	-2705
מרים	-2706
▁יופי	-2707
▁מדינת	-2708
טיח	-2709
ery	-2710
ריי	-2711
מונים	-2712
ברסי	-2713
▁הקה	-2714
מבר	-2715
▁ואח	-2716
בוש	-2717
18	-2718
▁מקומות	-2719
▁באש	-2720
▁עסקים	-2721
▁חוץ	-2722
ארק	-2723
▁ארה	-2724
ציאות	-2725
▁הרכ	-2726
▁בהמשך	-2727
▁אליו	-2728
▁עליך	-2729
▁שימוש	-2730
▁אכ	-2731
▁אבא	-2732
▁הסט	-2733
▁איתך	-2734
▁הנשיא	-2735
אלו	-2736
▁תהנו	-2737
▁שיי	-2738
▁חתי	-2739
▁הצע	-2740
▁הזכ	-2741
נועה	-2742
-4	-2743
נצ	-2744
▁לעצ	-2745
▁שומ	-2746
▁בפרטי	-2747
▁הפעם	-2748
.9	-2749
▁[	-2750
▁cont	-2751
▁והח	-2752
▁אחלה	-2753
▁יפ	-2754
▁השה	-2755
▁Phot	-2756
▁קטנה	-2757
▁בתא	-2758
▁ומק	-2759
ונג	-2760
▁כוכ	-2761
old	-2762
▁ככל	-2763
?!	-2764
▁לתי	-2765
ורג	-2766
ורס	-2767
▁למת	-2768
▁תות	-2769
▁כבוד	-2770
▁הצה	-2771
▁ולי	-2772
▁בערב	-2773
צעים	-2774
▁עצמי	-2775
▁תקווה	-2776
ודת	-2777
▁שופ	-2778
▁לאכול	-2779
▁ומא	-2780
וגר	-2781
ניון	-2782
▁האמריק	-2783
▁מדינה	-2784
▁הרח	-2785
▁work	-2786
▁כעת	-2787
▁משום	-2788
▁במת	-2789
רוע	-2790
▁ולע	-2791
▁יוסף	-2792
וטר	-2793
▁מהש	-2794
▁גבי	-2795
לקוחות	-2796
▁בעיה	-2797
מוקר	-2798
port	-2799
ary	-2800
▁פתח	-2801
cl	-2802
29	-2803
ram	-2804
▁נט	-2805
▁ev	-2806
▁ישראלי	-2807
24	-2808
נל	-2809
imel	-2810
כונה	-2811
לונות	-2812
▁about	-2813
reat	-2814
כך	-2815
כב	-2816
ne	-2817
▁רואים	-2818
▁בנק	-2819
▁לתק	-2820
▁מאות	-2821
וער	-2822
▁בחודש	-2823
▁חב	-2824
ממ	-2825
▁צוד	-2826
▁his	-2827
שיבה	-2828
ose	-2829
▁התר	-2830
77	-2831
for	-2832
▁הכר	-2833
▁לקנות	-2834
רויקט	-2835
▁ונו	-2836
▁חשבון	-2837
גדל	-2838
▁כמוך	-2839
▁בטל	-2840
▁אלפי	-2841
עון	-2842
▁מתאימה	-2843
▁הבריאות	-2844
▁2015	-2845
▁זהו	-2846
▁מנכ	-2847
▁גלי	-2848
▁אומרים	-2849
▁ארוחת	-2850
▁התורה	-2851
▁יאיר	-2852
▁קא	-2853
▁לדי	-2854
▁לחזור	-2855
▁בבעלותך	-2856
ok	-2857
▁הסת	-2858
▁ענ	-2859
וכים	-2860
▁ערוץ	-2861
טוח	-2862
▁בניהולך	-2863
▁לאתר	-2864
▁ראיתי	-2865
ניף	-2866
רגש	-2867
רכזי	-2868
▁ושל	-2869
▁העונה	-2870
▁מתנה	-2871
▁$	-2872
זוג	-2873
המ	-2874
▁לבין	-2875
▁ברחבי	-2876
▁60	-2877
▁הגיעו	-2878
▁צפיות	-2879
ייף	-2880
26	-2881
▁המשחק	-2882
▁־	-2883
רוני	-2884
▁דירות	-2885
▁לעומת	-2886
ופו	-2887
▁רעי	-2888
uct	-2889
גרם	-2890
גישות	-2891
▁השמאל	-2892
act	-2893
זרח	-2894
▁הפנים	-2895
▁כולנו	-2896
כוו	-2897
▁קרוב	-2898
▁לחצו	-2899
▁הישראלית	-2900
.8	-2901
▁מחפשים	-2902
▁ראשונה	-2903
io	-2904
▁לקוחות	-2905
רון	-2906
▁ידידות	-2907
▁:-	-2908
ron	-2909
▁טרא	-2910
מץ	-2911
▁להא	-2912
כוי	-2913
▁מבצע	-2914
▁צר	-2915
כונות	-2916
ews	-2917
▁מצד	-2918
▁האתר	-2919
▁ראי	-2920
▁פרסום	-2921
▁חדר	-2922
▁בזכות	-2923
מחה	-2924
וריד	-2925
▁פרק	-2926
▁המג	-2927
▁ההי	-2928
▁בפי	-2929
▁למט	-2930
יינים	-2931
כנה	-2932
בריו	-2933
▁וני	-2934
▁אינ	-2935
▁i	-2936
▁במקרה	-2937
מום	-2938
▁הצוות	-2939
▁יהודים	-2940
▁חם	-2941
צליח	-2942
▁נכתב	-2943
מצא	-2944
קוד	-2945
▁Co	-2946
שבת	-2947
יתוף	-2948
סיס	-2949
▁שד	-2950
other	-2951
▁מסוג	-2952
פיים	-2953
▁שמאל	-2954
שבוע	-2955
▁שחר	-2956
▁לבע	-2957
▁ליהנות	-2958
▁ארגון	-2959
מודד	-2960
▁במרחק	-2961
ays	-2962
▁אפשרות	-2963
למים	-2964
▁הצטר	-2965
בירות	-2966
ותה	-2967
▁off	-2968
▁שקי	-2969
▁אורי	-2970
▁ורק	-2971
▁שאלה	-2972
▁להביא	-2973
7,	-2974
▁also	-2975
ree	-2976
▁לפיד	-2977
▁איתו	-2978
שרי	-2979
▁לומר	-2980
▁האוויר	-2981
ווא	-2982
▁גא	-2983
רוחת	-2984
▁מהע	-2985
כנת	-2986
▁בנות	-2987
▁המלצה	-2988
אתה	-2989
סור	-2990
▁שינוי	-2991
▁מחכה	-2992
▁Photos	-2993
▁המועצה	-2994
ash	-2995
▁דה	-2996
▁והם	-2997
קשר	-2998
▁ישר	-2999
▁הבעיה	-3000
▁תלמי	-3001
▁במדינה	-3002
▁הטר	-3003
▁עשה	-3004
▁בשוק	-3005
וטרים	-3006
imeline	-3007
▁דוג	-3008
▁לייק	-3009
▁מטר	-3010
ens	-3011
▁בנט	-3012
▁היינו	-3013
חחח	-3014
קלון	-3015
▁פול	-3016
.4	-3017
▁טור	-3018
of	-3019
ופס	-3020
▁אימייל	-3021
▁נב	-3022
▁רביעי	-3023
ושב	-3024
▁לשנות	-3025
▁שנו	-3026
▁מוסי	-3027
ברמן	-3028
▁טכנ	-3029
▁תצ	-3030
לוו	-3031
▁סמ	-3032
▁היל	-3033
חיות	-3034
▁רצי	-3035
פוי	-3036
ולת	-3037
.7	-3038
▁עסק	-3039
נסט	-3040
פייה	-3041
▁חגי	-3042
aid	-3043
▁עלייך	-3044
ביעה	-3045
זרו	-3046
▁בול	-3047
▁אכן	-3048
▁עלה	-3049
אק	-3050
יד	-3051
▁Ar	-3052
ove	-3053
דרי	-3054
▁עליהם	-3055
▁חניה	-3056
שימת	-3057
▁תז	-3058
▁במג	-3059
ווו	-3060
▁אולם	-3061
▁היקר	-3062
▁מאפשר	-3063
▁which	-3064
▁פתי	-3065
▁איזו	-3066
▁מיוחדת	-3067
▁ברמה	-3068
ely	-3069
▁time	-3070
▁הילד	-3071
▁רש	-3072
בחרת	-3073
מיה	-3074
▁טרי	-3075
▁סטוד	-3076
מובן	-3077
▁יז	-3078
▁ושמ	-3079
▁האדם	-3080
▁המצב	-3081
▁וכו	-3082
▁מקור	-3083
▁תושבי	-3084
▁Timeline	-3085
▁מקצועי	-3086
▁כיום	-3087
אנו	-3088
/101	-3089
▁זק	-3090
▁הליכוד	-3091
ical	-3092
▁בגיל	-3093
▁בידי	-3094
באי	-3095
▁RT	-3096
צרו	-3097
בורך	-3098
עש	-3099
ועד	-3100
:)	-3101
▁יחס	-3102
▁כרגע	-3103
מדה	-3104
▁<3	-3105
****	-3106
▁סיי	-3107
▁As	-3108
-5	-3109
▁who	-3110
ence	-3111
ניינים	-3112
▁בשר	-3113
▁אומרת	-3114
▁כשא	-3115
סוי	-3116
ident	-3117
▁get	-3118
▁דא	-3119
▁שונות	-3120
▁הצד	-3121
vis	-3122
▁qu	-3123
▁מחפש	-3124
▁פרץ	-3125
ראית	-3126
וזה	-3127
נויים	-3128
▁בהתאם	-3129
▁השנים	-3130
▁❤	-3131
▁ובכל	-3132
ומט	-3133
▁העם	-3134
▁בור	-3135
▁נפת	-3136
▁פלא	-3137
▁עלינו	-3138
▁year	-3139
▁מילה	-3140
ug	-3141
ובע	-3142
▁מיליארד	-3143
▁רופ	-3144
▁00	-3145
▁שבא	-3146
▁מאשר	-3147
▁משתמש	-3148
▁והה	-3149
▁נפג	-3150
ek	-3151
▁להשי	-3152
▁פלי	-3153
מנית	-3154
יינו	-3155
▁דף	-3156
כרון	-3157
ניב	-3158
▁גולן	-3159
fi	-3160
גרות	-3161
▁Bar	-3162
צחון	-3163
▁פעיל	-3164
▁וז	-3165
פלא	-3166
61	-3167
פך	-3168
▁סב	-3169
▁עמו	-3170
▁לנסות	-3171
>,	-3172
עדי	-3173
גרים	-3174
▁נחת	-3175
▁אלינו	-3176
▁נוספות	-3177
אפשר	-3178
▁נפש	-3179
▁בצפון	-3180
▁למשל	-3181
▁se	-3182
▁פוליטי	-3183
כתי	-3184
▁ואף	-3185
▁צורך	-3186
▁Ben	-3187
▁חוג	-3188
▁Ch	-3189
▁עשו	-3190
שהי	-3191
▁הסרט	-3192
▁ההס	-3193
צית	-3194
▁ארג	-3195
▁מיד	-3196
▁הרפ	-3197
ריכים	-3198
▁אצלנו	-3199
▁מתחת	-3200
▁הממו	-3201
▁התקשורת	-3202
▁per	-3203
▁ואל	-3204
וספת	-3205
▁בקרב	-3206
95	-3207
elect	-3208
▁לכול	-3209
28	-3210
▁חוב	-3211
▁המשך	-3212
▁הביתה	-3213
ock	-3214
יתות	-3215
▁פקס	-3216
▁טלוויזיה	-3217
▁בעניין	-3218
▁נחמד	-3219
קם	-3220
וויטר	-3221
▁יקרים	-3222
ולדת	-3223
▁תרו	-3224
▁הצלחה	-3225
▁Ad	-3226
כנים	-3227
▁משות	-3228
▁במלון	-3229
▁חייבים	-3230
▁הים	-3231
נב	-3232
▁מהי	-3233
▁המב	-3234
▁מצו	-3235
▁במק	-3236
וגרים	-3237
erv	-3238
▁כות	-3239
פרד	-3240
נסו	-3241
▁קרן	-3242
▁מידי	-3243
itt	-3244
▁לשמור	-3245
▁—	-3246
???	-3247
צבע	-3248
▁תוכלו	-3249
נתה	-3250
▁למעלה	-3251
48	-3252
מסר	-3253
ובוס	-3254
▁לעוד	-3255
פריט	-3256
▁מנד	-3257
65	-3258
▁פלסטי	-3259
▁בארה	-3260
סטוריה	-3261
▁אירועים	-3262
▁עמי	-3263
שבון	-3264
▁יהודי	-3265
בלת	-3266
▁תומ	-3267
בלות	-3268
▁להסת	-3269
גיעו	-3270
יתית	-3271
▁השק	-3272
▁חן	-3273
▁בך	-3274
ונד	-3275
▁אול	-3276
▁לאומי	-3277
▁ליצור	-3278
use	-3279
ניתן	-3280
פילו	-3281
פורמה	-3282
שורים	-3283
▁her	-3284
iss	-3285
ere	-3286
ייג	-3287
eren	-3288
43	-3289
▁ידוע	-3290
▁ממשלה	-3291
דרים	-3292
ידי	-3293
▁השופ	-3294
▁תוכנית	-3295
75	-3296
▁פיר	-3297
▁ברכב	-3298
▁לעבור	-3299
ors	-3300
▁go	-3301
▁לחיות	-3302
וטו	-3303
▁עניין	-3304
▁מדבר	-3305
ריז	-3306
גנה	-3307
▁חסר	-3308
▁הטל	-3309
ננה	-3310
▁אחריות	-3311
▁מחירים	-3312
▁ובת	-3313
▁מנסה	-3314
▁לרכ	-3315
רגיל	-3316
▁New	-3317
▁עזה	-3318
▁לגל	-3319
נוק	-3320
▁מתוק	-3321
▁בוד	-3322
ts	-3323
דאו	-3324
▁הפת	-3325
▁וואו	-3326
▁עצוב	-3327
▁סביב	-3328
▁בשבת	-3329
פד	-3330
▁We	-3331
▁ההורים	-3332
ations	-3333
▁שירותי	-3334
▁מפר	-3335
▁part	-3336
▁הבנתי	-3337
אש	-3338
▁חרי	-3339
▁והר	-3340
▁וואלה	-3341
▁עבודות	-3342
▁אברה	-3343
▁לפעמים	-3344
▁הורים	-3345
▁ההצ	-3346
▁וחי	-3347
▁תגובה	-3348
סקה	-3349
▁אזור	-3350
▁קצ	-3351
der	-3352
רגל	-3353
טן	-3354
ודר	-3355
▁בעזרת	-3356
▁some	-3357
mer	-3358
אד	-3359
▁לשתף	-3360
ings	-3361
▁ch	-3362
▁בושה	-3363
▁לבחור	-3364
דינות	-3365
▁מכיר	-3366
▁בשם	-3367
▁לראשונה	-3368
▁הטבע	-3369
▁גיא	-3370
▁המפ	-3371
▁לעי	-3372
▁לבצע	-3373
▁מיר	-3374
עע	-3375
▁2017	-3376
▁מאחורי	-3377
uy	-3378
טרון	-3379
שלי	-3380
ition	-3381
▁לימוד	-3382
ופיע	-3383
דוש	-3384
▁בעת	-3385
▁להישאר	-3386
לילה	-3387
▁כיצד	-3388
▁Le	-3389
▁סרטון	-3390
▁תד	-3391
חלטה	-3392
פלגה	-3393
שאים	-3394
ממה	-3395
▁חחחחחחחחח	-3396
▁נשמע	-3397
▁החבר	-3398
שובה	-3399
▁תיא	-3400
▁שהע	-3401
געת	-3402
▁סוכ	-3403
מניה	-3404
כולת	-3405
▁tra	-3406
▁תור	-3407
▁הגדולה	-3408
▁ממה	-3409
▁משק	-3410
יקה	-3411
▁כב	-3412
▁העירייה	-3413
▁לעצמ	-3414
▁ליל	-3415
▁been	-3416
▁ערך	-3417
▁להעביר	-3418
96	-3419
טיה	-3420
▁ליר	-3421
▁האמ	-3422
▁ההודעה	-3423
▁האש	-3424
פעל	-3425
▁כפ	-3426
וסק	-3427
צועים	-3428
▁like	-3429
▁עזרה	-3430
▁לבוא	-3431
▁יוע	-3432
9,	-3433
▁אצלי	-3434
▁פינ	-3435
▁הדר	-3436
▁נשי	-3437
▁הנסי	-3438
The	-3439
▁רומ	-3440
lease	-3441
ang	-3442
בירה	-3443
נדי	-3444
ערה	-3445
▁נשאר	-3446
▁להשתמש	-3447
▁דח	-3448
▁החליט	-3449
▁הפלסטי	-3450
▁בצה	-3451
ותרת	-3452
ריאה	-3453
▁לעבר	-3454
▁זכויות	-3455
▁והצ	-3456
מלא	-3457
▁ניהול	-3458
▁מערכות	-3459
▁מכן	-3460
▁דומה	-3461
▁השאלה	-3462
שתה	-3463
▁נצ	-3464
▁am	-3465
▁כתובת	-3466
▁זר	-3467
▁them	-3468
▁דרוש	-3469
▁פסי	-3470
▁אמש	-3471
▁לבח	-3472
▁ag	-3473
▁סול	-3474
▁שג	-3475
▁תרבות	-3476
▁Av	-3477
ייש	-3478
▁רכי	-3479
▁החת	-3480
▁הפוסט	-3481
▁הסיפור	-3482
ck	-3483
▁לגר	-3484
irst	-3485
ever	-3486
▁סבא	-3487
עוץ	-3488
▁כמות	-3489
רוך	-3490
▁שיכול	-3491
קלא	-3492
ליקציה	-3493
▁להיכנס	-3494
▁האוצר	-3495
▁הבאים	-3496
/7	-3497
נאה	-3498
▁נקודות	-3499
▁2.	-3500
▁צל	-3501
מדים	-3502
▁dis	-3503
▁היתר	-3504
........	-3505
הא	-3506
שיבות	-3507
▁שכן	-3508
▁הקשר	-3509
▁©	-3510
▁עוצ	-3511
▁מיכל	-3512
מפיין	-3513
wn	-3514
icha	-3515
▁באיר	-3516
נקים	-3517
▁בסיס	-3518
▁שהיו	-3519
▁חשבתי	-3520
דינת	-3521
cess	-3522
▁בחיפה	-3523
▁עצמ	-3524
▁מנות	-3525
▁רוע	-3526
air	-3527
▁להוסיף	-3528
▁לרבות	-3529
▁ממשלת	-3530
1,	-3531
אתם	-3532
▁בצי	-3533
צוני	-3534
▁עקב	-3535
▁חולים	-3536
ליטה	-3537
ml	-3538
▁חינוך	-3539
be	-3540
קוב	-3541
▁אשדוד	-3542
tal	-3543
▁שנתיים	-3544
רוג	-3545
▁ועדת	-3546
▁הליכה	-3547
▁רחוב	-3548
▁במשרד	-3549
▁ניס	-3550
▁2018	-3551
▁לשלוח	-3552
-20	-3553
▁העליון	-3554
▁דניאל	-3555
רגיה	-3556
▁בחום	-3557
ana	-3558
▁מרי	-3559
-201	-3560
▁ווי	-3561
▁אלוף	-3562
פקת	-3563
טיות	-3564
▁עומד	-3565
▁:-)	-3566
▁שנע	-3567
▁גדולים	-3568
ild	-3569
▁אשת	-3570
▁סיפר	-3571
נדה	-3572
▁120	-3573
וניברסי	-3574
▁האנשים	-3575
▁בעצם	-3576
ןןןן	-3577
ואליציה	-3578
בריה	-3579
▁לעבודה	-3580
לג	-3581
▁מגיעים	-3582
▁איראן	-3583
למידים	-3584
▁חושבת	-3585
זיק	-3586
▁בתור	-3587
שיות	-3588
דימה	-3589
▁המקצוע	-3590
▁לטובת	-3591
ארט	-3592
אתי	-3593
ממת	-3594
▁דרי	-3595
▁תקשורת	-3596
רבעה	-3597
▁סופר	-3598
▁מחפשת	-3599
▁אינה	-3600
▁בוא	-3601
ham	-3602
▁kn	-3603
▁עונה	-3604
וקת	-3605
▁מקרה	-3606
▁להפוך	-3607
▁מיכ	-3608
▁לשלם	-3609
2,	-3610
▁אמרה	-3611
▁מתחיל	-3612
▁צד	-3613
קדם	-3614
דבר	-3615
▁אגב	-3616
▁26	-3617
▁קיים	-3618
oll	-3619
קיע	-3620
שתי	-3621
▁לגי	-3622
▁צבי	-3623
▁ורו	-3624
▁feel	-3625
▁השרון	-3626
93	-3627
שששש	-3628
▁אתי	-3629
▁לאירוע	-3630
כלית	-3631
▁המר	-3632
▁if	-3633
▁any	-3634
▁רוז	-3635
תודה	-3636
▁התפ	-3637
▁אהבתי	-3638
▁אמת	-3639
▁ממני	-3640
▁sc	-3641
▁מחוץ	-3642
▁היד	-3643
▁90	-3644
▁האר	-3645
we	-3646
▁need	-3647
day	-3648
▁הוצ	-3649
סטיבל	-3650
ובד	-3651
▁בשעות	-3652
▁עדיף	-3653
▁המדה	-3654
te	-3655
בוא	-3656
בוי	-3657
▁סר	-3658
▁השבת	-3659
רבים	-3660
▁מאמין	-3661
▁when	-3662
na	-3663
▁מושלמת	-3664
▁יפים	-3665
חיב	-3666
▁כלפי	-3667
▁לידי	-3668
וקף	-3669
▁ממנה	-3670
▁העל	-3671
ance	-3672
▁לאנשים	-3673
▁לקי	-3674
▁נמוך	-3675
▁שכר	-3676
-0	-3677
▁חייבת	-3678
אאאא	-3679
▁עצמה	-3680
▁המים	-3681
▁השתת	-3682
▁פוע	-3683
▁מהח	-3684
▁שרון	-3685
▁מירי	-3686
▁בלילה	-3687
▁ירו	-3688
▁ניר	-3689
ital	-3690
▁משא	-3691
▁28	-3692
▁לבני	-3693
▁מאושר	-3694
▁than	-3695
מורת	-3696
▁שאפשר	-3697
ראיון	-3698
קסט	-3699
▁te	-3700
▁המשת	-3701
ראים	-3702
▁לחלו	-3703
ater	-3704
98	-3705
▁מבר	-3706
▁over	-3707
▁הקוד	-3708
▁לדעתי	-3709
▁עין	-3710
▁צור	-3711
son	-3712
סטים	-3713
▁שתפו	-3714
חרר	-3715
ey	-3716
▁ובא	-3717
▁ברמת	-3718
▁לשחק	-3719
▁מציעים	-3720
▁לתח	-3721
--------	-3722
200	-3723
▁לני	-3724
ליו	-3725
▁המוב	-3726
פחה	-3727
47	-3728
▁שהמ	-3729
▁הנחה	-3730
▁לאורחים	-3731
▁נמצאים	-3732
▁נחש	-3733
97	-3734
נצי	-3735
____	-3736
▁גרי	-3737
▁בחברה	-3738
▁מוצרים	-3739
▁מתע	-3740
▁ולח	-3741
▁אלון	-3742
▁there	-3743
▁הודי	-3744
sk	-3745
▁זכות	-3746
▁להתחיל	-3747
.201	-3748
▁נשמה	-3749
ושה	-3750
▁בוח	-3751
▁מפלגת	-3752
▁קטנים	-3753
▁כניסה	-3754
וטים	-3755
▁El	-3756
אלות	-3757
▁what	-3758
למה	-3759
▁another	-3760
▁אברהם	-3761
▁רפואה	-3762
הליך	-3763
מיות	-3764
זמן	-3765
▁others	-3766
▁חשמל	-3767
amp	-3768
בוץ	-3769
▁חוזר	-3770
▁לחשוב	-3771
▁למד	-3772
▁הרשמי	-3773
rip	-3774
▁שיער	-3775
▁רקע	-3776
▁לפתוח	-3777
▁השחק	-3778
events	-3779
▁דג	-3780
▁גרם	-3781
rit	-3782
anc	-3783
form	-3784
קביל	-3785
▁הפרי	-3786
בקרים	-3787
▁רה	-3788
בקש	-3789
נוסף	-3790
▁החוץ	-3791
וגות	-3792
▁לחלוטין	-3793
▁ילדה	-3794
▁pre	-3795
טרקציות	-3796
מרו	-3797
▁נושא	-3798
▁מהס	-3799
▁הוג	-3800
▁אילת	-3801
▁מצחיק	-3802
▁להזמין	-3803
▁משלוח	-3804
▁לצע	-3805
שמל	-3806
▁נצי	-3807
רחב	-3808
▁מלך	-3809
▁pe	-3810
▁טראמפ	-3811
▁קבלת	-3812
▁ביה	-3813
▁פתוח	-3814
ועדת	-3815
וטה	-3816
▁אסור	-3817
▁בקלות	-3818
▁נעשה	-3819
▁ועם	-3820
▁מונ	-3821
ריקה	-3822
כוח	-3823
▁ואנחנו	-3824
▁פות	-3825
▁ויר	-3826
▁חחחחחח	-3827
▁2014	-3828
▁הגוף	-3829
ווית	-3830
▁ביטוח	-3831
ning	-3832
▁האימייל	-3833
נתן	-3834
▁לשבת	-3835
▁וכמובן	-3836
▁אוי	-3837
21	-3838
מרות	-3839
▁כע	-3840
▁לחת	-3841
▁just	-3842
ID	-3843
▁רמ	-3844
עדון	-3845
▁באהבה	-3846
▁היחידה	-3847
html	-3848
▁אחרות	-3849
▁ליברמן	-3850
▁אוב	-3851
▁אוק	-3852
▁would	-3853
▁להתע	-3854
ילוב	-3855
פרו	-3856
▁באירוע	-3857
יימת	-3858
▁שקט	-3859
▁מחש	-3860
▁שבר	-3861
▁מוצרי	-3862
▁נתניה	-3863
▁רוט	-3864
▁כתבה	-3865
▁צפוי	-3866
▁ro	-3867
▁בחוץ	-3868
▁webs	-3869
▁הביקור	-3870
נינו	-3871
▁Mar	-3872
igh	-3873
▁בעד	-3874
▁האור	-3875
▁יעוץ	-3876
פרת	-3877
▁להשיג	-3878
זין	-3879
▁הוב	-3880
▁בפעם	-3881
▁באותו	-3882
5,	-3883
▁שרה	-3884
▁נהדרת	-3885
avid	-3886
ניח	-3887
▁שמה	-3888
הוב	-3889
טיים	-3890
▁שהח	-3891
נאות	-3892
דיק	-3893
▁רפואי	-3894
▁כרטיסים	-3895
ech	-3896
▁להור	-3897
▁2016	-3898
▁בשנים	-3899
▁להחז	-3900
▁וסי	-3901
▁כזו	-3902
==	-3903
▁דוא	-3904
:0	-3905
▁רשות	-3906
oth	-3907
▁You	-3908
▁מסר	-3909
▁התמונה	-3910
רוכה	-3911
טיס	-3912
▁ובמ	-3913
אנחנו	-3914
▁הירקון	-3915
פרט	-3916
▁חכ	-3917
▁מהמם	-3918
▁had	-3919
שמו	-3920
67	-3921
ade	-3922
▁השנייה	-3923
▁שונה	-3924
▁פורסם	-3925
▁de	-3926
▁דובר	-3927
▁דלת	-3928
▁שיתוף	-3929
מינו	-3930
/8	-3931
▁שחור	-3932
ouse	-3933
▁לכבוד	-3934
▁ממליץ	-3935
▁קורס	-3936
שייה	-3937
▁לעיל	-3938
▁המצור	-3939
▁תקופה	-3940
מנט	-3941
▁לזכ	-3942
▁קוד	-3943
▁הקול	-3944
נלאומי	-3945
▁יאללה	-3946
."	-3947
▁אותן	-3948
▁בשטח	-3949
▁להוציא	-3950
וכי	-3951
▁נמסר	-3952
▁נז	-3953
▁were	-3954
▁מדוע	-3955
▁כשמ	-3956
▁שיניים	-3957
טא	-3958
itz	-3959
כתובת	-3960
▁73	-3961
uch	-3962
▁שמן	-3963
▁מראה	-3964
▁שכבר	-3965
דובר	-3966
כנו	-3967
▁הזדמנות	-3968
▁שרק	-3969
▁מוכן	-3970
fter	-3971
לללל	-3972
ציק	-3973
▁נפצע	-3974
▁עתיד	-3975
▁צבא	-3976
עיף	-3977
דרש	-3978
▁באור	-3979
▁27	-3980
63	-3981
ודיעין	-3982
hed	-3983
וונים	-3984
פוץ	-3985
פיע	-3986
▁הסכם	-3987
גרש	-3988
▁ידידותי	-3989
חקי	-3990
▁רוס	-3991
גובות	-3992
▁בכך	-3993
▁הזכויות	-3994
▁הינו	-3995
פתחות	-3996
▁הכסף	-3997
▁ליצ	-3998
גדול	-3999
▁עובר	-4000
▁אמרתי	-4001
▁website	-4002
▁חזרה	-4003
:3	-4004
כנון	-4005
▁its	-4006
▁פופול	-4007
▁הקיץ	-4008
xt	-4009
▁בדרום	-4010
▁הללו	-4011
לוונטי	-4012
▁גברים	-4013
▁הפרטים	-4014
פוס	-4015
▁איתן	-4016
▁הברית	-4017
ריט	-4018
')	-4019
▁how	-4020
▁אהובה	-4021
טט	-4022
▁אמרו	-4023
שלח	-4024
▁בסך	-4025
▁משתת	-4026
lp	-4027
▁קבוצה	-4028
ונס	-4029
▁סיבה	-4030
תו	-4031
▁יצי	-4032
▁יוצג	-4033
▁קוראים	-4034
▁התוכנית	-4035
over	-4036
▁בתוכנית	-4037
❤❤	-4038
▁כנגד	-4039
▁מתה	-4040
יימים	-4041
▁rec	-4042
▁קובץ	-4043
עדות	-4044
▁מהה	-4045
▁סק	-4046
▁He	-4047
▁ever	-4048
םםם	-4049
קשת	-4050
lev	-4051
נפ	-4052
▁כשר	-4053
▁אורחים	-4054
▁ציוצים	-4055
▁טעם	-4056
▁לבקר	-4057
▁המנה	-4058
▁בכנסת	-4059
ople	-4060
▁לשים	-4061
▁במערכת	-4062
ina	-4063
מישי	-4064
ושת	-4065
חדש	-4066
mal	-4067
▁בגין	-4068
▁מכת	-4069
מורה	-4070
▁שניה	-4071
▁first	-4072
נשי	-4073
▁שאלות	-4074
ans	-4075
בני	-4076
▁מלי	-4077
▁אמור	-4078
▁מהבית	-4079
▁שוקולד	-4080
▁men	-4081
▁מקבלים	-4082
ונו	-4083
▁מציעה	-4084
סוק	-4085
וונה	-4086
▁היטב	-4087
▁כזאת	-4088
▁נותן	-4089
נש	-4090
▁שונ	-4091
▁שאם	-4092
▁פיתוח	-4093
▁להרחיב	-4094
מדו	-4095
▁חולה	-4096
▁ילדי	-4097
▁חח	-4098
▁חזר	-4099
ual	-4100
▁מזון	-4101
▁המוס	-4102
▁כרטיס	-4103
▁קמ	-4104
▁שבועות	-4105
וניינים	-4106
ict	-4107
כתבה	-4108
סא	-4109
ner	-4110
▁הנא	-4111
▁חלב	-4112
והבת	-4113
▁מרח	-4114
▁לקבלת	-4115
▁ציל	-4116
תתת	-4117
▁יג	-4118
▁Cohen	-4119
▁משטרת	-4120
▁העצ	-4121
▁פיננסי	-4122
▁70	-4123
ert	-4124
זרים	-4125
▁מרת	-4126
ool	-4127
Shared	-4128
פורים	-4129
▁העסק	-4130
▁בהי	-4131
▁בתגובה	-4132
▁select	-4133
▁למנוע	-4134
טיק	-4135
▁חסי	-4136
▁ביר	-4137
פנים	-4138
▁לישון	-4139
▁עת	-4140
▁שמס	-4141
▁מיוחדים	-4142
ודע	-4143
בלי	-4144
▁לרו	-4145
▁ועכשיו	-4146
▁החדשות	-4147
▁כדור	-4148
▁בלא	-4149
▁עדן	-4150
וניין	-4151
▁דל	-4152
▁במידה	-4153
▁מבינה	-4154
סול	-4155
▁העית	-4156
▁לטע	-4157
▁גורם	-4158
▁יהודית	-4159
▁נתן	-4160
חרי	-4161
▁בשיתוף	-4162
▁1,	-4163
▁bl	-4164
מנע	-4165
▁X	-4166
▁רחב	-4167
40,	-4168
קף	-4169
▁עליי	-4170
▁חנות	-4171
ER	-4172
▁מכשירים	-4173
▁עמית	-4174
▁והג	-4175
here	-4176
▁המשי	-4177
▁לכתוב	-4178
▁יית	-4179
▁סדר	-4180
▁מבחינת	-4181
▁התנה	-4182
▁חמאס	-4183
▁מצוין	-4184
▁משחקים	-4185
aw	-4186
▁חושבים	-4187
▁גאה	-4188
ons	-4189
לבום	-4190
▁קופ	-4191
שויות	-4192
▁שימו	-4193
▁באמצע	-4194
יתים	-4195
▁ועי	-4196
▁שנק	-4197
▁אלב	-4198
חלון	-4199
▁פרסומת	-4200
▁עצמם	-4201
כלים	-4202
▁דו	-4203
▁המערכת	-4204
▁נקי	-4205
▁סמו	-4206
▁said	-4207
▁ארוך	-4208
▁ואפילו	-4209
▁גביר	-4210
▁נורא	-4211
▁דרעי	-4212
▁בחר	-4213
▁שמעון	-4214
▁צהריים	-4215
▁סיר	-4216
▁ברגע	-4217
▁במכ	-4218
>/?	-4219
▁מתן	-4220
":	-4221
ףףףף	-4222
▁מזמן	-4223
▁ופר	-4224
▁העיקר	-4225
▁גמר	-4226
▁קבוע	-4227
▁דן	-4228
▁תכנית	-4229
▁ולהת	-4230
▁into	-4231
▁בתחילת	-4232
▁סמוך	-4233
▁des	-4234
ולחן	-4235
▁לציין	-4236
▁אוח	-4237
▁קשור	-4238
▁סא	-4239
▁קלא	-4240
▁פרויקט	-4241
▁אריאל	-4242
▁קונ	-4243
▁ושירות	-4244
▁תורה	-4245
>.1	-4246
▁תינו	-4247
-6	-4248
▁הנת	-4249
▁המצורף	-4250
▁ציון	-4251
▁ואמר	-4252
▁נתי	-4253
▁היקרה	-4254
▁אדי	-4255
▁אודות	-4256
בתא	-4257
▁לצפות	-4258
▁פוסט	-4259
וכב	-4260
ענו	-4261
▁בחיי	-4262
גיעים	-4263
▁מהיר	-4264
▁address	-4265
▁הצטרפו	-4266
▁והד	-4267
▁מוטי	-4268
▁בחדר	-4269
מחיר	-4270
▁לצורך	-4271
ai	-4272
ניו	-4273
ופית	-4274
והה	-4275
sha	-4276
סטית	-4277
▁גנץ	-4278
טוב	-4279
כרז	-4280
▁ממך	-4281
בורים	-4282
ft	-4283
▁אמיר	-4284
ולן	-4285
500	-4286
▁דירת	-4287
▁ביקורת	-4288
יתם	-4289
פלים	-4290
▁קיר	-4291
▁השאר	-4292
▁תוצאות	-4293
▁''	-4294
▁יכולת	-4295
▁512	-4296
▁פוג	-4297
ננים	-4298
▁הלימודים	-4299
▁בריא	-4300
נך	-4301
▁אדום	-4302
▁שגר	-4303
למות	-4304
▁בכפר	-4305
▁מסמך	-4306
▁לרכוש	-4307
▁רחוק	-4308
ילוי	-4309
▁אריה	-4310
▁הרשת	-4311
▁מוזיקה	-4312
עתם	-4313
▁מזג	-4314
▁//	-4315
▁אישור	-4316
▁Or	-4317
▁נשא	-4318
lin	-4319
דיקה	-4320
▁יובל	-4321
תיע	-4322
▁להכיר	-4323
כרות	-4324
▁help	-4325
שפ	-4326
▁ההז	-4327
בס	-4328
▁זוכ	-4329
eh	-4330
hem	-4331
▁קובי	-4332
▁האג	-4333
▁מדברים	-4334
▁שיווק	-4335
▁לבנות	-4336
חחחחחחחחחחחחחחחח	-4337
▁לטיפול	-4338
ix	-4339
▁מרגיש	-4340
▁בבל	-4341
▁למטיילים	-4342
▁פרופ	-4343
▁בחירה	-4344
▁מעצ	-4345
▁please	-4346
▁הנוער	-4347
בעים	-4348
▁שור	-4349
▁אבו	-4350
▁שז	-4351
▁bec	-4352
▁בנת	-4353
▁ישראלים	-4354
▁רפוא	-4355
אורה	-4356
▁רווח	-4357
▁להתא	-4358
גנון	-4359
▁מחכים	-4360
▁אותכם	-4361
▁התייחס	-4362
מותה	-4363
83	-4364
▁חוסר	-4365
▁בפע	-4366
▁הפייסבוק	-4367
ari	-4368
8,	-4369
ייצ	-4370
קיפה	-4371
▁מאחלת	-4372
▁ביצוע	-4373
קרו	-4374
duct	-4375
ומד	-4376
▁tw	-4377
▁המשפטית	-4378
וזיציה	-4379
נגלית	-4380
▁ימין	-4381
▁מטע	-4382
זינו	-4383
▁ן	-4384
דס	-4385
שיב	-4386
זיקה	-4387
▁המופ	-4388
▁צודק	-4389
פונים	-4390
▁להציע	-4391
▁פיצ	-4392
▁צעיר	-4393
אול	-4394
תיק	-4395
-10	-4396
▁קורא	-4397
ומדים	-4398
▁users	-4399
גינים	-4400
▁יבוא	-4401
▁שטוח	-4402
Sha	-4403
▁חפ	-4404
▁אכל	-4405
alk	-4406
ty	-4407
▁שעברה	-4408
▁תשלום	-4409
▁הממוצע	-4410
▁הדת	-4411
▁2019	-4412
▁ליאור	-4413
▁מקסימה	-4414
▁דיי	-4415
לחת	-4416
▁שטח	-4417
▁הפעילות	-4418
▁act	-4419
▁תושב	-4420
▁למעשה	-4421
▁התחת	-4422
▁מעלה	-4423
iff	-4424
tern	-4425
▁אלוהים	-4426
נטית	-4427
▁שכול	-4428
▁למשפחות	-4429
▁ריי	-4430
▁שינה	-4431
שרדי	-4432
▁עליכם	-4433
זת	-4434
גלה	-4435
▁link	-4436
▁לשר	-4437
▁מנהי	-4438
▁משמעותי	-4439
▁51261	-4440
▁פתרון	-4441
נשטיין	-4442
▁Be	-4443
▁פולי	-4444
צט	-4445
▁שיא	-4446
▁בצד	-4447
▁פט	-4448
▁הצעת	-4449
▁הרכבת	-4450
▁צעירים	-4451
פקי	-4452
▁מוקדם	-4453
▁המחירים	-4454
▁שיעור	-4455
▁להב	-4456
/?	-4457
les	-4458
▁שיח	-4459
▁איתנו	-4460
▁הולכים	-4461
ניתי	-4462
▁הוק	-4463
▁כלב	-4464
לטון	-4465
▁עמוד	-4466
▁נהרג	-4467
oad	-4468
▁תמי	-4469
▁תהליך	-4470
▁באה	-4471
▁להד	-4472
ax	-4473
▁ובנוסף	-4474
85	-4475
▁em	-4476
▁Dan	-4477
כתה	-4478
▁האינטרנט	-4479
▁וול	-4480
שיווק	-4481
▁מנהלת	-4482
ork	-4483
גוג	-4484
ציית	-4485
▁היש	-4486
▁עץ	-4487
▁סוגי	-4488
rad	-4489
ife	-4490
ירוף	-4491
כרת	-4492
▁החרדי	-4493
▁bet	-4494
down	-4495
בוב	-4496
▁איתם	-4497
▁הולכת	-4498
ont	-4499
▁חמש	-4500
▁מוגבל	-4501
▁הקל	-4502
▁מאר	-4503
▁להתמודד	-4504
שני	-4505
▁שאר	-4506
▁מענה	-4507
כוון	-4508
▁מהפ	-4509
▁חומ	-4510
שרו	-4511
נסקי	-4512
מותת	-4513
▁00.	-4514
▁Lev	-4515
לקוח	-4516
כמו	-4517
▁look	-4518
שתפו	-4519
וטל	-4520
▁האיש	-4521
▁fl	-4522
▁יואב	-4523
יתנו	-4524
▁שמונה	-4525
▁הסרטון	-4526
▁שחקן	-4527
▁הגיעה	-4528
▁לחיים	-4529
▁טיול	-4530
הוא	-4531
▁בטלפון	-4532
▁שולחן	-4533
ject	-4534
▁שמצ	-4535
rough	-4536
▁קדימה	-4537
מיני	-4538
ליטות	-4539
▁כלבים	-4540
▁make	-4541
▁הלוואי	-4542
▁כללי	-4543
▁בעיות	-4544
▁מועדון	-4545
3,	-4546
גלית	-4547
-7	-4548
▁אליי	-4549
▁היחיד	-4550
הע	-4551
יקר	-4552
▁comm	-4553
▁כנסת	-4554
▁השפ	-4555
▁להצטרף	-4556
יינת	-4557
▁80	-4558
▁הימין	-4559
כנסו	-4560
לושה	-4561
▁אדרי	-4562
▁הטיפול	-4563
visor	-4564
דום	-4565
▁טעי	-4566
▁וכך	-4567
▁ומכ	-4568
תחם	-4569
▁ערבים	-4570
ונדון	-4571
הר	-4572
▁בחול	-4573
▁אזר	-4574
▁עופר	-4575
▁drop	-4576
▁פעמיים	-4577
▁בכדי	-4578
שיש	-4579
▁גוף	-4580
▁people	-4581
ומרון	-4582
▁הקלי	-4583
▁במשחק	-4584
▁מעוד	-4585
▁כשהוא	-4586
▁מעולם	-4587
▁רון	-4588
▁גורמים	-4589
▁לעלות	-4590
▁לפעול	-4591
▁בגן	-4592
▁בשלב	-4593
▁עצמך	-4594
כניס	-4595
פשרות	-4596
▁במא	-4597
▁נוער	-4598
▁3.	-4599
▁השוק	-4600
▁במטרה	-4601
▁Sp	-4602
▁ארץ	-4603
hel	-4604
▁שקר	-4605
▁מהירה	-4606
▁שפיר	-4607
▁גזע	-4608
49	-4609
▁לאן	-4610
▁הירי	-4611
סגור	-4612
▁לנשים	-4613
▁עידן	-4614
▁שיה	-4615
▁פתיחת	-4616
▁ם	-4617
▁איט	-4618
▁מזכיר	-4619
▁הפופול	-4620
▁אורן	-4621
▁הפרק	-4622
▁חרדים	-4623
ביץ	-4624
▁אינם	-4625
row	-4626
קהל	-4627
▁פייסבוק	-4628
▁לאל	-4629
▁גז	-4630
▁למא	-4631
▁ענקית	-4632
ropri	-4633
▁ומר	-4634
▁no	-4635
▁הטובים	-4636
▁עוק	-4637
RE	-4638
▁שיק	-4639
שתתפות	-4640
▁המות	-4641
▁לחברה	-4642
▁התנועה	-4643
▁שטר	-4644
▁הקור	-4645
▁קלה	-4646
שובות	-4647
▁יחידות	-4648
▁התרבות	-4649
עשה	-4650
▁לרכי	-4651
▁הספורט	-4652
▁Com	-4653
▁הכתבה	-4654
כוה	-4655
▁הכס	-4656
חסים	-4657
▁אינט	-4658
▁Un	-4659
ating	-4660
▁אמריק	-4661
▁היפה	-4662
▁דרכים	-4663
▁המידע	-4664
▁הבן	-4665
וגת	-4666
▁הצבא	-4667
▁הוועדה	-4668
bar	-4669
▁Trip	-4670
▁שירותים	-4671
טס	-4672
▁קומ	-4673
▁מגע	-4674
▁עורך	-4675
▁Q	-4676
▁בפתח	-4677
יוון	-4678
פורסם	-4679
▁נעימה	-4680
▁משמעותית	-4681
▁כלים	-4682
▁סיום	-4683
שובים	-4684
ובב	-4685
▁המלח	-4686
▁appropri	-4687
ודא	-4688
▁זהב	-4689
▁אילן	-4690
▁7340,	-4691
▁שירים	-4692
▁ארבעה	-4693
יימו	-4694
▁החז	-4695
▁יורק	-4696
▁שרא	-4697
ארץ	-4698
▁29	-4699
▁know	-4700
▁מפני	-4701
▁גישה	-4702
▁מאור	-4703
ise	-4704
▁שקד	-4705
▁היוע	-4706
▁נוף	-4707
▁נמצאת	-4708
▁מגיעה	-4709
▁אליך	-4710
▁מוכר	-4711
זז	-4712
▁מכירים	-4713
▁תנאי	-4714
ya	-4715
רבית	-4716
▁קרית	-4717
▁השהות	-4718
▁אירופה	-4719
▁מכר	-4720
▁play	-4721
דין	-4722
▁השב	-4723
▁עול	-4724
▁תמיכה	-4725
ful	-4726
▁ומצ	-4727
▁מועצת	-4728
▁לספר	-4729
▁דרושים	-4730
▁אנא	-4731
גישים	-4732
סיקה	-4733
▁התעופה	-4734
▁לקנייה	-4735
▁appropriate	-4736
▁כבי	-4737
ועה	-4738
rans	-4739
ושבי	-4740
לחץ	-4741
ביעי	-4742
וונת	-4743
▁שוח	-4744
ביעות	-4745
▁man	-4746
▁ושוב	-4747
▁בבחירות	-4748
▁טרור	-4749
סימה	-4750
▁ניי	-4751
▁רצון	-4752
בוצות	-4753
▁menu	-4754
ךךךך	-4755
וריון	-4756
▁בסט	-4757
▁אווירה	-4758
▁הינה	-4759
ונאי	-4760
מאל	-4761
▁בערך	-4762
▁resident	-4763
uk	-4764
▁לדרך	-4765
▁הקודם	-4766
דומה	-4767
▁החברים	-4768
▁בטוחה	-4769
▁מדינות	-4770
גיה	-4771
גועים	-4772
▁Stat	-4773
▁Pro	-4774
חיד	-4775
▁שרוצה	-4776
els	-4777
clud	-4778
▁יוצאת	-4779
▁back	-4780
נז	-4781
▁יוני	-4782
▁ההחלטה	-4783
▁הבת	-4784
▁שמורות	-4785
▁זיה	-4786
▁כושר	-4787
▁35	-4788
▁בגר	-4789
נצל	-4790
ומו	-4791
Sh	-4792
▁העבר	-4793
▁מתכון	-4794
▁העול	-4795
▁פיננסיים	-4796
▁בכר	-4797
▁מצפה	-4798
תחיל	-4799
▁שירה	-4800
▁קבע	-4801
▁הנראה	-4802
......	-4803
▁ויצ	-4804
▁והב	-4805
בוצת	-4806
▁הוסיף	-4807
▁הלאומי	-4808
▁פתאום	-4809
uv	-4810
פקה	-4811
▁חוס	-4812
▁מין	-4813
dan	-4814
▁מתא	-4815
▁הסיבה	-4816
4,	-4817
▁צו	-4818
▁דק	-4819
▁הסביבה	-4820
▁ואולי	-4821
▁העובדים	-4822
שמים	-4823
▁ואתה	-4824
▁השלישי	-4825
▁רצח	-4826
▁בעבודה	-4827
מונת	-4828
▁דגם	-4829
▁מתגע	-4830
▁הוע	-4831
▁חוויה	-4832
▁הקמת	-4833
▁זוהר	-4834
▁בכיר	-4835
enc	-4836
ייייי	-4837
▁ויי	-4838
▁feeling	-4839
▁תוכל	-4840
נכ	-4841
זוק	-4842
pport	-4843
▁מלכה	-4844
▁בערוץ	-4845
סד	-4846
▁טעות	-4847
▁=	-4848
נגד	-4849
וברים	-4850
גול	-4851
מידה	-4852
▁האפ	-4853
6,	-4854
gt	-4855
▁Bl	-4856
מדת	-4857
יימה	-4858
משל	-4859
דיים	-4860
▁נוה	-4861
▁איתה	-4862
▁ירד	-4863
ותרות	-4864
ull	-4865
גלים	-4866
בך	-4867
▁משפחות	-4868
וחדת	-4869
▁חיילים	-4870
נייני	-4871
▁בינוני	-4872
▁Up	-4873
▁דרום	-4874
advisor	-4875
רין	-4876
ior	-4877
▁סביר	-4878
▁סגן	-4879
▁עורכי	-4880
▁אמנות	-4881
יתו	-4882
▁והק	-4883
▁וזאת	-4884
▁אלופה	-4885
יאון	-4886
ונאים	-4887
▁המרכזית	-4888
IN	-4889
זרחים	-4890
▁תפקי	-4891
▁ותר	-4892
▁ind	-4893
▁נשמח	-4894
שאיר	-4895
▁שער	-4896
▁well	-4897
▁יעל	-4898
▁והכי	-4899
▁אמי	-4900
פחת	-4901
▁תואר	-4902
▁addressed	-4903
▁הנוכ	-4904
קרב	-4905
:00-1	-4906
▁משטרה	-4907
▁ארבע	-4908
lic	-4909
בדה	-4910
משיכו	-4911
מצאים	-4912
▁בהתח	-4913
▁Tripadvisor	-4914
ודו	-4915
▁ספרים	-4916
▁מסעדות	-4917
tz	-4918
שיון	-4919
לימות	-4920
▁בצל	-4921
▁מיכאל	-4922
ON	-4923
ויה	-4924
חלקה	-4925
▁חיה	-4926
▁בהן	-4927
סיים	-4928
▁מוצר	-4929
▁לנת	-4930
קיקה	-4931
▁עובדי	-4932
▁באל	-4933
▁הבח	-4934
▁כאלו	-4935
▁מוקד	-4936
מרה	-4937
▁מבלי	-4938
▁סדרת	-4939
▁חכם	-4940
▁לזכות	-4941
▁הרשות	-4942
▁every	-4943
▁הרגע	-4944
▁להט	-4945
ערות	-4946
1.	-4947
line	-4948
▁החברות	-4949
בחן	-4950
ופיה	-4951
מוקרטיה	-4952
▁נמו	-4953
▁לנצח	-4954
▁בחירות	-4955
/9	-4956
7%	-4957
וור	-4958
▁האלו	-4959
סיקו	-4960
ופל	-4961
חושה	-4962
▁חמוד	-4963
ily	-4964
▁יגיע	-4965
▁המשרד	-4966
ובדים	-4967
▁שלם	-4968
פטמבר	-4969
▁Re	-4970
קידום	-4971
חודי	-4972
▁הזוג	-4973
▁מנחם	-4974
▁No	-4975
▁הודיע	-4976
▁יצר	-4977
▁שהפ	-4978
▁מחל	-4979
וטובוס	-4980
פיץ	-4981
▁ממליצה	-4982
aur	-4983
מדות	-4984
חזור	-4985
▁סיכוי	-4986
▁נמ	-4987
▁want	-4988
▁וכמה	-4989
▁המז	-4990
▁Pl	-4991
▁after	-4992
▁אחותי	-4993
▁גולד	-4994
נברג	-4995
ower	-4996
▁קוק	-4997
▁שנפ	-4998
▁חופש	-4999
▁מצוינת	-5000
▁אמיתית	-5001
▁מקצועית	-5002
▁שוא	-5003
גרה	-5004
▁באמור	-5005
▁see	-5006
נגר	-5007
ניית	-5008
▁most	-5009
▁ביקש	-5010
urn	-5011
▁ברכה	-5012
מאות	-5013
▁ולש	-5014
▁לעז	-5015
▁בנוגע	-5016
▁ערבי	-5017
ira	-5018
טלי	-5019
▁ורי	-5020
▁ממי	-5021
▁אקס	-5022
▁אהבת	-5023
▁אפשרי	-5024
▁מתחילים	-5025
▁חולון	-5026
/3	-5027
▁יפי	-5028
▁ירוק	-5029
▁תשובה	-5030
▁העתי	-5031
▁ואיך	-5032
▁משע	-5033
▁מאוחר	-5034
כוהול	-5035
מטיקה	-5036
ause	-5037
▁מעדי	-5038
▁העובדה	-5039
לאי	-5040
נוח	-5041
פורס	-5042
▁br	-5043
▁והכל	-5044
AN	-5045
▁through	-5046
oz	-5047
date	-5048
▁מטבח	-5049
זן	-5050
רררר	-5051
▁dev	-5052
▁ביד	-5053
▁מתב	-5054
▁פאר	-5055
▁מזרחי	-5056
▁two	-5057
פחות	-5058
▁מועד	-5059
▁שיותר	-5060
תיו	-5061
▁בוג	-5062
ודעות	-5063
כש	-5064
טיב	-5065
▁הנושא	-5066
כנות	-5067
▁שתהיה	-5068
▁לרי	-5069
יגה	-5070
▁only	-5071
▁השלום	-5072
????????	-5073
▁והן	-5074
▁להיר	-5075
ואות	-5076
▁הוש	-5077
▁מתקד	-5078
▁לעצור	-5079
▁מגד	-5080
מב	-5081
fore	-5082
ahu	-5083
וויות	-5084
▁פיק	-5085
▁רלוונטי	-5086
נף	-5087
▁נזק	-5088
▁הצעות	-5089
שד	-5090
iness	-5091
▁קצי	-5092
oint	-5093
זות	-5094
▁לחפש	-5095
▁הרפורמה	-5096
▁סוב	-5097
▁חיות	-5098
▁תעשה	-5099
▁תעשי	-5100
▁סקר	-5101
רגשות	-5102
צעי	-5103
))	-5104
▁דם	-5105
▁אנטי	-5106
▁דמי	-5107
▁עלות	-5108
ושות	-5109
כנולוגיה	-5110
לע	-5111
▁להפסיק	-5112
▁אבן	-5113
▁מכי	-5114
▁may	-5115
▁ביטחון	-5116
haron	-5117
▁לארץ	-5118
its	-5119
ורית	-5120
ברואר	-5121
▁מיזוג	-5122
▁Cl	-5123
ילית	-5124
▁mem	-5125
▁חור	-5126
▁מלב	-5127
ברר	-5128
▁מצליח	-5129
▁מביא	-5130
▁החשמל	-5131
▁במספר	-5132
▁שמואל	-5133
▁מותר	-5134
איות	-5135
▁↑	-5136
▁פרטית	-5137
▁הפרויקט	-5138
gl	-5139
ational	-5140
▁Ed	-5141
▁האזור	-5142
▁יחסית	-5143
▁הית	-5144
נחה	-5145
זכור	-5146
▁להוריד	-5147
▁good	-5148
▁500	-5149
▁כלומר	-5150
▁בלה	-5151
▁ופי	-5152
▁המלך	-5153
▁מצויין	-5154
▁מפקד	-5155
▁רוני	-5156
▁האישה	-5157
▁2013	-5158
▁בבתי	-5159
eth	-5160
לייה	-5161
wit	-5162
▁מטעם	-5163
▁ציוד	-5164
▁סגור	-5165
ריע	-5166
~~	-5167
▁בחירת	-5168
▁לפגוע	-5169
▁במקביל	-5170
▁לציבור	-5171
▁לעיר	-5172
▁החלטה	-5173
▁המלצות	-5174
ract	-5175
וטף	-5176
בנו	-5177
▁וואי	-5178
▁מאיתנו	-5179
חדשות	-5180
▁הודעהאין	-5181
▁ההודעהסגור	-5182
▁includ	-5183
▁וקי	-5184
▁לשיר	-5185
68	-5186
▁יין	-5187
▁הפור	-5188
חוץ	-5189
▁גדולות	-5190
▁En	-5191
▁הגז	-5192
▁חדרי	-5193
▁הדירה	-5194
מהות	-5195
▁הוכ	-5196
▁לחוק	-5197
▁ונה	-5198
פוק	-5199
ting	-5200
▁חטי	-5201
ונש	-5202
▁ניתוח	-5203
tic	-5204
▁אסף	-5205
וצרת	-5206
▁ולק	-5207
▁הזמר	-5208
▁רועי	-5209
▁עלייה	-5210
▁הכניסה	-5211
▁מבינים	-5212
▁והז	-5213
▁מחוז	-5214
ities	-5215
▁אתרים	-5216
סיה	-5217
▁חחחחחחח	-5218
▁בעלת	-5219
צוף	-5220
▁קומה	-5221
חיל	-5222
yal	-5223
▁גרו	-5224
ווך	-5225
▁תקציב	-5226
%.	-5227
▁איכותי	-5228
▁לנק	-5229
▁Res	-5230
▁איציק	-5231
▁כלכלי	-5232
פרסם	-5233
▁מסו	-5234
ודנטים	-5235
▁רציתי	-5236
▁הימים	-5237
▁cons	-5238
▁she	-5239
▁300	-5240
▁Mor	-5241
קהילה	-5242
▁הבנק	-5243
0,0,	-5244
ודיו	-5245
עורר	-5246
73	-5247
▁imp	-5248
▁כייף	-5249
▁צדק	-5250
▁טבעי	-5251
▁למג	-5252
ריון	-5253
▁ישיבה	-5254
▁התלמידים	-5255
גלו	-5256
▁שהא	-5257
▁לסט	-5258
▁בשבילך	-5259
ייקט	-5260
טיבית	-5261
▁אשקלון	-5262
יקטים	-5263
▁הרצליה	-5264
/2	-5265
ומם	-5266
▁להכין	-5267
▁המדהי	-5268
▁מבצעים	-5269
ton	-5270
olog	-5271
▁ראוי	-5272
▁זול	-5273
▁חומר	-5274
ריד	-5275
ement	-5276
▁התמונות	-5277
▁בתמונה	-5278
yst	-5279
▁באינטרנט	-5280
וגים	-5281
▁very	-5282
ates	-5283
נסיה	-5284
והב	-5285
וצי	-5286
שמית	-5287
וזים	-5288
שול	-5289
ank	-5290
gal	-5291
▁דברי	-5292
▁ישירות	-5293
בלתי	-5294
cha	-5295
▁ואור	-5296
▁ב־	-5297
▁אלקט	-5298
ets	-5299
עין	-5300
מצאו	-5301
▁באירופה	-5302
▁בואי	-5303
▁זל	-5304
▁להגיש	-5305
▁הרע	-5306
ישראל	-5307
▁הקרובים	-5308
▁מעוצ	-5309
▁לשירות	-5310
צעת	-5311
▁exper	-5312
▁העצמ	-5313
▁כדורגל	-5314
▁ייעוץ	-5315
▁עובדת	-5316
▁אלימות	-5317
▁בניגוד	-5318
▁באותה	-5319
ניס	-5320
▁And	-5321
▁תחרות	-5322
▁רוק	-5323
▁עשיתי	-5324
▁מסכים	-5325
berg	-5326
▁האלבום	-5327
דיט	-5328
▁חלום	-5329
▁בעצמ	-5330
▁שלח	-5331
▁ממשיך	-5332
▁לחל	-5333
▁החשוד	-5334
▁האזינו	-5335
ולא	-5336
▁דת	-5337
FM	-5338
-8	-5339
▁diff	-5340
▁שופטים	-5341
69	-5342
▁עבד	-5343
aking	-5344
▁הגדולים	-5345
▁רעיון	-5346
כז	-5347
▁ידעתי	-5348
ough	-5349
▁להשכרה	-5350
▁הפרו	-5351
▁קבוצות	-5352
קפה	-5353
▁הפך	-5354
▁ניק	-5355
▁היהודים	-5356
▁נהג	-5357
גשת	-5358
כין	-5359
omer	-5360
ירום	-5361
ליפות	-5362
▁חייל	-5363
▁מפי	-5364
▁השניים	-5365
▁המפלגה	-5366
▁שווי	-5367
▁צהל	-5368
▁כאמור	-5369
▁בפנים	-5370
▁כחלון	-5371
▁נוח	-5372
▁קבלה	-5373
פעיל	-5374
▁מפגש	-5375
▁שנייה	-5376
▁יכולות	-5377
▁הנשים	-5378
/5	-5379
ורד	-5380
▁מבחר	-5381
▁הצדדים	-5382
▁2012	-5383
▁serv	-5384
ופעות	-5385
▁הסוף	-5386
▁use	-5387
והר	-5388
▁יפות	-5389
לד	-5390
▁ולאחר	-5391
.00	-5392
▁אמנם	-5393
▁המקומי	-5394
נוב	-5395
news	-5396
▁לרגל	-5397
▁\	-5398
als	-5399
▁מנדטים	-5400
▁אישום	-5401
ble	-5402
▁השעות	-5403
arm	-5404
▁מפע	-5405
▁המוכ	-5406
▁שמא	-5407
פנה	-5408
gan	-5409
טוס	-5410
▁אינטרנט	-5411
▁שלב	-5412
▁בריכה	-5413
▁מישהי	-5414
▁להתחבר	-5415
▁דיבר	-5416
▁לשני	-5417
:5	-5418
▁ששי	-5419
aim	-5420
▁לפס	-5421
▁הלה	-5422
▁בתקופה	-5423
▁הטובה	-5424
ריית	-5425
▁החול	-5426
▁לטפל	-5427
▁העסקה	-5428
בנות	-5429
▁Inn	-5430
▁chan	-5431
▁הפני	-5432
ave	-5433
שתו	-5434
בעון	-5435
▁ההר	-5436
▁ברחובות	-5437
נדל	-5438
ments	-5439
rid	-5440
▁now	-5441
64	-5442
ices	-5443
▁הרופ	-5444
▁מאמינה	-5445
ולו	-5446
lom	-5447
▁דיון	-5448
▁בסרט	-5449
▁איתמר	-5450
-<	-5451
טרות	-5452
▁לבעלי	-5453
▁מרק	-5454
▁ספרי	-5455
▁אליהו	-5456
▁שמדובר	-5457
▁לאחד	-5458
▁מחקר	-5459
▁רגב	-5460
▁ברכות	-5461
ann	-5462
▁פעולות	-5463
▁לשת	-5464
▁מרכזי	-5465
וזר	-5466
▁התחבורה	-5467
ific	-5468
מז	-5469
▁בהס	-5470
▁לרא	-5471
▁ולכל	-5472
▁רחובות	-5473
ביעת	-5474
פלת	-5475
ניקה	-5476
▁מצווה	-5477
מלה	-5478
▁זור	-5479
▁הגור	-5480
▁תלוי	-5481
▁ובעיקר	-5482
לינג	-5483
▁הבכ	-5484
וברת	-5485
פואה	-5486
קיה	-5487
ירוג	-5488
ati	-5489
בחר	-5490
▁במשטרה	-5491
געים	-5492
▁והיה	-5493
▁אלעד	-5494
▁דיגי	-5495
▁ממשיכים	-5496
eep	-5497
▁לשנה	-5498
זיון	-5499
ודשים	-5500
▁רוי	-5501
▁רגל	-5502
בילי	-5503
▁מנוע	-5504
▁מוט	-5505
▁הומ	-5506
▁נגמר	-5507
▁למדינה	-5508
▁בשני	-5509
▁ייחוד	-5510
▁רופא	-5511
▁המבצע	-5512
▁ביטון	-5513
▁כולו	-5514
▁קוס	-5515
pect	-5516
נסטגרם	-5517
▁פורום	-5518
ירן	-5519
ath	-5520
▁עק	-5521
▁למר	-5522
▁ומג	-5523
▁השימוש	-5524
atch	-5525
▁אט	-5526
▁הרצוג	-5527
במ	-5528
▁שלומי	-5529
▁לוין	-5530
▁זוכה	-5531
▁שניתן	-5532
▁בראשות	-5533
▁וידאו	-5534
▁ביניהם	-5535
▁ההסת	-5536
▁עומר	-5537
▁חיבור	-5538
▁these	-5539
▁ביממה	-5540
bo	-5541
מוג	-5542
▁ודי	-5543
▁31	-5544
▁שזו	-5545
פשים	-5546
▁שילוב	-5547
▁המחאה	-5548
▁פרט	-5549
▁המסעדה	-5550
סן	-5551
▁הפוליטי	-5552
▁att	-5553
▁בינתיים	-5554
▁start	-5555
▁תשע	-5556
▁יוכל	-5557
▁שהש	-5558
▁יעשה	-5559
▁השונים	-5560
▁בשכונת	-5561
ספר	-5562
▁Tal	-5563
▁וטי	-5564
▁אחרו	-5565
▁פוס	-5566
▁מתוקה	-5567
att	-5568
▁עוזר	-5569
▁לגלות	-5570
▁יהי	-5571
▁הטרור	-5572
▁התושבים	-5573
▁פתרונות	-5574
▁sm	-5575
קיות	-5576
▁כחלק	-5577
usiness	-5578
בינו	-5579
▁שתמיד	-5580
מוני	-5581
▁יוק	-5582
▁ולת	-5583
▁For	-5584
▁סוכר	-5585
▁כני	-5586
▁והמש	-5587
▁גוש	-5588
▁ארוכה	-5589
▁פק	-5590
▁בבאר	-5591
מחים	-5592
▁בסופו	-5593
▁לדברי	-5594
▁חזקה	-5595
▁ציוני	-5596
▁כואב	-5597
▁stud	-5598
ures	-5599
טריץ	-5600
▁Update	-5601
ush	-5602
צלם	-5603
ייד	-5604
▁חמישה	-5605
▁מחירי	-5606
▁לאח	-5607
▁כתבות	-5608
▁השהייה	-5609
▁ויותר	-5610
ביות	-5611
ריכת	-5612
▁כחול	-5613
aurant	-5614
פסו	-5615
עזר	-5616
מידע	-5617
▁לגרום	-5618
ולוגית	-5619
▁האה	-5620
▁מטור	-5621
▁בסרטון	-5622
▁מופע	-5623
elop	-5624
▁בחשבון	-5625
▁תמר	-5626
▁לאט	-5627
יייייייי	-5628
▁קס	-5629
▁הנוס	-5630
לתה	-5631
לכה	-5632
▁מו	-5633
▁בראיון	-5634
▁מחשב	-5635
▁could	-5636
▁בקבוק	-5637
▁way	-5638
▁המשות	-5639
ויד	-5640
דורה	-5641
צמבר	-5642
▁מחירון	-5643
/4	-5644
▁ra	-5645
▁זוכר	-5646
▁הנכון	-5647
▁בתאריך	-5648
uck	-5649
▁ומט	-5650
▁שהן	-5651
▁לסייע	-5652
▁הראשי	-5653
▁להחליף	-5654
▁חוף	-5655
▁מיום	-5656
▁פיצה	-5657
ience	-5658
▁dec	-5659
▁לצערי	-5660
▁ואתם	-5661
▁לכיוון	-5662
▁העניין	-5663
▁יומיים	-5664
▁שעד	-5665
▁הקרובה	-5666
▁הברי	-5667
▁תחום	-5668
▁Status	-5669
▁והנ	-5670
בורכת	-5671
▁צפון	-5672
▁לשאול	-5673
▁סניף	-5674
▁לאפשר	-5675
חץ	-5676
▁להעלות	-5677
▁יוכלו	-5678
▁שמעתי	-5679
▁הקהילה	-5680
▁לתפקיד	-5681
▁מכיוון	-5682
▁המציאות	-5683
▁בפור	-5684
▁מעלות	-5685
▁נעצר	-5686
▁יצאו	-5687
▁נשק	-5688
▁גרוע	-5689
▁יוצאים	-5690
▁שעל	-5691
טק	-5692
▁מצט	-5693
▁סליחה	-5694
ma	-5695
ward	-5696
▁הבה	-5697
▁תעשו	-5698
מדי	-5699
▁אתן	-5700
וקס	-5701
▁מנג	-5702
▁אליכם	-5703
▁העת	-5704
▁ברצי	-5705
▁חייה	-5706
▁להאמין	-5707
▁הקהל	-5708
▁אבט	-5709
ility	-5710
▁col	-5711
▁יתר	-5712
▁נותנים	-5713
ורר	-5714
▁תאריך	-5715
AR	-5716
▁בעזה	-5717
elf	-5718
ular	-5719
▁לתר	-5720
▁עתי	-5721
me	-5722
▁הקטן	-5723
▁להחזיר	-5724
IL	-5725
חידה	-5726
▁years	-5727
▁טרם	-5728
▁קד	-5729
▁באיזה	-5730
▁שקורה	-5731
▁שפע	-5732
▁חום	-5733
▁תרג	-5734
▁תכנים	-5735
▁נאל	-5736
▁נכונה	-5737
▁בפועל	-5738
▁ברכ	-5739
▁הודיעה	-5740
▁**	-5741
▁העד	-5742
▁למשחק	-5743
▁מחלקת	-5744
זרי	-5745
▁בקבוצה	-5746
▁כץ	-5747
35	-5748
utm	-5749
▁קיבלו	-5750
▁נראית	-5751
▁דנה	-5752
▁fun	-5753
▁אליהם	-5754
▁On	-5755
פקים	-5756
▁many	-5757
▁החודש	-5758
▁Me	-5759
▁נבחרת	-5760
▁תנועה	-5761
▁הארגון	-5762
▁באילת	-5763
▁09	-5764
▁ספי	-5765
II	-5766
▁מעוניין	-5767
78	-5768
▁תאו	-5769
▁תראה	-5770
▁Gal	-5771
▁כביש	-5772
▁ללקוחות	-5773
▁inc	-5774
▁אימון	-5775
יתון	-5776
▁מגן	-5777
▁תיר	-5778
▁קבלו	-5779
ys	-5780
אביב	-5781
▁טקסט	-5782
ואן	-5783
▁עפ	-5784
ased	-5785
קיעים	-5786
▁וו	-5787
רוחה	-5788
פח	-5789
▁בעומר	-5790
▁אקד	-5791
▁יחסי	-5792
▁should	-5793
▁במסעדה	-5794
▁דקה	-5795
▁תוכן	-5796
▁מקי	-5797
עיון	-5798
uring	-5799
▁ואהבה	-5800
▁בקשה	-5801
צג	-5802
ris	-5803
/10153	-5804
▁מקומי	-5805
▁קיבלתי	-5806
▁עוף	-5807
▁חשובה	-5808
▁כתוצאה	-5809
ics	-5810
▁אסי	-5811
מודדות	-5812
▁לרגע	-5813
▁בטר	-5814
,,	-5815
נקו	-5816
▁מורה	-5817
חנות	-5818
▁inv	-5819
▁מאמי	-5820
▁הלקוחות	-5821
▁יוקר	-5822
▁גני	-5823
▁משל	-5824
▁לוודא	-5825
▁great	-5826
land	-5827
יהן	-5828
▁אסטר	-5829
':	-5830
94	-5831
חול	-5832
▁שוטרים	-5833
▁ass	-5834
▁שבועיים	-5835
טחים	-5836
▁שרת	-5837
קרר	-5838
▁בבני	-5839
ata	-5840
ננת	-5841
▁(:	-5842
טיקה	-5843
▁צבאי	-5844
▁האהבה	-5845
▁דחוף	-5846
▁str	-5847
▁עמותת	-5848
▁פיל	-5849
▁באים	-5850
▁למק	-5851
ein	-5852
osts	-5853
▁התכנית	-5854
▁פוט	-5855
▁אדיר	-5856
▁במצ	-5857
▁במהירות	-5858
▁sec	-5859
ועדים	-5860
בבבב	-5861
▁שליט	-5862
סית	-5863
▁החלו	-5864
▁נתונים	-5865
יב	-5866
▁המשפטים	-5867
ms	-5868
▁קישור	-5869
▁העצמאות	-5870
צועת	-5871
▁May	-5872
▁לוקח	-5873
▁פארק	-5874
▁חחחחחחחחחחחחח	-5875
▁בכביש	-5876
▁לחבר	-5877
▁ישנה	-5878
▁כנסו	-5879
▁קהל	-5880
ננו	-5881
▁רוסיה	-5882
▁נסיעה	-5883
▁בשירות	-5884
▁אבר	-5885
/6	-5886
▁לקח	-5887
▁מוות	-5888
ason	-5889
▁זכה	-5890
▁שהגיע	-5891
▁באול	-5892
ביבת	-5893
▁קפ	-5894
מויות	-5895
▁החדשים	-5896
▁ישראלית	-5897
יינות	-5898
▁כיוון	-5899
▁להרגיש	-5900
100	-5901
▁פירות	-5902
▁קיץ	-5903
▁where	-5904
תיחה	-5905
ורא	-5906
▁מימון	-5907
נהלת	-5908
כלת	-5909
▁At	-5910
▁אופן	-5911
▁week	-5912
▁בנה	-5913
get	-5914
▁down	-5915
▁לחודש	-5916
▁בקט	-5917
▁טיי	-5918
▁מערי	-5919
▁הביטוח	-5920
אוג	-5921
▁הרוח	-5922
פיד	-5923
דיון	-5924
▁כפרה	-5925
לאת	-5926
▁מוכנים	-5927
דול	-5928
▁לחוות	-5929
▁מצאתי	-5930
▁מכירות	-5931
▁cha	-5932
▁ירידה	-5933
▁החרדים	-5934
▁מחבלים	-5935
▁המקומית	-5936
▁לבקש	-5937
▁מרגישה	-5938
געו	-5939
▁קטנות	-5940
רן	-5941
▁rem	-5942
▁כשאני	-5943
״ל	-5944
▁ריק	-5945
▁לים	-5946
▁פצ	-5947
▁חנה	-5948
▁במל	-5949
▁2,	-5950
▁בעתיד	-5951
▁בבת	-5952
erson	-5953
▁כספי	-5954
▁המלאה	-5955
▁לנה	-5956
▁וללא	-5957
▁Ma	-5958
ited	-5959
▁וית	-5960
hes	-5961
▁קרב	-5962
/1015	-5963
▁even	-5964
ובס	-5965
שמור	-5966
▁התחל	-5967
▁הלך	-5968
▁התחיל	-5969
▁מלחמה	-5970
תיבה	-5971
מחות	-5972
▁בהר	-5973
▁יצירת	-5974
▁אופציה	-5975
▁המוצרים	-5976
▁באח	-5977
>.	-5978
nbs	-5979
▁הערבי	-5980
▁היסט	-5981
▁רגיל	-5982
וכנות	-5983
טרך	-5984
שבו	-5985
▁high	-5986
ible	-5987
▁דב	-5988
▁המצי	-5989
ale	-5990
:<	-5991
▁עשית	-5992
▁מאיפה	-5993
▁ציבורית	-5994
נלי	-5995
▁טכנולוגי	-5996
▁שחי	-5997
▁מושג	-5998
▁2020	-5999
▁בראשון	-6000
▁מדר	-6001
▁נפתח	-6002
▁מתחם	-6003
בודות	-6004
▁לילד	-6005
▁ממוקם	-6006
▁מדיניות	-6007
ott	-6008
▁fin	-6009
▁התיכון	-6010
▁בתע	-6011
סאות	-6012
צלונה	-6013
nbsp	-6014
edi	-6015
▁שהה	-6016
▁שחקנים	-6017
▁מחז	-6018
בורי	-6019
▁הראשונים	-6020
▁הנע	-6021
טען	-6022
▁קריית	-6023
lan	-6024
▁אהוב	-6025
▁תקף	-6026
לס	-6027
▁החלה	-6028
▁אחרונות	-6029
▁רפי	-6030
▁חיפוש	-6031
▁חדרה	-6032
▁פונה	-6033
▁תחילת	-6034
קירת	-6035
▁בצע	-6036
▁חצ	-6037
ריח	-6038
▁סת	-6039
▁הבינלאומי	-6040
▁בימי	-6041
malink	-6042
קטור	-6043
▁ובש	-6044
riv	-6045
דיש	-6046
ומך	-6047
▁much	-6048
▁משתמשים	-6049
טובר	-6050
וסטר	-6051
amar	-6052
געתי	-6053
▁חנו	-6054
▁פיגוע	-6055
▁איכ	-6056
▁המור	-6057
▁מהווה	-6058
▁לכאן	-6059
▁ונת	-6060
▁שיפ	-6061
▁מהמש	-6062
▁מתיי	-6063
▁product	-6064
▁תשת	-6065
▁באיזור	-6066
osh	-6067
▁מכך	-6068
▁עמוס	-6069
▁מנצ	-6070
alth	-6071
נגדות	-6072
▁פלוס	-6073
קיון	-6074
כנע	-6075
▁ויע	-6076
▁חוזרים	-6077
ופט	-6078
▁לקדם	-6079
▁זוהי	-6080
▁דומים	-6081
▁sha	-6082
▁הקרי	-6083
pen	-6084
▁פרשת	-6085
▁לעצמי	-6086
OS	-6087
▁מבקש	-6088
לאה	-6089
▁מתנד	-6090
▁יוז	-6091
▁אנוש	-6092
ודאי	-6093
permalink	-6094
▁תותח	-6095
משים	-6096
▁לבל	-6097
▁מידה	-6098
▁לדף	-6099
▁רחל	-6100
▁don	-6101
arket	-6102
▁ynet	-6103
▁פש	-6104
▁התפקיד	-6105
▁יתקיים	-6106
פרה	-6107
לחמה	-6108
▁בוע	-6109
▁התשובה	-6110
מפי	-6111
▁להן	-6112
▁ent	-6113
▁כולן	-6114
▁המקור	-6115
▁show	-6116
▁לגיל	-6117
הש	-6118
▁במחירים	-6119
דמן	-6120
מיע	-6121
▁מנסים	-6122
▁ההשק	-6123
▁והסביבה	-6124
-30	-6125
גום	-6126
▁כשת	-6127
▁לממשלה	-6128
שבה	-6129
▁בצבע	-6130
לאל	-6131
▁אנג	-6132
▁תפקיד	-6133
▁רמי	-6134
ענה	-6135
▁acc	-6136
▁עברו	-6137
▁תשל	-6138
▁מדהימים	-6139
ier	-6140
▁בקול	-6141
▁המחבל	-6142
▁מגיב	-6143
▁קש	-6144
▁נפתלי	-6145
▁סבל	-6146
wi	-6147
▁שהס	-6148
▁הקטנה	-6149
▁יעזור	-6150
▁אינטר	-6151
▁האמיתי	-6152
▁ומד	-6153
▁מאמן	-6154
▁מרפסת	-6155
ystem	-6156
▁במאי	-6157
▁המוח	-6158
▁לתוך	-6159
סיבה	-6160
witter	-6161
▁ניש	-6162
onard	-6163
▁שאמר	-6164
▁למצב	-6165
גוש	-6166
▁זאב	-6167
▁הצורך	-6168
▁Rest	-6169
▁בניין	-6170
פלגות	-6171
▁***	-6172
▁ניצחון	-6173
ארי	-6174
▁לרוב	-6175
oh	-6176
הח	-6177
שרון	-6178
▁מסכי	-6179
▁להורים	-6180
▁תחנת	-6181
▁פגיעה	-6182
▁חוקי	-6183
▁להגד	-6184
▁מהנה	-6185
▁האקד	-6186
מיחה	-6187
ווחים	-6188
אלית	-6189
הפ	-6190
טוא	-6191
▁אופניים	-6192
▁עשר	-6193
▁שדה	-6194
▁להכניס	-6195
בדל	-6196
כית	-6197
9.	-6198
▁בברכה	-6199
▁day	-6200
אבי	-6201
▁יושב	-6202
ביה	-6203
▁גבע	-6204
▁ייתכן	-6205
▁סמוטריץ	-6206
▁הפסי	-6207
גין	-6208
▁take	-6209
▁אכפת	-6210
▁לדוג	-6211
▁right	-6212
צעה	-6213
▁משול	-6214
▁תיקון	-6215
▁ברוכים	-6216
▁Wh	-6217
atan	-6218
ES	-6219
▁4.	-6220
▁נולד	-6221
▁אהרון	-6222
▁שמים	-6223
▁ארז	-6224
▁הערבים	-6225
▁נפר	-6226
israel	-6227
▁08	-6228
▁גמי	-6229
ebook	-6230
▁כתוב	-6231
▁עשוי	-6232
מכים	-6233
▁שמישהו	-6234
פנק	-6235
▁מקבלת	-6236
פרטים	-6237
▁הראל	-6238
וגיות	-6239
▁בסגנון	-6240
ראשון	-6241
כנסות	-6242
▁פחד	-6243
▁לשל	-6244
▁רשמי	-6245
▁האס	-6246
▁חשש	-6247
▁מזע	-6248
▁45	-6249
▁הפרס	-6250
▁trans	-6251
▁הכולל	-6252
▁החדרים	-6253
▁היהודית	-6254
▁טקס	-6255
נרת	-6256
▁דודו	-6257
במבר	-6258
▁בכנס	-6259
▁נמאס	-6260
arn	-6261
▁מזכ	-6262
▁הרפואי	-6263
חתם	-6264
▁לכולנו	-6265
▁דיור	-6266
ארח	-6267
▁מרד	-6268
▁שגי	-6269
rin	-6270
▁האת	-6271
▁read	-6272
▁גוגל	-6273
▁נהיה	-6274
!!!!!!!!	-6275
▁צעד	-6276
▁בחשד	-6277
▁קידום	-6278
גשתי	-6279
▁המוצר	-6280
חין	-6281
▁מבע	-6282
▁למכור	-6283
▁גודל	-6284
▁לשימוש	-6285
-15	-6286
eli	-6287
▁מטומט	-6288
▁באשדוד	-6289
▁ביחס	-6290
▁מבורך	-6291
▁משרה	-6292
▁משם	-6293
que	-6294
▁38	-6295
▁חופשי	-6296
▁הפעולה	-6297
▁המדי	-6298
2.	-6299
▁לאדם	-6300
▁מזו	-6301
וגו	-6302
▁המוק	-6303
▁did	-6304
▁rel	-6305
▁מיקום	-6306
▁then	-6307
▁הופעות	-6308
▁לימודים	-6309
▁מסיבת	-6310
דעו	-6311
▁תלמידי	-6312
▁^^	-6313
▁לכמה	-6314
רגשת	-6315
▁בקיצור	-6316
anyahu	-6317
▁חברתי	-6318
▁רעננה	-6319
▁רשימת	-6320
נטה	-6321
▁באת	-6322
▁להשתתף	-6323
▁אפשרויות	-6324
▁ומבורך	-6325
ages	-6326
וריים	-6327
▁הגנה	-6328
כלו	-6329
▁לנס	-6330
▁האנו	-6331
▁התל	-6332
▁mon	-6333
▁בניית	-6334
▁אגף	-6335
▁שיצ	-6336
ליא	-6337
▁מלה	-6338
▁חמו	-6339
▁find	-6340
▁בחלק	-6341
▁יומי	-6342
▁ויה	-6343
כולות	-6344
▁פינת	-6345
▁קיימת	-6346
▁שניים	-6347
▁נאמר	-6348
רף	-6349
ביי	-6350
בדו	-6351
ניתוח	-6352
▁עיניים	-6353
▁לכנסת	-6354
▁המטרה	-6355
שיפה	-6356
▁מבוס	-6357
▁דול	-6358
▁אוטומ	-6359
▁פסטיבל	-6360
▁גלעד	-6361
▁הנוכחי	-6362
▁car	-6363
▁ועדיין	-6364
▁נדיר	-6365
▁באורח	-6366
ייני	-6367
▁אדמה	-6368
▁צפויה	-6369
▁רז	-6370
▁בתוכ	-6371
▁מעניי	-6372
וין	-6373
כתוב	-6374
▁בשלום	-6375
▁זמין	-6376
בון	-6377
▁השעה	-6378
▁לדבריו	-6379
▁אזרח	-6380
▁הטלפון	-6381
▁מהתמונות	-6382
ופשה	-6383
▁בנייה	-6384
▁השא	-6385
קלי	-6386
▁ביל	-6387
▁che	-6388
נאל	-6389
נרגיה	-6390
▁נשמ	-6391
▁משוב	-6392
ובית	-6393
▁team	-6394
▁השופט	-6395
▁להסביר	-6396
au	-6397
▁לחכות	-6398
▁שוש	-6399
▁הדרו	-6400
St	-6401
▁הצליח	-6402
▁אצ	-6403
▁ירון	-6404
▁eff	-6405
▁טלי	-6406
▁שהייתה	-6407
נראה	-6408
▁כבד	-6409
▁תראו	-6410
oni	-6411
▁בחנות	-6412
▁מוזר	-6413
צועה	-6414
▁דופן	-6415
acebook	-6416
▁מתחילה	-6417
▁ניו	-6418
▁תומר	-6419
מוי	-6420
▁מלחמת	-6421
ric	-6422
▁יניב	-6423
▁מפנק	-6424
▁גשם	-6425
זבאללה	-6426
הל	-6427
vel	-6428
פוח	-6429
▁במט	-6430
▁והרבה	-6431
▁מעשה	-6432
▁ins	-6433
▁אנגלית	-6434
▁תמשיך	-6435
▁מוזיק	-6436
▁בקרבת	-6437
▁להציג	-6438
▁ככ	-6439
▁כולה	-6440
▁סטודיו	-6441
▁הכלב	-6442
▁חומרים	-6443
▁best	-6444
▁Ab	-6445
▁קיל	-6446
כונית	-6447
▁loc	-6448
▁כוללת	-6449
ks	-6450
גרלה	-6451
▁להצביע	-6452
▁אלבום	-6453
▁בעיני	-6454
איך	-6455
▁כותב	-6456
ru	-6457
▁גמ	-6458
▁רות	-6459
▁אופיר	-6460
▁בכירים	-6461
▁פח	-6462
▁מסוי	-6463
פלגת	-6464
▁קרו	-6465
נצח	-6466
▁del	-6467
▁ראה	-6468
▁2011	-6469
▁✔	-6470
▁במתחם	-6471
▁האישי	-6472
גית	-6473
let	-6474
▁הנק	-6475
▁איפור	-6476
▁150	-6477
▁מאל	-6478
▁הדור	-6479
ענן	-6480
▁ומב	-6481
▁המרכזי	-6482
▁ישמור	-6483
▁להקים	-6484
▁גבאי	-6485
▁מודה	-6486
▁ללב	-6487
min	-6488
לקות	-6489
▁הוז	-6490
▁נשיקות	-6491
▁חני	-6492
▁אצבע	-6493
▁קריאה	-6494
ונם	-6495
▁לשפר	-6496
▁נועה	-6497
▁ישנם	-6498
▁למישהו	-6499
▁בגובה	-6500
▁שמור	-6501
▁לפרסם	-6502
▁תגיד	-6503
▁יעלה	-6504
▁מעצב	-6505
AL	-6506
▁min	-6507
▁last	-6508
▁תקי	-6509
oot	-6510
▁דרכ	-6511
▁שמר	-6512
▁הורי	-6513
▁להמשך	-6514
>)	-6515
▁עברי	-6516
▁לשנת	-6517
▁again	-6518
▁מפת	-6519
▁כוכב	-6520
וווווווו	-6521
▁set	-6522
בירו	-6523
▁מודיעין	-6524
▁אזרחים	-6525
ger	-6526
▁הצעה	-6527
▁מתכנ	-6528
Ben	-6529
▁בחור	-6530
▁וכול	-6531
ener	-6532
▁והט	-6533
▁הענק	-6534
▁להניח	-6535
▁משחקי	-6536
▁כאב	-6537
▁צבעים	-6538
▁הקשה	-6539
▁עמוק	-6540
▁חוזרת	-6541
▁שמות	-6542
▁הסדרה	-6543
▁נציגי	-6544
▁פורים	-6545
▁המומ	-6546
▁מחול	-6547
▁הבעלים	-6548
▁spec	-6549
▁אורלי	-6550
כחות	-6551
▁מרצ	-6552
▁הדיון	-6553
▁מבט	-6554
ירתי	-6555
▁מכשיר	-6556
▁המילים	-6557
▁פועל	-6558
▁המועד	-6559
צבעה	-6560
▁ביק	-6561
▁own	-6562
▁חחחחחחחח	-6563
▁טוען	-6564
▁אלייך	-6565
.17	-6566
אווה	-6567
▁תהני	-6568
▁קטע	-6569
▁כנס	-6570
▁לחן	-6571
▁מתנות	-6572
▁differen	-6573
▁הוח	-6574
▁באחד	-6575
▁שבהם	-6576
▁לשרת	-6577
▁ימ	-6578
▁She	-6579
▁מתכוו	-6580
▁הקפה	-6581
%,	-6582
▁לידה	-6583
▁זבל	-6584
onardo	-6585
▁ותי	-6586
▁הנח	-6587
▁What	-6588
ששש	-6589
ליחו	-6590
בוקר	-6591
הס	-6592
▁לחם	-6593
ערכת	-6594
▁העור	-6595
▁חייו	-6596
▁מגיש	-6597
▁צרו	-6598
▁inst	-6599
▁יחידת	-6600
ורו	-6601
▁לספק	-6602
מתם	-6603
פטר	-6604
▁תמורת	-6605
42	-6606
ופק	-6607
▁לרכב	-6608
▁שיחה	-6609
עתו	-6610
ריס	-6611
lect	-6612
▁How	-6613
▁המוז	-6614
▁מסתבר	-6615
▁תיעוד	-6616
ues	-6617
▁באוניברסי	-6618
▁אשכנ	-6619
▁צרפת	-6620
נפל	-6621
▁הזמנה	-6622
▁ישן	-6623
▁חלקי	-6624
▁במועדון	-6625
>>	-6626
▁עבודת	-6627
ider	-6628
▁לשלב	-6629
▁סדנאות	-6630
▁being	-6631
AT	-6632
▁הלקוח	-6633
וכית	-6634
מודי	-6635
▁לסגור	-6636
▁הפלי	-6637
▁מטורף	-6638
▁עקי	-6639
▁ערן	-6640
▁בטיחות	-6641
▁במד	-6642
כא	-6643
▁לארוחת	-6644
▁Restaurant	-6645
▁קולות	-6646
▁גוט	-6647
▁תלמידים	-6648
IS	-6649
▁נערך	-6650
▁בים	-6651
▁מבק	-6652
▁תכנון	-6653
▁Leonardo	-6654
▁ישיר	-6655
▁מודעות	-6656
▁ההגנה	-6657
▁בלעדי	-6658
▁גיוס	-6659
▁אחרון	-6660
▁נכסים	-6661
▁long	-6662
Am	-6663
▁נועם	-6664
▁רדיו	-6665
▁תמ	-6666
▁הגענו	-6667
▁Ex	-6668
chool	-6669
▁ואחרי	-6670
▁משפחתי	-6671
ריל	-6672
ואת	-6673
▁רכבת	-6674
טוף	-6675
▁במדינת	-6676
▁רהי	-6677
▁הופך	-6678
פקד	-6679
▁ההג	-6680
▁הסכ	-6681
▁מכתב	-6682
ii	-6683
קבלו	-6684
טיחות	-6685
מרט	-6686
שינו	-6687
▁ומתן	-6688
צרי	-6689
האם	-6690
▁הפוע	-6691
▁בקשר	-6692
▁business	-6693
▁אחים	-6694
צם	-6695
reen	-6696
▁נדל	-6697
ביט	-6698
ומנים	-6699
▁בסוריה	-6700
ny	-6701
▁שמחים	-6702
▁David	-6703
OR	-6704
▁אלכס	-6705
▁קרובים	-6706
▁לרדת	-6707
▁מתוכ	-6708
▁av	-6709
▁event	-6710
▁משכ	-6711
▁שאנו	-6712
▁וגי	-6713
▁לגור	-6714
▁הגל	-6715
▁ולמ	-6716
▁סופקו	-6717
▁התש	-6718
▁השוטרים	-6719
echn	-6720
▁למשפחה	-6721
▁מגורים	-6722
▁לרשות	-6723
37	-6724
▁שבמ	-6725
▁לקיים	-6726
ps	-6727
▁ולב	-6728
▁בכתבה	-6729
▁שאינו	-6730
-12	-6731
▁סגל	-6732
▁before	-6733
▁המילה	-6734
▁נוסעים	-6735
▁אפל	-6736
▁מעי	-6737
דרו	-6738
חוב	-6739
ערבי	-6740
▁does	-6741
▁מסלול	-6742
צלחת	-6743
/10	-6744
▁חשיבות	-6745
קרית	-6746
▁נוי	-6747
▁קניון	-6748
▁עצי	-6749
▁ושם	-6750
▁מהיום	-6751
▁because	-6752
▁השירותים	-6753
▁הנדל	-6754
▁מייל	-6755
▁הטיול	-6756
iron	-6757
זרחי	-6758
▁זונה	-6759
▁צמח	-6760
והבים	-6761
ונט	-6762
▁ברוב	-6763
▁מכון	-6764
▁לקבוע	-6765
ויק	-6766
▁גג	-6767
▁הכלכלה	-6768
כוני	-6769
▁מכירת	-6770
hay	-6771
▁הלוח	-6772
▁לשכוח	-6773
▁שיצא	-6774
▁העסקים	-6775
Is	-6776
-200	-6777
מתו	-6778
▁וזו	-6779
▁לביקור	-6780
▁Daniel	-6781
▁בתום	-6782
▁אריק	-6783
▁VFM	-6784
▁הכוח	-6785
ועים	-6786
ET	-6787
▁שליטה	-6788
▁יתרון	-6789
▁fam	-6790
▁מכם	-6791
וכבים	-6792
way	-6793
▁למות	-6794
ani	-6795
▁אדל	-6796
▁ותה	-6797
▁מעמד	-6798
▁מומחה	-6799
'-	-6800
▁אזרחי	-6801
▁ובלי	-6802
▁שכולם	-6803
▁But	-6804
ייבות	-6805
▁החקלא	-6806
פגנה	-6807
▁ביצע	-6808
▁דיין	-6809
▁החג	-6810
▁חודשיים	-6811
.12	-6812
▁הגישה	-6813
▁עומדת	-6814
שיה	-6815
▁שוט	-6816
▁אידי	-6817
▁וצי	-6818
▁עשתה	-6819
▁develop	-6820
▁השראה	-6821
ביס	-6822
▁החקירה	-6823
▁הנתונים	-6824
▁גופ	-6825
▁במגוון	-6826
86	-6827
▁להזמנות	-6828
▁בעברית	-6829
▁יוח	-6830
▁sur	-6831
▁הייתם	-6832
יתן	-6833
▁חיבוק	-6834
no	-6835
▁גיר	-6836
ילנד	-6837
▁think	-6838
▁Cent	-6839
▁יחזור	-6840
▁לבחירת	-6841
▁מסעדת	-6842
חינה	-6843
▁ממשיכה	-6844
adav	-6845
▁תוספת	-6846
▁והרשמה	-6847
▁אוני	-6848
▁חיוך	-6849
▁מוחלט	-6850
▁הציבורי	-6851
▁הצעיר	-6852
אנה	-6853
▁מתל	-6854
דשות	-6855
▁מטה	-6856
obile	-6857
וצץ	-6858
▁אוהד	-6859
גרו	-6860
gle	-6861
▁ריב	-6862
ered	-6863
▁סבתא	-6864
▁שהגיעו	-6865
▁תנועת	-6866
▁בתחרות	-6867
▁גע	-6868
▁home	-6869
▁אופנה	-6870
▁הצהריים	-6871
ins	-6872
נציה	-6873
▁שעוד	-6874
▁שהב	-6875
▁כתבת	-6876
▁לבטל	-6877
▁ובו	-6878
AS	-6879
ex	-6880
ולין	-6881
▁ברזל	-6882
▁מורי	-6883
▁יונתן	-6884
▁הקואליציה	-6885
ollow	-6886
▁רובי	-6887
▁שכתב	-6888
▁משותפת	-6889
▁שניות	-6890
▁חברתית	-6891
▁משר	-6892
שוואה	-6893
▁Of	-6894
▁הזי	-6895
.(	-6896
▁טיפים	-6897
▁להנות	-6898
!!!!!	-6899
▁הופעה	-6900
/11	-6901
פכה	-6902
עדכן	-6903
▁הכביש	-6904
▁עצמית	-6905
כללה	-6906
▁הקרובות	-6907
אמה	-6908
▁בטוויטר	-6909
וזן	-6910
וחת	-6911
▁such	-6912
▁ושת	-6913
▁החדר	-6914
▁ממוק	-6915
▁יפו	-6916
▁שתת	-6917
▁למחיר	-6918
▁שפת	-6919
ames	-6920
▁דלתות	-6921
▁קיבלה	-6922
▁פועלים	-6923
▁הגיוני	-6924
▁לוותר	-6925
▁אפי	-6926
▁אבנים	-6927
▁העזרה	-6928
▁השל	-6929
▁ובין	-6930
▁co	-6931
בעה	-6932
amir	-6933
▁ובני	-6934
▁הישיבה	-6935
▁משקל	-6936
▁נדר	-6937
▁‘	-6938
▁לעת	-6939
▁מהד	-6940
גנו	-6941
▁mod	-6942
▁סח	-6943
▁האתי	-6944
▁זוכרת	-6945
▁חירום	-6946
▁להודות	-6947
▁החיילים	-6948
.15	-6949
▁הבמה	-6950
▁נדב	-6951
▁בהשתתפות	-6952
posts	-6953
כלס	-6954
▁הידי	-6955
▁עמד	-6956
▁פסק	-6957
▁נציג	-6958
▁תהנה	-6959
▁האפליקציה	-6960
▁הלאה	-6961
▁ההצעה	-6962
▁דרישות	-6963
טרס	-6964
▁ארצות	-6965
▁יוש	-6966
▁שלייי	-6967
▁made	-6968
גשים	-6969
▁ארוחות	-6970
▁בשבילי	-6971
▁התרו	-6972
▁באו	-6973
▁בהז	-6974
▁מתג	-6975
▁שיחות	-6976
ובש	-6977
▁לזכור	-6978
▁בניה	-6979
▁ביקר	-6980
▁print	-6981
▁בתכנית	-6982
rent	-6983
▁במיל	-6984
US	-6985
שוי	-6986
▁ושה	-6987
▁ענת	-6988
▁מיטב	-6989
ple	-6990
▁sub	-6991
▁תפי	-6992
▁טכני	-6993
▁לטובה	-6994
▁במבצע	-6995
▁המזון	-6996
▁נמש	-6997
▁סיל	-6998
▁חמור	-6999
▁תושבים	-7000
▁חמים	-7001
▁Micha	-7002
▁מהן	-7003
▁כאחד	-7004
▁support	-7005
מליץ	-7006
▁מאיה	-7007
ative	-7008
▁אוס	-7009
ייגו	-7010
נונה	-7011
▁גבוהים	-7012
כבר	-7013
▁נפל	-7014
▁הלבן	-7015
▁פופ	-7016
▁שירי	-7017
▁ישיבת	-7018
▁מרן	-7019
▁המועדון	-7020
ויח	-7021
▁מוצלח	-7022
▁ראיון	-7023
▁הסל	-7024
-19	-7025
ross	-7026
▁לנסי	-7027
▁מותג	-7028
▁איחוד	-7029
▁הודעות	-7030
▁שליי	-7031
▁שאף	-7032
▁נדלן	-7033
▁הצפון	-7034
▁בסמוך	-7035
▁פנו	-7036
איזה	-7037
▁end	-7038
▁שואל	-7039
▁אסטרט	-7040
▁בחזרה	-7041
▁התקשרו	-7042
▁מיק	-7043
▁משותף	-7044
שורות	-7045
▁דורון	-7046
קאים	-7047
▁האב	-7048
▁לחדר	-7049
מפרט	-7050
▁קרקע	-7051
▁.....	-7052
▁רבין	-7053
▁ואושר	-7054
▁עשיר	-7055
▁הנד	-7056
▁עלו	-7057
▁הצבע	-7058
גינה	-7059
▁לחגוג	-7060
▁ולמה	-7061
רוחות	-7062
▁המיוחד	-7063
▁יולי	-7064
חתה	-7065
▁למטה	-7066
▁ביתי	-7067
ולדות	-7068
▁אטרק	-7069
לאות	-7070
▁שפר	-7071
▁לחיי	-7072
▁אחות	-7073
by	-7074
▁מותו	-7075
▁ברשות	-7076
▁גובה	-7077
▁House	-7078
ורן	-7079
▁קשים	-7080
▁שערים	-7081
▁הגמר	-7082
▁שהכל	-7083
▁שומר	-7084
▁כלה	-7085
▁inter	-7086
IT	-7087
▁בחו	-7088
▁רותם	-7089
▁בפעילות	-7090
טחוני	-7091
▁אליפות	-7092
▁המאפשר	-7093
ox	-7094
▁שהצ	-7095
▁למשך	-7096
▁באיכות	-7097
▁מרה	-7098
▁שלהן	-7099
▁אפליק	-7100
▁לדאוג	-7101
▁הציוני	-7102
▁להשאיר	-7103
EN	-7104
▁el	-7105
▁אוג	-7106
חב	-7107
קציה	-7108
▁לאיר	-7109
▁מיידית	-7110
קא	-7111
סיד	-7112
▁אפס	-7113
▁סכום	-7114
קרן	-7115
ציאה	-7116
▁ויל	-7117
▁הילדה	-7118
▁ללילה	-7119
▁cre	-7120
▁מורכ	-7121
▁בדיקת	-7122
▁בליגה	-7123
▁בשנות	-7124
▁הפרסום	-7125
▁דלק	-7126
▁המגיעים	-7127
▁שיד	-7128
▁בספר	-7129
erman	-7130
▁לחברת	-7131
ional	-7132
OT	-7133
▁נגישות	-7134
וצא	-7135
▁מיה	-7136
▁prov	-7137
▁לאה	-7138
שתתפים	-7139
▁זוע	-7140
▁האו	-7141
▁היכן	-7142
▁כרמל	-7143
▁ההסכם	-7144
▁בכניסה	-7145
▁הדירות	-7146
▁חופשית	-7147
▁:(	-7148
▁בתפקיד	-7149
בורג	-7150
▁requ	-7151
▁לשכת	-7152
▁בסביבה	-7153
▁התוצאה	-7154
▁לרכישת	-7155
▁מאמינים	-7156
נקה	-7157
סטרו	-7158
▁החייל	-7159
▁במייל	-7160
▁דוח	-7161
▁עולים	-7162
ניר	-7163
):	-7164
צק	-7165
▁vis	-7166
▁למשרד	-7167
▁מדברת	-7168
▁בדיקה	-7169
▁מחזור	-7170
▁המשפטי	-7171
▁והצלחה	-7172
▁נפגעים	-7173
▁בשמחה	-7174
▁במקומות	-7175
▁פנט	-7176
▁טיסה	-7177
▁סובל	-7178
▁There	-7179
▁All	-7180
irect	-7181
▁בניו	-7182
▁מזרח	-7183
שנים	-7184
▁השניה	-7185
▁הסבירות	-7186
▁מירב	-7187
▁חקירה	-7188
נדס	-7189
▁רונן	-7190
▁Park	-7191
▁אינס	-7192
▁מוכנה	-7193
ness	-7194
▁אנרגיה	-7195
▁קשות	-7196
▁עזר	-7197
▁השחקנים	-7198
▁המכרז	-7199
ds	-7200
▁sk	-7201
סוקה	-7202
▁ושמחה	-7203
▁ישירה	-7204
uz	-7205
מיקה	-7206
ליכים	-7207
▁בהרצ	-7208
גנים	-7209
▁נקבע	-7210
▁למרכז	-7211
-%	-7212
▁lead	-7213
▁החורף	-7214
▁ייחודי	-7215
▁כשאתה	-7216
▁דוק	-7217
▁נחל	-7218
אמר	-7219
▁הקד	-7220
▁גבינה	-7221
▁מפתיע	-7222
מטכ	-7223
▁מינית	-7224
▁בטקס	-7225
וצע	-7226
▁pres	-7227
▁here	-7228
מיק	-7229
▁רציני	-7230
cc	-7231
▁ג׳	-7232
▁מית	-7233
נלאומית	-7234
4.	-7235
▁בוט	-7236
פעמים	-7237
▁למועד	-7238
וצאת	-7239
▁האירועים	-7240
▁נחשב	-7241
▁קורי	-7242
▁אחראי	-7243
▁ההון	-7244
וכיח	-7245
▁while	-7246
▁שמלות	-7247
ked	-7248
▁ואיכות	-7249
▁היע	-7250
▁יוצרים	-7251
▁הסדר	-7252
▁עברה	-7253
▁לאהוב	-7254
tt	-7255
יינה	-7256
▁המחקר	-7257
riend	-7258
▁רוש	-7259
▁השירים	-7260
צרה	-7261
▁בשקט	-7262
▁המסחר	-7263
יהנו	-7264
▁בשורות	-7265
ivers	-7266
▁סופש	-7267
ייבים	-7268
▁בצבא	-7269
▁יהדות	-7270
ael	-7271
אוכל	-7272
▁לתא	-7273
▁להראות	-7274
לטות	-7275
▁טעימה	-7276
uss	-7277
ביעו	-7278
▁כשיש	-7279
ביק	-7280
▁הסד	-7281
▁עוברים	-7282
aniv	-7283
▁world	-7284
▁בקיץ	-7285
▁מאחר	-7286
פריה	-7287
אתר	-7288
רגן	-7289
▁מהק	-7290
▁נקודה	-7291
יקף	-7292
▁ובס	-7293
רוצים	-7294
▁מצליחה	-7295
▁הצבאי	-7296
▁מתוקים	-7297
▁תנאים	-7298
▁לנהל	-7299
▁gu	-7300
מינות	-7301
שימות	-7302
▁2000	-7303
▁design	-7304
פיל	-7305
▁הילה	-7306
▁נתוני	-7307
ביים	-7308
קדמות	-7309
▁sim	-7310
▁אצלך	-7311
▁איילת	-7312
▁כוכבים	-7313
הכ	-7314
▁Man	-7315
▁מלבד	-7316
▁היומי	-7317
▁התנהגות	-7318
היא	-7319
נהלות	-7320
▁שאול	-7321
▁הרשמה	-7322
▁בחורה	-7323
▁לעצמו	-7324
▁המדהימה	-7325
▁פג	-7326
סקו	-7327
▁חוגגים	-7328
▁זע	-7329
▁ותק	-7330
וצרים	-7331
▁ממתי	-7332
Bar	-7333
▁דרור	-7334
▁ref	-7335
▁ויפה	-7336
▁נייד	-7337
▁הישראלים	-7338
שראי	-7339
בירים	-7340
▁תפריט	-7341
▁הבנות	-7342
▁תיאטרון	-7343
ווט	-7344
ההההה	-7345
▁להנ	-7346
********	-7347
hi	-7348
▁ולקבל	-7349
▁שהייתי	-7350
▁עודד	-7351
▁הגבול	-7352
▁בשידור	-7353
▁ולס	-7354
▁מקל	-7355
▁סוד	-7356
▁יהוד	-7357
▁under	-7358
▁עסקי	-7359
▁אחוזים	-7360
▁ושר	-7361
ili	-7362
▁בעמוד	-7363
6.	-7364
bl	-7365
פאה	-7366
▁הנכ	-7367
מוז	-7368
▁לעסקים	-7369
▁ec	-7370
ern	-7371
▁מטופ	-7372
▁חייגו	-7373
▁עיבוד	-7374
EL	-7375
▁tr	-7376
▁life	-7377
רתם	-7378
▁לעם	-7379
▁פרחים	-7380
▁לצפייה	-7381
▁כבן	-7382
טבה	-7383
כלות	-7384
read	-7385
▁היצ	-7386
▁יקבל	-7387
▁הנהלת	-7388
/20	-7389
uval	-7390
▁זכתה	-7391
▁מיקי	-7392
ומק	-7393
לומי	-7394
▁דלפק	-7395
▁העיניים	-7396
▁bu	-7397
▁בחברת	-7398
▁ובח	-7399
▁חנויות	-7400
84	-7401
▁קונים	-7402
▁תוס	-7403
▁ידיים	-7404
▁כשל	-7405
▁לאף	-7406
▁סמי	-7407
פנו	-7408
מציה	-7409
▁גאווה	-7410
בדוק	-7411
ריזה	-7412
▁עשרה	-7413
lex	-7414
▁לביטחון	-7415
▁חו	-7416
▁הפג	-7417
▁קונה	-7418
ביבי	-7419
▁ידיעות	-7420
▁שינויים	-7421
ope	-7422
▁פשוטה	-7423
▁נפגש	-7424
▁הכדורגל	-7425
צוץ	-7426
▁הצלה	-7427
▁ירקות	-7428
▁התחרות	-7429
-9	-7430
וגיה	-7431
▁חשד	-7432
▁used	-7433
▁לרשת	-7434
▁בבניין	-7435
▁פרטיים	-7436
זורים	-7437
▁לקידום	-7438
aha	-7439
▁הבט	-7440
פאת	-7441
usic	-7442
ביאו	-7443
▁שו	-7444
▁צודקת	-7445
▁המדינות	-7446
▁שיהיו	-7447
▁להגן	-7448
גרום	-7449
משלת	-7450
▁צפייה	-7451
▁בהודעה	-7452
▁Sc	-7453
חיית	-7454
▁החוף	-7455
▁ומעלה	-7456
ces	-7457
ואיד	-7458
▁ההבדל	-7459
▁נוכל	-7460
▁בגדים	-7461
▁לקבוצה	-7462
app	-7463
▁החלטת	-7464
oshe	-7465
▁ספיר	-7466
▁אלכוהול	-7467
Al	-7468
▁בוז	-7469
▁מזמינה	-7470
ral	-7471
▁נושאים	-7472
ines	-7473
טינג	-7474
▁סיור	-7475
▁מוביל	-7476
▁גנ	-7477
פוני	-7478
ince	-7479
▁באשקלון	-7480
זיל	-7481
כינו	-7482
▁בטוחים	-7483
נציאל	-7484
▁הכנס	-7485
Or	-7486
▁Se	-7487
▁ביס	-7488
קנה	-7489
▁שליייי	-7490
▁ישת	-7491
▁אמאלה	-7492
ually	-7493
▁som	-7494
▁נוחות	-7495
וגע	-7496
ives	-7497
▁Shir	-7498
ולך	-7499
▁לערב	-7500
▁הסבר	-7501
formation	-7502
מצב	-7503
ייפון	-7504
▁החופש	-7505
▁המקומות	-7506
//	-7507
▁love	-7508
▁ביטול	-7509
ars	-7510
מנתי	-7511
▁הפוך	-7512
▁תעודת	-7513
וקות	-7514
שירי	-7515
▁העתיד	-7516
▁סימן	-7517
▁סור	-7518
▁לימודי	-7519
▁טה	-7520
▁מאחל	-7521
▁השלטון	-7522
גיל	-7523
▁החליטו	-7524
imes	-7525
▁happ	-7526
▁צמוד	-7527
פלל	-7528
▁ראו	-7529
▁להציל	-7530
שלם	-7531
▁ולצ	-7532
▁סלט	-7533
▁גבול	-7534
איים	-7535
▁באוק	-7536
▁השתתפו	-7537
▁לאירועים	-7538
גלי	-7539
rat	-7540
gram	-7541
ניקים	-7542
▁בתקשורת	-7543
נתם	-7544
▁כספים	-7545
אהבה	-7546
▁בפרס	-7547
▁עלול	-7548
▁המאמן	-7549
▁ומהנה	-7550
ופך	-7551
כלל	-7552
▁הפיגוע	-7553
▁מצטר	-7554
▁באפרי	-7555
▁שטויות	-7556
▁those	-7557
איר	-7558
▁למדי	-7559
▁האפשרות	-7560
▁הבלתי	-7561
▁עילית	-7562
נואר	-7563
aj	-7564
▁הקורס	-7565
▁לענות	-7566
▁באנגלית	-7567
יט	-7568
▁גדל	-7569
▁בכמה	-7570
▁him	-7571
▁ילדות	-7572
ייץ	-7573
▁ליטר	-7574
▁ציפי	-7575
▁הצר	-7576
▁בדבר	-7577
מוץ	-7578
▁בגודל	-7579
▁num	-7580
unity	-7581
פרק	-7582
▁לוחמי	-7583
טיסים	-7584
סיבות	-7585
▁כרגיל	-7586
▁שיחק	-7587
סיבת	-7588
▁קמפיין	-7589
▁מאסר	-7590
▁מבנה	-7591
▁שרית	-7592
נגב	-7593
▁01	-7594
▁בינואר	-7595
▁­	-7596
▁שבח	-7597
▁בהרבה	-7598
▁להכנס	-7599
▁שמגיע	-7600
▁צמ	-7601
▁בדיקות	-7602
avi	-7603
איון	-7604
▁דעות	-7605
▁הפולי	-7606
akes	-7607
▁תראי	-7608
בטא	-7609
▁בשום	-7610
▁לעקוב	-7611
▁עומדים	-7612
▁סטודנטים	-7613
▁המשמעות	-7614
▁Ind	-7615
▁הדף	-7616
קירות	-7617
▁חלומות	-7618
▁מדע	-7619
▁נלח	-7620
ליב	-7621
▁בוי	-7622
▁מניות	-7623
ites	-7624
▁ממח	-7625
▁שוכ	-7626
▁העין	-7627
ולט	-7628
ize	-7629
bid	-7630
▁זכר	-7631
▁יעד	-7632
קנים	-7633
▁תופ	-7634
לש	-7635
▁call	-7636
▁אירועי	-7637
▁לכאורה	-7638
▁נתק	-7639
▁2010	-7640
▁הקטע	-7641
rib	-7642
▁prof	-7643
▁היס	-7644
▁בירה	-7645
79	-7646
sky	-7647
פתור	-7648
רביעי	-7649
▁לתרום	-7650
▁הקפד	-7651
▁הכוונה	-7652
▁הגדולות	-7653
דרג	-7654
▁מפתח	-7655
▁נותר	-7656
▁הרשויות	-7657
בחון	-7658
▁מפה	-7659
יימות	-7660
▁העיק	-7661
▁מתגעגעת	-7662
יג	-7663
▁בדף	-7664
וחי	-7665
▁קטי	-7666
▁עוגת	-7667
ומולדת	-7668
-46	-7669
▁לקהל	-7670
▁שאולי	-7671
▁מהממים	-7672
▁והמון	-7673
fl	-7674
וגן	-7675
▁מגניב	-7676
▁שאנשים	-7677
>&	-7678
▁טא	-7679
מצאות	-7680
▁disc	-7681
▁US	-7682
erg	-7683
קרוב	-7684
רוכת	-7685
▁במוע	-7686
▁מעוניינים	-7687
▁נייר	-7688
▁נבח	-7689
▁לחלק	-7690
רכיבים	-7691
▁המחשב	-7692
▁להתקשר	-7693
▁יוג	-7694
▁חוזה	-7695
ittle	-7696
▁ברורה	-7697
צרות	-7698
▁והנה	-7699
▁wi	-7700
▁קראתי	-7701
ila	-7702
סתה	-7703
טרנטי	-7704
▁סרטים	-7705
▁הון	-7706
▁ציו	-7707
▁ובכלל	-7708
▁מסביר	-7709
orn	-7710
▁בנתניה	-7711
טול	-7712
▁cur	-7713
▁מגיל	-7714
דיבות	-7715
▁השמש	-7716
צקי	-7717
▁אורח	-7718
▁הקרן	-7719
________	-7720
▁שאינם	-7721
▁כלכלית	-7722
טסאפ	-7723
שיטים	-7724
▁הכות	-7725
▁ובריאות	-7726
▁really	-7727
אטרון	-7728
▁מקומיים	-7729
▁person	-7730
▁gl	-7731
▁דורש	-7732
!)	-7733
>.1<	-7734
▁מגל	-7735
yn	-7736
▁ונע	-7737
▁around	-7738
▁זקן	-7739
משת	-7740
▁הדתית	-7741
▁החליטה	-7742
▁רמה	-7743
▁נסיכה	-7744
סטל	-7745
▁רוצ	-7746
שאי	-7747
▁שעושה	-7748
פעול	-7749
שלישי	-7750
▁לתקן	-7751
pr	-7752
פיר	-7753
▁עבורכם	-7754
נוג	-7755
בטיה	-7756
▁חורף	-7757
▁אמורה	-7758
▁הקלה	-7759
▁ברשתות	-7760
▁גרמניה	-7761
▁השונות	-7762
▁קצב	-7763
▁שפי	-7764
▁נמר	-7765
▁קורות	-7766
▁הערבית	-7767
▁הציבורית	-7768
▁שתע	-7769
▁בסיום	-7770
ברתית	-7771
▁המשק	-7772
▁הקו	-7773
▁מבקשת	-7774
▁מקרים	-7775
58	-7776
do	-7777
מיוחד	-7778
▁המסת	-7779
▁מסוכן	-7780
ara	-7781
קבלה	-7782
▁לייצר	-7783
ka	-7784
שמאל	-7785
ature	-7786
▁השיער	-7787
▁להקת	-7788
▁ביטוי	-7789
ואין	-7790
▁אופטי	-7791
▁במזרח	-7792
▁חתונה	-7793
ראל	-7794
orth	-7795
▁תן	-7796
ious	-7797
▁run	-7798
▁להעניק	-7799
ודעת	-7800
▁שותף	-7801
▁השואה	-7802
▁בירי	-7803
ali	-7804
סמה	-7805
▁לבת	-7806
ראינה	-7807
▁יצאה	-7808
ולל	-7809
▁חרא	-7810
▁system	-7811
▁הנפש	-7812
▁שקיבל	-7813
צעד	-7814
▁כללית	-7815
▁ורא	-7816
▁בהקדם	-7817
ובלת	-7818
▁אשראי	-7819
פלי	-7820
▁מדד	-7821
▁לסיים	-7822
▁אמריקה	-7823
▁האווירה	-7824
שין	-7825
▁נווה	-7826
▁הבאות	-7827
▁ההסתדרות	-7828
▁פגישה	-7829
▁עבירות	-7830
▁בוו	-7831
▁מאה	-7832
▁מאפשרת	-7833
דמה	-7834
▁הצעירים	-7835
ואם	-7836
▁יורו	-7837
▁שרות	-7838
▁השופטים	-7839
▁id	-7840
▁ומקצוע	-7841
▁בעונה	-7842
▁בקרית	-7843
▁נפלאה	-7844
▁רצה	-7845
▁התב	-7846
▁שקרה	-7847
▁using	-7848
▁סבבה	-7849
▁והיום	-7850
ality	-7851
▁המותג	-7852
▁הלכה	-7853
▁נופש	-7854
מלית	-7855
iew	-7856
▁sign	-7857
▁החלק	-7858
▁הפופולריים	-7859
וריות	-7860
▁הנגב	-7861
aut	-7862
דאי	-7863
▁מערב	-7864
מג	-7865
▁שטי	-7866
▁הכדור	-7867
.11	-7868
שמת	-7869
▁5.	-7870
▁רחבי	-7871
▁מסביב	-7872
▁למערכת	-7873
ינים	-7874
נסון	-7875
▁גילה	-7876
▁סיטי	-7877
▁different	-7878
▁זרי	-7879
▁המשתתפים	-7880
סטיקה	-7881
▁בשכונה	-7882
ברך	-7883
▁מהצ	-7884
▁מרים	-7885
2/201	-7886
מנויות	-7887
▁פעילויות	-7888
2/	-7889
ams	-7890
וננים	-7891
:00.	-7892
זקים	-7893
▁400	-7894
▁והאי	-7895
▁מחזיק	-7896
ween	-7897
כחית	-7898
אדם	-7899
▁pol	-7900
▁רוכ	-7901
▁250	-7902
▁ליגת	-7903
▁שווים	-7904
ode	-7905
מצי	-7906
וננו	-7907
▁יריב	-7908
▁סדנת	-7909
▁ואילו	-7910
▁צעירה	-7911
▁לביצוע	-7912
מכר	-7913
▁האופוזיציה	-7914
ולאי	-7915
מירה	-7916
חמישי	-7917
▁עלתה	-7918
▁עדין	-7919
ובוסים	-7920
▁האמריקאי	-7921
▁מצא	-7922
▁הרעיון	-7923
▁סתיו	-7924
▁Gr	-7925
----------------	-7926
41	-7927
/17,	-7928
▁They	-7929
▁נעצרו	-7930
סתם	-7931
arden	-7932
▁מרגשת	-7933
ows	-7934
group	-7935
▁פתיחה	-7936
▁מוסיקה	-7937
▁פיט	-7938
▁מפעל	-7939
▁הגיוס	-7940
▁det	-7941
▁חמה	-7942
טלפון	-7943
▁בקלי	-7944
▁הגבוה	-7945
▁ext	-7946
▁בעיצוב	-7947
▁טבריה	-7948
יתרון	-7949
▁וכבר	-7950
▁מהלך	-7951
▁לבריאות	-7952
▁טען	-7953
▁עמק	-7954
▁יצירה	-7955
▁ואה	-7956
oogle	-7957
▁מתכוון	-7958
▁33	-7959
ביעים	-7960
▁המערבי	-7961
^^^^	-7962
ציבור	-7963
וטן	-7964
▁כמי	-7965
▁hand	-7966
▁המשחקים	-7967
תק	-7968
▁So	-7969
▁למוות	-7970
▁32	-7971
▁Car	-7972
▁תגידו	-7973
▁חשובים	-7974
▁מלווה	-7975
אולי	-7976
▁אנד	-7977
▁בגוף	-7978
▁הקודמת	-7979
▁Had	-7980
▁ספור	-7981
▁לשבוע	-7982
▁להשקיע	-7983
כוז	-7984
ןןן	-7985
וכנים	-7986
▁ירדן	-7987
sc	-7988
▁לראשות	-7989
▁והמו	-7990
▁מבחינה	-7991
▁זיו	-7992
▁סני	-7993
▁הות	-7994
▁בכלא	-7995
ףףף	-7996
PA	-7997
▁בפרט	-7998
▁גלנט	-7999
פוט	-8000
▁מיידי	-8001
▁עירוני	-8002
▁מכה	-8003
▁בחוק	-8004
▁ובכך	-8005
גבר	-8006
ways	-8007
סין	-8008
▁To	-8009
▁הרצון	-8010
▁רן	-8011
ירון	-8012
IC	-8013
▁אילו	-8014
▁;)	-8015
76	-8016
גבניות	-8017
▁המורה	-8018
▁שניהם	-8019
▁החלטות	-8020
רכן	-8021
▁מבחן	-8022
צטדיון	-8023
ווווו	-8024
▁משמע	-8025
▁ברדיו	-8026
▁לעניין	-8027
▁כיתה	-8028
▁שראיתי	-8029
adi	-8030
▁סרטן	-8031
▁בוטיק	-8032
▁רהיטים	-8033
▁נחמדה	-8034
▁לניהול	-8035
הצ	-8036
▁3,	-8037
▁החיל	-8038
▁החנות	-8039
▁לילות	-8040
▁בממשלה	-8041
ute	-8042
נדבות	-8043
אטה	-8044
:00,	-8045
▁האדום	-8046
▁תוק	-8047
▁אורך	-8048
▁אלמוג	-8049
ערב	-8050
▁רכבים	-8051
▁בגד	-8052
פתחו	-8053
▁באשר	-8054
▁הורה	-8055
▁להתר	-8056
▁ברמות	-8057
▁אוניברסי	-8058
▁Levi	-8059
▁still	-8060
▁מציג	-8061
וסקים	-8062
had	-8063
▁מגדל	-8064
▁יעבור	-8065
▁יישר	-8066
▁הצליחו	-8067
▁מציאות	-8068
ווני	-8069
▁cust	-8070
In	-8071
▁מוא	-8072
▁לנסוע	-8073
▁המושלם	-8074
.10	-8075
▁משופ	-8076
▁שוטר	-8077
▁היכולת	-8078
▁להוביל	-8079
▁My	-8080
בעות	-8081
▁מוזמן	-8082
ללל	-8083
AM	-8084
▁har	-8085
▁ותע	-8086
▁תינוק	-8087
▁ed	-8088
▁הנפ	-8089
▁שידור	-8090
ght	-8091
נטל	-8092
▁תגובת	-8093
▁ראשוני	-8094
ילא	-8095
▁עילת	-8096
▁כשהיא	-8097
▁ליווי	-8098
▁שנערך	-8099
▁75	-8100
▁ret	-8101
▁game	-8102
▁בתשלום	-8103
▁הנוכחית	-8104
ציעה	-8105
▁בדוק	-8106
89	-8107
ובלי	-8108
נהגות	-8109
▁תוקף	-8110
▁לעזוב	-8111
▁ציבורי	-8112
▁פרויקטים	-8113
וונות	-8114
ather	-8115
מלצות	-8116
▁eas	-8117
▁100%	-8118
לינו	-8119
▁דגים	-8120
▁הליגה	-8121
ology	-8122
כנולוגי	-8123
ayan	-8124
▁אוז	-8125
▁באופ	-8126
▁ראובן	-8127
ED	-8128
▁חזן	-8129
▁תקופת	-8130
שארו	-8131
▁איז	-8132
וניינת	-8133
▁בשיעור	-8134
▁הבחירה	-8135
כנסת	-8136
▁ותודה	-8137
▁מעולים	-8138
reak	-8139
▁עקיבא	-8140
▁ונחת	-8141
▁יוצאי	-8142
▁הזמנות	-8143
▁המאבק	-8144
▁פופולריים	-8145
▁וחר	-8146
▁עמיר	-8147
▁בקשת	-8148
groups	-8149
▁היופי	-8150
-16	-8151
led	-8152
the	-8153
▁בשורה	-8154
▁לגיטי	-8155
▁עיק	-8156
פרץ	-8157
מצאת	-8158
כיפה	-8159
▁ההע	-8160
▁לחקור	-8161
▁ריח	-8162
▁התיק	-8163
▁אומנות	-8164
▁בפברואר	-8165
טמן	-8166
▁העיצוב	-8167
צלמה	-8168
▁לומדים	-8169
▁המכשיר	-8170
▁--	-8171
▁המיוח	-8172
====	-8173
▁בפורום	-8174
▁care	-8175
גישו	-8176
▁והכ	-8177
▁טוענים	-8178
▁לירושלים	-8179
-11	-8180
לקס	-8181
צרת	-8182
▁להורדת	-8183
כנתא	-8184
▁השלישית	-8185
▁each	-8186
רכיב	-8187
▁לחש	-8188
▁open	-8189
▁ניסה	-8190
▁קניות	-8191
imon	-8192
חשב	-8193
▁זמר	-8194
▁סקס	-8195
▁ואנו	-8196
▁month	-8197
▁המחנה	-8198
קקקק	-8199
שבות	-8200
▁עצמכם	-8201
▁משתתפים	-8202
ticle	-8203
▁רבע	-8204
▁הזכות	-8205
▁שהייה	-8206
▁top	-8207
▁מחי	-8208
ודרת	-8209
▁מעניינת	-8210
▁תוכניות	-8211
▁קשת	-8212
▁בשבילכם	-8213
▁מזעזע	-8214
▁מפגינים	-8215
▁בצלאל	-8216
ats	-8217
▁רעיונות	-8218
ied	-8219
▁אפרת	-8220
▁הופיע	-8221
icial	-8222
משיכי	-8223
▁ניסי	-8224
▁נשימה	-8225
ווין	-8226
▁לנוח	-8227
▁מכרז	-8228
▁הוות	-8229
▁במתנה	-8230
שכת	-8231
eng	-8232
לפי	-8233
▁ולד	-8234
▁sl	-8235
▁מספרת	-8236
▁עוצמה	-8237
▁האיחוד	-8238
▁ser	-8239
▁מערך	-8240
▁אלקטרוני	-8241
▁מדהימות	-8242
▁הבנקים	-8243
▁מוסדות	-8244
זיות	-8245
קח	-8246
-21	-8247
uper	-8248
▁דווח	-8249
בדת	-8250
▁ראשית	-8251
▁סיפורים	-8252
תחילו	-8253
▁בתים	-8254
▁שנמצא	-8255
erst	-8256
▁שיטת	-8257
▁שעדיין	-8258
אושר	-8259
?"	-8260
▁תוכנות	-8261
▁נבחר	-8262
▁אישיים	-8263
▁between	-8264
mm	-8265
סקת	-8266
▁lot	-8267
פוף	-8268
ster	-8269
▁מטרה	-8270
▁התהליך	-8271
שנה	-8272
וצמה	-8273
▁בחצי	-8274
▁יחסים	-8275
▁המבקרים	-8276
▁ארוחה	-8277
▁מוכרת	-8278
ויב	-8279
▁בתהליך	-8280
▁תתקיים	-8281
▁סע	-8282
▁cour	-8283
▁גדעון	-8284
▁היקרים	-8285
▁אזולאי	-8286
▁לפעילות	-8287
-50	-8288
▁both	-8289
▁בפרויקט	-8290
ube	-8291
▁def	-8292
▁תגיות	-8293
▁מנע	-8294
▁בחולון	-8295
ino	-8296
▁השטח	-8297
▁הוס	-8298
▁השחקן	-8299
▁הגיל	-8300
▁נותנת	-8301
▁גדי	-8302
בהצלחה	-8303
▁שאפו	-8304
▁המתנה	-8305
▁מוצא	-8306
מניות	-8307
▁מקומית	-8308
▁הגבוהה	-8309
▁Col	-8310
▁הבד	-8311
▁מחבל	-8312
-18	-8313
גידו	-8314
היום	-8315
▁עדכון	-8316
תחלה	-8317
▁bel	-8318
▁Aviv	-8319
▁הבנייה	-8320
▁המלחמה	-8321
mp	-8322
כור	-8323
ווקים	-8324
אהב	-8325
▁שוער	-8326
▁going	-8327
ממים	-8328
▁מוכרים	-8329
▁הפרטי	-8330
▁מסוים	-8331
ענות	-8332
▁מצלי	-8333
▁קצרה	-8334
▁סיני	-8335
OL	-8336
ler	-8337
▁נסיון	-8338
▁תהיו	-8339
בורת	-8340
▁דמעות	-8341
▁נראים	-8342
▁שדרות	-8343
▁אטרקציות	-8344
▁מרגישים	-8345
יפס	-8346
▁sol	-8347
ublic	-8348
ומנות	-8349
ersh	-8350
ובדה	-8351
▁Ron	-8352
▁אהובים	-8353
to	-8354
▁מצחי	-8355
▁נמוכה	-8356
▁שתר	-8357
▁לתושבי	-8358
גייס	-8359
▁ולהע	-8360
הההההההה	-8361
עק	-8362
▁גת	-8363
בדים	-8364
גיעות	-8365
▁הלל	-8366
▁בתיק	-8367
▁נגדו	-8368
כלול	-8369
▁למלא	-8370
גמר	-8371
▁65	-8372
▁ורד	-8373
▁סיוע	-8374
▁טסט	-8375
▁follow	-8376
▁פינה	-8377
▁ציין	-8378
▁story	-8379
▁נפצעו	-8380
▁בוחרים	-8381
▁חיס	-8382
Israel	-8383
▁מספרים	-8384
דיות	-8385
▁השולחן	-8386
טרו	-8387
▁36	-8388
▁med	-8389
▁חתיך	-8390
גרי	-8391
▁list	-8392
▁הדרום	-8393
***	-8394
גדים	-8395
▁ותח	-8396
▁המהממת	-8397
▁מגישים	-8398
▁נל	-8399
וגוסט	-8400
▁מוני	-8401
▁הפתרון	-8402
חיש	-8403
טוט	-8404
▁כף	-8405
▁סלון	-8406
-17	-8407
בקת	-8408
▁ייצ	-8409
▁שיתפתי	-8410
ask	-8411
▁פיי	-8412
▁במוצ	-8413
▁עיתונות	-8414
▁החשודים	-8415
ared	-8416
▁???	-8417
זכות	-8418
▁הרוב	-8419
▁מובן	-8420
▁מחלי	-8421
וליטיקה	-8422
כחו	-8423
ריפה	-8424
▁·	-8425
גלל	-8426
פנות	-8427
▁פרא	-8428
▁תוכנה	-8429
▁גוריון	-8430
ator	-8431
טיחה	-8432
▁אסתר	-8433
▁המקרה	-8434
טליה	-8435
▁מטרת	-8436
”.	-8437
▁איסוף	-8438
שיבת	-8439
▁קטל	-8440
▁הבדל	-8441
▁הגולן	-8442
נהג	-8443
▁ביוני	-8444
▁טוויטר	-8445
ניום	-8446
▁opt	-8447
▁גפן	-8448
▁בשילוב	-8449
▁הונ	-8450
▁place	-8451
קאי	-8452
▁מוסר	-8453
▁הטור	-8454
▁שיפור	-8455
▁נסה	-8456
▁שעון	-8457
וויון	-8458
▁חקלא	-8459
▁הקטנים	-8460
▁שרוצים	-8461
הד	-8462
▁הוציא	-8463
▁חשוד	-8464
מכי	-8465
▁הקריאה	-8466
▁אוטובוס	-8467
▁book	-8468
▁תומך	-8469
-14	-8470
▁סנטר	-8471
▁market	-8472
▁רישיון	-8473
ley	-8474
▁פנ	-8475
▁הפלסטינית	-8476
▁הכספים	-8477
מזל	-8478
ource	-8479
▁המוזי	-8480
▁לתמוך	-8481
▁מפח	-8482
▁באחת	-8483
ety	-8484
▁כשהם	-8485
▁לקום	-8486
▁עוברת	-8487
▁השיווק	-8488
▁ובל	-8489
▁לוקחים	-8490
▁הנהג	-8491
▁עונת	-8492
▁ביצים	-8493
▁ההד	-8494
▁תותחית	-8495
סלם	-8496
▁המוזיקה	-8497
ven	-8498
מורים	-8499
▁ובמה	-8500
▁סמס	-8501
▁point	-8502
כמים	-8503
▁הדלת	-8504
▁הכנה	-8505
riel	-8506
▁דגל	-8507
▁תום	-8508
ניעת	-8509
▁exp	-8510
▁עמדת	-8511
משו	-8512
▁אא	-8513
▁fil	-8514
▁לענייני	-8515
לכת	-8516
▁הלכתי	-8517
ze	-8518
▁לבנון	-8519
נייד	-8520
▁1000	-8521
▁מהו	-8522
▁לקוח	-8523
כולל	-8524
▁פרג	-8525
שירות	-8526
▁ניסים	-8527
ss	-8528
ויזיה	-8529
זול	-8530
▁ארכי	-8531
▁מסחר	-8532
▁ימשיך	-8533
▁מבורכת	-8534
▁gr	-8535
▁משנת	-8536
▁מבוק	-8537
▁דבריו	-8538
▁אוף	-8539
פורניים	-8540
▁שותפים	-8541
▁המתח	-8542
▁יונה	-8543
▁הדיור	-8544
▁ייצור	-8545
▁מדריך	-8546
▁too	-8547
▁יקבלו	-8548
▁לחברי	-8549
גג	-8550
ret	-8551
▁קליפ	-8552
olan	-8553
▁למב	-8554
▁אנדר	-8555
מוביץ	-8556
▁בשתי	-8557
▁נהריה	-8558
▁מכוניות	-8559
rel	-8560
כסוך	-8561
▁עמר	-8562
▁הקונ	-8563
▁בכיתה	-8564
▁company	-8565
פסד	-8566
▁same	-8567
▁בכתב	-8568
▁לדיון	-8569
▁בלונדון	-8570
▁ייחודית	-8571
atur	-8572
חרור	-8573
▁אהוד	-8574
▁מכאן	-8575
▁רגוע	-8576
▁שרים	-8577
▁בגדול	-8578
לצ	-8579
▁שתה	-8580
▁live	-8581
▁בפרי	-8582
טוי	-8583
▁הוי	-8584
▁שעש	-8585
/15	-8586
▁אופי	-8587
▁ואפשר	-8588
▁מתכונים	-8589
▁הגן	-8590
רוח	-8591
▁העברת	-8592
uth	-8593
▁ציונה	-8594
netanyahu	-8595
ינג	-8596
-100	-8597
▁דבש	-8598
▁יבנה	-8599
▁למשת	-8600
▁טיפולים	-8601
bum	-8602
▁שבין	-8603
▁המדהים	-8604
▁מחשבים	-8605
▁מובילה	-8606
▁Pal	-8607
▁שכי	-8608
▁למשטרה	-8609
ody	-8610
▁הזהב	-8611
▁תקין	-8612
▁תחבורה	-8613
▁import	-8614
▁מרחב	-8615
▁found	-8616
▁Su	-8617
▁ולחן	-8618
▁מידות	-8619
ky	-8620
▁פינוי	-8621
וסה	-8622
מותו	-8623
▁לפועל	-8624
▁בעיניים	-8625
▁שתח	-8626
▁three	-8627
▁המופע	-8628
אופ	-8629
מיאל	-8630
▁Eli	-8631
▁זרים	-8632
ship	-8633
אבון	-8634
נגטון	-8635
▁ואחד	-8636
▁לשלום	-8637
▁כשב	-8638
▁טיפולי	-8639
▁שהתק	-8640
▁איתכם	-8641
▁Mobile	-8642
▁גבולות	-8643
▁מהחיים	-8644
AC	-8645
ized	-8646
אימים	-8647
▁התכוו	-8648
▁שהר	-8649
▁נפרד	-8650
▁עצום	-8651
▁לצלם	-8652
▁מזמין	-8653
▁הכוללת	-8654
▁רפאל	-8655
▁health	-8656
39	-8657
cept	-8658
▁הכנסה	-8659
▁המחוזי	-8660
סדות	-8661
▁רומנטי	-8662
▁לשתות	-8663
מנכ	-8664
צרפת	-8665
▁שעושים	-8666
ץץ	-8667
דדדד	-8668
פיקה	-8669
▁Net	-8670
▁השידור	-8671
לחמת	-8672
▁חולי	-8673
▁מעצר	-8674
ייח	-8675
▁משלמים	-8676
▁process	-8677
יילת	-8678
▁55	-8679
▁אוחנה	-8680
▁המחבלים	-8681
▁שהק	-8682
▁בטור	-8683
8.	-8684
▁adv	-8685
▁זכרו	-8686
▁אוכלים	-8687
▁החלטתי	-8688
▁לפיתוח	-8689
bi	-8690
▁מרץ	-8691
assion	-8692
מצים	-8693
▁לחס	-8694
▁חיילי	-8695
▁שעתיים	-8696
▁הלאומית	-8697
▁סער	-8698
▁information	-8699
▁לצה	-8700
▁בסד	-8701
בורגר	-8702
▁למייל	-8703
▁התינוק	-8704
▁סבי	-8705
▁תפס	-8706
וסייה	-8707
▁ממת	-8708
▁report	-8709
▁התיירות	-8710
▁לאמא	-8711
ותך	-8712
▁גביע	-8713
▁כרי	-8714
▁האמריקני	-8715
▁סך	-8716
ומון	-8717
▁תשומת	-8718
▁מספק	-8719
▁משפחתו	-8720
▁המקסימה	-8721
▁Gu	-8722
▁מהמערכת	-8723
גרס	-8724
חתן	-8725
agal	-8726
▁בחוף	-8727
▁תאורה	-8728
▁ששמ	-8729
▁הפכה	-8730
▁נהיגה	-8731
amin	-8732
▁חומרי	-8733
▁תיווך	-8734
▁לעול	-8735
▁few	-8736
▁צמי	-8737
▁ארצי	-8738
▁ותרגום	-8739
▁רוד	-8740
▁העירוני	-8741
▁מרשים	-8742
▁כפות	-8743
▁שנית	-8744
▁techn	-8745
▁מעיין	-8746
▁וידי	-8747
▁יגאל	-8748
▁לעצמך	-8749
▁ראינו	-8750
▁לשינוי	-8751
▁שף	-8752
▁איכותיים	-8753
urs	-8754
וזרים	-8755
▁זהבי	-8756
▁חלי	-8757
נועים	-8758
▁מפחיד	-8759
▁בצהריים	-8760
פולים	-8761
בטחה	-8762
גלות	-8763
יריס	-8764
▁החוצה	-8765
▁הזמנים	-8766
▁מרדכי	-8767
▁עיתון	-8768
▁הכנסות	-8769
ield	-8770
▁cle	-8771
▁דעתי	-8772
▁מרוצה	-8773
אאא	-8774
▁ph	-8775
▁keep	-8776
▁דודי	-8777
▁בקומה	-8778
▁מעניינים	-8779
ona	-8780
▁בשיר	-8781
רד	-8782
▁עג	-8783
▁המוסי	-8784
▁גועל	-8785
▁מנהיג	-8786
מקד	-8787
▁הכלכלי	-8788
++	-8789
תיחת	-8790
▁הסמ	-8791
▁שמכ	-8792
ליכוד	-8793
▁להגנת	-8794
מאית	-8795
▁והחל	-8796
▁התוצאות	-8797
▁מזמינים	-8798
▁אהיה	-8799
▁במרחב	-8800
▁מוסיפים	-8801
▁הפלסטינים	-8802
▁זצ	-8803
▁לירי	-8804
▁תמצאו	-8805
▁התעל	-8806
▁עברית	-8807
▁אמין	-8808
▁התגובות	-8809
▁קראו	-8810
▁מלאים	-8811
▁exc	-8812
▁הזוי	-8813
34	-8814
aya	-8815
▁בדירה	-8816
Heb	-8817
מוח	-8818
מוצע	-8819
▁און	-8820
▁חינו	-8821
▁שלחו	-8822
▁החברתיות	-8823
דך	-8824
aint	-8825
view	-8826
חתית	-8827
נהלה	-8828
▁ספצי	-8829
▁אשה	-8830
▁טיולים	-8831
▁ומז	-8832
▁הפסקת	-8833
▁אזה	-8834
▁מקד	-8835
▁נוע	-8836
פיי	-8837
▁יוא	-8838
▁בוכה	-8839
▁התקציב	-8840
▁זוגיות	-8841
▁עובדות	-8842
▁דודה	-8843
▁העולמי	-8844
erest	-8845
▁בעצמו	-8846
▁תחושה	-8847
▁הגרעין	-8848
oci	-8849
▁דואר	-8850
▁התפתחות	-8851
▁מצלמות	-8852
▁זית	-8853
▁במשק	-8854
▁הרשימה	-8855
▁x	-8856
▁האשראי	-8857
ateg	-8858
אוהבת	-8859
3.	-8860
:15	-8861
גענו	-8862
▁לרב	-8863
דיקות	-8864
IP	-8865
▁נהרגו	-8866
צוי	-8867
למנט	-8868
▁Sal	-8869
▁לפתח	-8870
▁לפספס	-8871
▁ופת	-8872
▁מבקר	-8873
▁העמותה	-8874
ique	-8875
▁החברתית	-8876
▁בלו	-8877
▁נמכ	-8878
▁מלכת	-8879
▁הפתיחה	-8880
▁להורדה	-8881
▁תמונת	-8882
▁בינלאומי	-8883
▁מהכ	-8884
▁אוגוסט	-8885
▁חסרי	-8886
▁הרביעי	-8887
▁התקיים	-8888
ךךך	-8889
▁ליאת	-8890
▁class	-8891
▁הנפלא	-8892
▁פז	-8893
עימות	-8894
▁לשחרר	-8895
:45	-8896
עילי	-8897
רגונים	-8898
▁המקצועי	-8899
מצום	-8900
▁דיל	-8901
▁הפקה	-8902
איפה	-8903
▁התגע	-8904
▁מודר	-8905
▁העברית	-8906
▁כתבתי	-8907
▁הכוחות	-8908
An	-8909
▁בהיקף	-8910
▁רכישת	-8911
▁האופנה	-8912
▁פסח	-8913
▁שונאת	-8914
str	-8915
▁אודי	-8916
וננות	-8917
▁במים	-8918
▁צפויים	-8919
והדים	-8920
▁עליון	-8921
▁מבקשים	-8922
▁לזוג	-8923
▁אבטחה	-8924
▁היחסים	-8925
הכל	-8926
טיבה	-8927
▁הרחק	-8928
▁לימור	-8929
▁סעיף	-8930
▁בביצוע	-8931
▁לעיתים	-8932
▁יועץ	-8933
za	-8934
▁המנות	-8935
▁בחת	-8936
▁בבור	-8937
▁בחודשים	-8938
▁פנה	-8939
▁ערים	-8940
▁עדכונים	-8941
▁חיזבאללה	-8942
דני	-8943
פילה	-8944
▁בווא	-8945
▁והשי	-8946
▁זוגי	-8947
▁משפטי	-8948
oads	-8949
ביעית	-8950
▁הקישור	-8951
נגן	-8952
▁קרם	-8953
▁מגזין	-8954
▁צרכ	-8955
לימה	-8956
▁better	-8957
▁בתאו	-8958
▁סווי	-8959
▁יגיעו	-8960
▁שנקרא	-8961
▁ארגוני	-8962
91	-8963
▁(1	-8964
▁זמני	-8965
▁האישום	-8966
thing	-8967
▁אורית	-8968
▁הפסקה	-8969
כזב	-8970
▁Br	-8971
▁החלום	-8972
▁המפגש	-8973
off	-8974
▁גלית	-8975
▁בתקופת	-8976
▁prot	-8977
▁שבאמת	-8978
ננות	-8979
▁נטו	-8980
▁הקרקע	-8981
פולי	-8982
▁ומלא	-8983
▁תגיע	-8984
▁during	-8985
▁בהנ	-8986
▁וטעים	-8987
▁התביעה	-8988
▁La	-8989
אחדות	-8990
▁מקצועיים	-8991
2<	-8992
▁ממס	-8993
מוק	-8994
▁להיל	-8995
ונק	-8996
▁לשעה	-8997
▁המורים	-8998
▁program	-8999
ba	-9000
הוט	-9001
▁הזר	-9002
▁חדד	-9003
▁מהב	-9004
▁לצוות	-9005
54	-9006
נקי	-9007
▁שלט	-9008
נבל	-9009
אבים	-9010
▁רעב	-9011
גני	-9012
▁הבחור	-9013
7.	-9014
ced	-9015
▁חשודים	-9016
▁הסטודנטים	-9017
ror	-9018
▁צלם	-9019
▁נסגר	-9020
▁אמון	-9021
פלה	-9022
ving	-9023
▁פותח	-9024
mon	-9025
▁ושות	-9026
▁חנוכה	-9027
▁win	-9028
▁check	-9029
lt	-9030
וסיה	-9031
שיית	-9032
▁Dor	-9033
▁מצרים	-9034
▁באפריל	-9035
אחרי	-9036
▁במז	-9037
▁נוחה	-9038
▁הביא	-9039
▁למידה	-9040
▁קהילת	-9041
ליכי	-9042
▁הכלים	-9043
Av	-9044
▁לבלות	-9045
ירתו	-9046
▁השכ	-9047
▁המדע	-9048
▁לדין	-9049
▁מהשה	-9050
מתנה	-9051
▁פיקוד	-9052
אחד	-9053
▁Do	-9054
▁מורן	-9055
▁איגוד	-9056
▁ניה	-9057
זענות	-9058
▁קוראת	-9059
▁לנצל	-9060
פסה	-9061
וסקת	-9062
News	-9063
▁experience	-9064
▁~	-9065
ote	-9066
וטין	-9067
▁סין	-9068
▁נקרא	-9069
▁הרצאה	-9070
ired	-9071
▁הדרכה	-9072
▁wr	-9073
▁צוח	-9074
▁child	-9075
▁בגוגל	-9076
▁בפארק	-9077
▁מושחת	-9078
▁שיז	-9079
▁הרצל	-9080
▁וחלק	-9081
▁Fl	-9082
▁בכבוד	-9083
▁באוויר	-9084
כדי	-9085
▁בטירוף	-9086
▁׳	-9087
▁שפירא	-9088
▁שאחרי	-9089
▁באולפן	-9090
▁val	-9091
▁project	-9092
▁האירופי	-9093
▁בכוח	-9094
▁הטעם	-9095
▁תביעה	-9096
▁צילומים	-9097
▁אובמה	-9098
▁העתיקה	-9099
ehud	-9100
▁cent	-9101
▁גזר	-9102
▁והפעם	-9103
▁מתקנים	-9104
▁ניסו	-9105
▁נהנים	-9106
▁מועמדות	-9107
▁More	-9108
פין	-9109
▁הדג	-9110
▁Des	-9111
▁לוב	-9112
▁הרחב	-9113
▁טוקר	-9114
▁טו	-9115
▁בהד	-9116
▁לגן	-9117
▁ופשוט	-9118
raph	-9119
אליק	-9120
▁מחו	-9121
▁קיצ	-9122
▁המהפכה	-9123
▁ריבלין	-9124
▁dep	-9125
▁מדו	-9126
▁כותרות	-9127
▁פלסטינים	-9128
▁תקוה	-9129
▁הממשל	-9130
▁זוגות	-9131
▁חופשה	-9132
▁רשמית	-9133
▁בליכוד	-9134
▁בספטמבר	-9135
▁conf	-9136
38	-9137
▁Har	-9138
▁וכולם	-9139
▁ואורחים	-9140
בינה	-9141
▁הקיר	-9142
▁מודל	-9143
▁אוהדי	-9144
urg	-9145
שמיות	-9146
▁השח	-9147
▁next	-9148
▁בריאה	-9149
ביו	-9150
▁בכיף	-9151
▁תמיר	-9152
▁ניסיתי	-9153
ware	-9154
מעלה	-9155
▁result	-9156
שביל	-9157
▁גברי	-9158
▁מקורי	-9159
ni	-9160
▁הרש	-9161
▁האפשר	-9162
▁הגאון	-9163
▁מנהלי	-9164
דא	-9165
▁למז	-9166
ובסקי	-9167
▁ביתר	-9168
▁לזמן	-9169
▁צומת	-9170
▁אישיות	-9171
▁בדר	-9172
▁data	-9173
▁במרץ	-9174
״ח	-9175
▁החתונה	-9176
▁תחושת	-9177
▁real	-9178
▁השקעה	-9179
▁השקעות	-9180
▁פצועים	-9181
▁000	-9182
▁שישה	-9183
▁אחריו	-9184
▁מסיבות	-9185
אנים	-9186
▁rep	-9187
▁שסי	-9188
▁מקרר	-9189
▁הגעתי	-9190
כתבו	-9191
לקום	-9192
פסים	-9193
▁provid	-9194
▁טווח	-9195
▁לשוק	-9196
EC	-9197
▁עכ	-9198
▁יעשו	-9199
▁שלושת	-9200
▁במקרים	-9201
קרות	-9202
▁ומל	-9203
▁אשכנזי	-9204
▁Con	-9205
ering	-9206
רישות	-9207
▁מעוניינת	-9208
74	-9209
ורט	-9210
קסם	-9211
ama	-9212
▁בקטע	-9213
▁שלל	-9214
פקידו	-9215
,”	-9216
▁נתפס	-9217
▁סיבות	-9218
ailable	-9219
▁הטכנולוגיה	-9220
OM	-9221
ומדת	-9222
חיתות	-9223
שישים	-9224
▁להזכיר	-9225
▁עונש	-9226
▁נקודת	-9227
▁להתייחס	-9228
▁אקט	-9229
▁כפול	-9230
ילומים	-9231
▁כניסת	-9232
קתי	-9233
▁הפלא	-9234
▁מחוברים	-9235
▁מפרס	-9236
▁Than	-9237
מודדים	-9238
elet	-9239
▁לבתי	-9240
▁לחברות	-9241
▁זהות	-9242
▁במילים	-9243
▁הנסיעה	-9244
זהר	-9245
ניקו	-9246
▁הגול	-9247
לטו	-9248
▁לקט	-9249
▁בהתחלה	-9250
▁זיכרון	-9251
צריך	-9252
▁ממשל	-9253
▁דמוקר	-9254
▁קיבלנו	-9255
״ר	-9256
▁נשל	-9257
▁התרח	-9258
▁יסוד	-9259
▁lar	-9260
▁לקרי	-9261
▁הפרקליטות	-9262
כירו	-9263
▁When	-9264
▁הנבחרת	-9265
▁מחאה	-9266
ציר	-9267
▁וייס	-9268
▁מסור	-9269
▁המפלגות	-9270
▁ויכול	-9271
▁תיירות	-9272
ami	-9273
שנות	-9274
▁say	-9275
▁חכמה	-9276
▁שיס	-9277
▁שעשה	-9278
▁בשישי	-9279
▁ליב	-9280
▁דרכו	-9281
▁מרוב	-9282
▁מרתק	-9283
▁One	-9284
▁iss	-9285
▁במשקל	-9286
▁מפלגה	-9287
▁הטלוויזיה	-9288
▁נשר	-9289
▁כלשהו	-9290
ski	-9291
▁red	-9292
▁דרג	-9293
▁הכח	-9294
▁השות	-9295
▁מוצי	-9296
▁משרדי	-9297
פסי	-9298
▁מגר	-9299
▁לטיול	-9300
▁בשווי	-9301
▁באג	-9302
▁פוגע	-9303
.,	-9304
▁המסך	-9305
und	-9306
▁עוגה	-9307
▁ביתנו	-9308
▁המהלך	-9309
פץ	-9310
▁מודי	-9311
▁נגיד	-9312
▁האהוב	-9313
▁האחים	-9314
▁חשמלי	-9315
▁צוותי	-9316
rew	-9317
▁כביסה	-9318
▁להקמת	-9319
ושע	-9320
ייבת	-9321
▁תשמ	-9322
ution	-9323
▁המאה	-9324
▁מאמר	-9325
.......	-9326
nect	-9327
▁פתחה	-9328
עיד	-9329
▁מהמס	-9330
ants	-9331
bers	-9332
la	-9333
ולרית	-9334
▁הפה	-9335
▁טרו	-9336
▁רצו	-9337
▁לעונה	-9338
▁סיכום	-9339
-13	-9340
▁אשתו	-9341
▁עיי	-9342
▁לירון	-9343
▁לסרט	-9344
▁הרמטכ	-9345
/16	-9346
זציה	-9347
פגנות	-9348
פפ	-9349
▁מינוי	-9350
▁school	-9351
▁באב	-9352
▁שגור	-9353
▁שלישית	-9354
ועי	-9355
רופא	-9356
▁אמונה	-9357
▁קיימים	-9358
▁לאת	-9359
▁משבר	-9360
▁ינואר	-9361
▁להירשם	-9362
▁רו	-9363
▁cap	-9364
▁כתבו	-9365
▁בחינוך	-9366
raz	-9367
עננה	-9368
▁שמב	-9369
▁טועה	-9370
▁האידי	-9371
-25	-9372
אשר	-9373
וקא	-9374
▁טילים	-9375
▁אדומים	-9376
▁הוט	-9377
▁מטען	-9378
▁עצומה	-9379
▁album	-9380
▁חלקים	-9381
▁הספרים	-9382
▁למועדפים	-9383
▁mov	-9384
▁לוד	-9385
▁עצם	-9386
▁שיט	-9387
iving	-9388
▁דיסק	-9389
▁העמק	-9390
▁קסום	-9391
ונר	-9392
▁מצאו	-9393
▁הלידה	-9394
▁בפיגוע	-9395
work	-9396
▁באולם	-9397
▁Avi	-9398
▁וטוב	-9399
▁לפרק	-9400
▁נמשיך	-9401
▁family	-9402
▁איטליה	-9403
ותח	-9404
▁אופנוע	-9405
▁מהט	-9406
▁מופיע	-9407
▁פומ	-9408
▁קישורים	-9409
▁בחל	-9410
▁גבעת	-9411
טיביות	-9412
▁הפוליטית	-9413
ining	-9414
▁ואמן	-9415
▁הכרמל	-9416
▁הנאשם	-9417
▁שכונת	-9418
כהן	-9419
▁2023	-9420
▁City	-9421
▁מסוגל	-9422
▁המחלקה	-9423
mar	-9424
▁חתול	-9425
▁ממוש	-9426
▁מפור	-9427
▁המטוס	-9428
▁יציאה	-9429
▁האירוח	-9430
▁משלוחים	-9431
▁מורכב	-9432
▁קומות	-9433
▁להצלחה	-9434
:1	-9435
ica	-9436
▁בארגון	-9437
▁להימנע	-9438
רגשים	-9439
▁חייהם	-9440
▁ניקוי	-9441
▁contin	-9442
▁לפייסבוק	-9443
קינג	-9444
▁אדר	-9445
▁העמוד	-9446
'?	-9447
32	-9448
Ad	-9449
נאביס	-9450
▁לקרות	-9451
▁האיכות	-9452
ארו	-9453
שמתי	-9454
▁vari	-9455
▁בטעות	-9456
וניברסיטה	-9457
צתה	-9458
▁תסת	-9459
▁נטלי	-9460
▁קיבוץ	-9461
▁בטיפול	-9462
פסות	-9463
▁בפרו	-9464
▁המתכון	-9465
▁קולק	-9466
▁לאזור	-9467
▁התכנון	-9468
וטות	-9469
יאוף	-9470
▁אבות	-9471
▁התחלתי	-9472
▁הממל	-9473
▁נוצר	-9474
▁כזכור	-9475
▁ושירותים	-9476
▁גינה	-9477
▁עוגות	-9478
פיקוח	-9479
▁plan	-9480
▁_	-9481
▁חלקם	-9482
▁השינוי	-9483
▁מפק	-9484
▁מעלית	-9485
▁המקורי	-9486
iri	-9487
ושל	-9488
רכישה	-9489
▁poss	-9490
▁החלב	-9491
ררר	-9492
/02/201	-9493
▁מנתחים	-9494
▁איכותית	-9495
▁דוגמא	-9496
▁מדווח	-9497
▁המודעות	-9498
ember	-9499
▁שנראה	-9500
▁בדרכים	-9501
▁bit	-9502
▁free	-9503
▁מבני	-9504
▁מכונת	-9505
▁הרווחה	-9506
▁הפועלים	-9507
▁אוו	-9508
▁עלויות	-9509
gg	-9510
חסן	-9511
▁סמים	-9512
מינג	-9513
▁cho	-9514
סססס	-9515
▁קסם	-9516
▁עידו	-9517
▁זמינה	-9518
▁מיוחדות	-9519
▁עיתונאים	-9520
מצם	-9521
נטו	-9522
לפני	-9523
▁big	-9524
▁ההור	-9525
▁come	-9526
כמות	-9527
▁הפקות	-9528
Co	-9529
▁De	-9530
▁ונח	-9531
▁עכו	-9532
▁וארוחת	-9533
▁לחקירה	-9534
/1<	-9535
וגם	-9536
▁בהשוואה	-9537
▁כרטיסי	-9538
▁תקבל	-9539
▁שלפני	-9540
my	-9541
fect	-9542
▁שעשו	-9543
▁הגליל	-9544
cent	-9545
זונה	-9546
צונית	-9547
▁שמצאת	-9548
▁הריבית	-9549
▁מסכימה	-9550
▁מקסימים	-9551
▁Li	-9552
▁הערכה	-9553
▁מוצלחת	-9554
▁סדרה	-9555
▁היועץ	-9556
▁things	-9557
▁פרידמן	-9558
▁Adi	-9559
▁מאזן	-9560
▁מיותר	-9561
▁סוריה	-9562
▁מקורות	-9563
▁סולי	-9564
▁למספר	-9565
▁זכוכית	-9566
▁שבעולם	-9567
useum	-9568
▁שנכנס	-9569
▁מצליחים	-9570
▁היסטוריה	-9571
▁הרגל	-9572
▁טכנולוגיה	-9573
▁מותק	-9574
ארטפון	-9575
חקו	-9576
▁השף	-9577
▁חוט	-9578
▁לפגוש	-9579
▁תענוג	-9580
▁direct	-9581
▁memory	-9582
▁וקל	-9583
▁לאר	-9584
▁במסע	-9585
▁אמצעי	-9586
▁לנתניהו	-9587
▁אוניברסיטת	-9588
outh	-9589
▁הציונות	-9590
▁בוק	-9591
▁build	-9592
▁ולהתר	-9593
▁לחנות	-9594
BA	-9595
▁היקף	-9596
▁שולחנות	-9597
▁אלפים	-9598
▁טעימות	-9599
▁try	-9600
▁שמק	-9601
▁לבכות	-9602
▁With	-9603
▁בנים	-9604
▁קיום	-9605
גדור	-9606
▁sure	-9607
▁הכללי	-9608
▁Upl	-9609
▁להחל	-9610
▁מטוס	-9611
▁בקניון	-9612
▁בריט	-9613
▁מונה	-9614
▁אישרה	-9615
▁מאוהבת	-9616
▁לכו	-9617
▁האזרחים	-9618
רגשה	-9619
▁שהכי	-9620
▁יחיד	-9621
▁כיכר	-9622
▁פועלת	-9623
▁פוסטים	-9624
▁הקרב	-9625
▁הצליחה	-9626
▁סרטונים	-9627
▁היתרונות	-9628
▁הער	-9629
▁רעש	-9630
▁Google	-9631
▁למשפחת	-9632
▁תינוקות	-9633
-40	-9634
▁Gl	-9635
▁רונ	-9636
▁לאופ	-9637
▁נפגע	-9638
▁הבכורה	-9639
▁למנה	-9640
▁המוקד	-9641
▁Resort	-9642
Rik	-9643
טרפות	-9644
▁אורז	-9645
▁מוחמד	-9646
▁הגג	-9647
▁פותחים	-9648
▁מופת	-9649
...)	-9650
▁ביו	-9651
▁נתנו	-9652
▁water	-9653
▁תרופות	-9654
▁התעשייה	-9655
איש	-9656
▁טובבב	-9657
גוריה	-9658
▁רעות	-9659
▁ניראה	-9660
▁אחרונה	-9661
▁ארוכות	-9662
ti	-9663
עודי	-9664
▁??????	-9665
▁לבנים	-9666
▁שיעורי	-9667
▁חלקית	-9668
▁ביקורך	-9669
גדלו	-9670
▁לפנק	-9671
▁בתחנת	-9672
▁הרווח	-9673
▁גלגלים	-9674
▁חט	-9675
▁המניות	-9676
▁זקוקים	-9677
56	-9678
▁גלא	-9679
▁מטרים	-9680
▁סיכון	-9681
▁התקופה	-9682
▁התערוכה	-9683
אזל	-9684
▁מישראל	-9685
▁המשתלמת	-9686
▁הקבוצות	-9687
▁לינק	-9688
▁החמאס	-9689
afe	-9690
Nadav	-9691
▁פתחו	-9692
▁הודעת	-9693
▁המאמר	-9694
oney	-9695
▁חרדי	-9696
▁תחומי	-9697
▁שנאה	-9698
▁גיבור	-9699
ada	-9700
▁בפרק	-9701
hani	-9702
▁Ass	-9703
ething	-9704
▁always	-9705
AD	-9706
▁איכס	-9707
▁ניוז	-9708
▁ליצירת	-9709
▁cor	-9710
▁מאמץ	-9711
▁אשכול	-9712
mi	-9713
ללא	-9714
▁טוי	-9715
▁הוסי	-9716
▁האמית	-9717
▁השאלות	-9718
▁הוצאת	-9719
▁רצוי	-9720
▁לעיצוב	-9721
▁בינה	-9722
▁החיי	-9723
▁מנצח	-9724
▁שורה	-9725
▁תשובות	-9726
sp	-9727
▁bo	-9728
ועות	-9729
▁גילי	-9730
▁להבטיח	-9731
▁עתה	-9732
▁שיב	-9733
▁וכמו	-9734
aff	-9735
▁נטע	-9736
▁מחנה	-9737
▁organ	-9738
▁הדעת	-9739
▁נתון	-9740
▁דוברות	-9741
שישי	-9742
▁לנד	-9743
▁ונות	-9744
▁מעדיף	-9745
▁6.	-9746
▁שהוג	-9747
▁סלי	-9748
▁גאים	-9749
▁לבנה	-9750
▁שנס	-9751
ought	-9752
▁תגידי	-9753
self	-9754
▁רחבה	-9755
▁כשתהיה	-9756
▁לכתבה	-9757
▁including	-9758
▁קונס	-9759
▁אתרי	-9760
▁ותמיד	-9761
▁עריכה	-9762
▁התנגדות	-9763
va	-9764
דעתי	-9765
▁טיפה	-9766
▁לסיום	-9767
▁ארד	-9768
▁ולעשות	-9769
▁אפליקציה	-9770
▁מיועד	-9771
▁עודכן	-9772
▁המשותפת	-9773
▁App	-9774
▁איבד	-9775
▁הפכו	-9776
▁סרי	-9777
▁משני	-9778
ממש	-9779
▁ונעים	-9780
▁השכונה	-9781
Ne	-9782
atz	-9783
ירור	-9784
▁צופים	-9785
▁שיקום	-9786
דמנויות	-9787
▁בחקירה	-9788
="	-9789
רחבת	-9790
▁מופי	-9791
▁אירוח	-9792
▁48	-9793
▁חביב	-9794
▁סגירת	-9795
▁ויום	-9796
▁לתאר	-9797
▁ניצן	-9798
▁interest	-9799
▁דוב	-9800
▁friend	-9801
▁Uploads	-9802
צנו	-9803
מישה	-9804
▁התה	-9805
ביבות	-9806
▁הבור	-9807
▁החתי	-9808
▁קצין	-9809
▁gener	-9810
▁פסיכול	-9811
▁האנרגיה	-9812
/12	-9813
▁בתחומי	-9814
▁20:00	-9815
▁גאון	-9816
▁מאבק	-9817
▁ברבעון	-9818
▁לערוץ	-9819
▁partic	-9820
▁החקיקה	-9821
טלקי	-9822
▁פרסם	-9823
▁פצצה	-9824
▁רפואית	-9825
חקיר	-9826
▁הרבים	-9827
ברתי	-9828
רטים	-9829
36	-9830
תע	-9831
▁אביו	-9832
▁רמות	-9833
▁חתולים	-9834
וכות	-9835
▁דונ	-9836
▁האנטי	-9837
יח	-9838
▁ann	-9839
▁אפק	-9840
▁הגשת	-9841
▁החשד	-9842
▁שומע	-9843
31	-9844
צומה	-9845
▁בחירתך	-9846
▁בפוסט	-9847
▁פוליטית	-9848
▁בחרו	-9849
▁שהמש	-9850
▁הנכונה	-9851
נחל	-9852
ממות	-9853
סיות	-9854
▁ושומרון	-9855
▁אחסון	-9856
פעם	-9857
▁אצבעות	-9858
▁השרים	-9859
rol	-9860
ווג	-9861
כנן	-9862
aron	-9863
יהאד	-9864
▁דתי	-9865
▁ונק	-9866
▁זכו	-9867
▁עוקבים	-9868
ליטת	-9869
▁נכס	-9870
עודיה	-9871
5.	-9872
וגית	-9873
▁מבטיח	-9874
/03	-9875
אמן	-9876
ריף	-9877
▁לחג	-9878
▁הפסד	-9879
גישת	-9880
▁בתוקף	-9881
▁available	-9882
▁dist	-9883
▁השכר	-9884
▁נעליים	-9885
▁שלטון	-9886
רישה	-9887
קבוצה	-9888
▁second	-9889
▁והאם	-9890
▁יוצר	-9891
▁בניסיון	-9892
▁דמ	-9893
▁יורם	-9894
▁בהרצליה	-9895
טש	-9896
▁הבין	-9897
▁עמדה	-9898
▁בצומת	-9899
▁וקר	-9900
▁מהג	-9901
▁והבי	-9902
▁ריאל	-9903
▁האחרים	-9904
▁ההזדמנות	-9905
ged	-9906
▁אסת	-9907
ראיין	-9908
סיקים	-9909
▁מזגן	-9910
▁אלטרנטי	-9911
▁ארהב	-9912
▁יואו	-9913
▁ליגה	-9914
▁שבעה	-9915
▁השנתי	-9916
▁כשבוע	-9917
▁ריהוט	-9918
▁למדינת	-9919
▁מיטה	-9920
▁צחוק	-9921
▁יקרות	-9922
▁מרוצים	-9923
▁גידול	-9924
▁טיסות	-9925
▁מוזמנת	-9926
fm	-9927
סח	-9928
איי	-9929
▁אוטו	-9930
טיביים	-9931
▁החומר	-9932
גורי	-9933
▁ברצ	-9934
▁נער	-9935
בתם	-9936
▁החוויה	-9937
▁התנהלות	-9938
מתה	-9939
ense	-9940
ists	-9941
▁אטי	-9942
▁נודע	-9943
▁בגבול	-9944
▁קניתי	-9945
▁בבעיות	-9946
▁כמוני	-9947
joy	-9948
▁במעמד	-9949
בילה	-9950
▁בעה	-9951
לפרטים	-9952
סתי	-9953
▁4,	-9954
▁בדקה	-9955
▁בנוחות	-9956
")	-9957
טרפו	-9958
▁טופ	-9959
▁מחס	-9960
▁ייר	-9961
▁הודו	-9962
▁חיזוק	-9963
ient	-9964
קומו	-9965
▁נמל	-9966
▁במושב	-9967
▁בהופעה	-9968
less	-9969
▁ליין	-9970
▁נתראה	-9971
▁באוגוסט	-9972
הו	-9973
רכם	-9974
קומה	-9975
▁באפ	-9976
une	-9977
▁מזי	-9978
▁השיטה	-9979
▁שחקני	-9980
yp	-9981
מבל	-9982
▁ברג	-9983
▁אייר	-9984
▁יאלה	-9985
ארה	-9986
overn	-9987
ודשיים	-9988
▁ממוצע	-9989
▁ההרשמה	-9990
▁לגברים	-9991
▁פופולריות	-9992
▁חחחחחחחחחח	-9993
▁ונראה	-9994
▁המטבח	-9995
▁שלג	-9996
▁תוב	-9997
ובלים	-9998
שבע	-9999
▁07	-10000
alem	-10001
▁pos	-10002
בישים	-10003
▁ביולי	-10004
▁לזהות	-10005
▁כ־	-10006
▁והמח	-10007
ירקט	-10008
▁2008	-10009
▁דויד	-10010
▁למסע	-10011
שתף	-10012
Riklin	-10013
פועל	-10014
ights	-10015
▁משלם	-10016
Re	-10017
zer	-10018
▁קודש	-10019
פשו	-10020
▁וזהו	-10021
▁שכזה	-10022
▁מהאטרקציות	-10023
יתת	-10024
▁נגר	-10025
▁עדות	-10026
▁מסיבה	-10027
▁תזונה	-10028
▁ההצבעה	-10029
כרתי	-10030
▁מניח	-10031
▁סלב	-10032
▁form	-10033
▁small	-10034
▁פרטיות	-10035
▁חשבונות	-10036
▁החשוב	-10037
▁עפולה	-10038
▁עגבניות	-10039
פלן	-10040
צתי	-10041
▁לתל	-10042
▁כתיבה	-10043
הב	-10044
▁תעלה	-10045
יייייי	-10046
▁רגעים	-10047
▁בשימוש	-10048
▁להחליט	-10049
▁להצליח	-10050
▁ומשווים	-10051
▁art	-10052
▁ter	-10053
▁המונ	-10054
▁incre	-10055
▁ועיצוב	-10056
▁מנהלים	-10057
ובדי	-10058
קעין	-10059
▁וראש	-10060
▁לשמש	-10061
▁החרדית	-10062
▁המסלול	-10063
מיל	-10064
לחתי	-10065
חיו	-10066
ריב	-10067
וחרים	-10068
▁אסון	-10069
▁שהיתה	-10070
▁מאושרת	-10071
נוחים	-10072
▁Lior	-10073
▁מגלה	-10074
▁המוסד	-10075
▁מבנים	-10076
.<	-10077
▁עיו	-10078
▁יורד	-10079
▁ללמד	-10080
▁הוחלט	-10081
▁מהמקום	-10082
פויות	-10083
▁ברשימת	-10084
udi	-10085
ploy	-10086
ולדה	-10087
▁manag	-10088
▁כוסות	-10089
▁שייך	-10090
מהמחיר	-10091
▁מתקדמים	-10092
יהו	-10093
צוח	-10094
▁שמירה	-10095
▁להגדיל	-10096
▁להשפיע	-10097
שאלה	-10098
תיבת	-10099
▁מאושרים	-10100
הג	-10101
לנד	-10102
▁צחי	-10103
▁בקצב	-10104
▁להתאים	-10105
קיף	-10106
▁תבור	-10107
▁פריטים	-10108
▁אחרונים	-10109
▁ide	-10110
▁Gold	-10111
▁בענף	-10112
▁קרדיט	-10113
▁בתמונות	-10114
▁דיווחים	-10115
▁התחנה	-10116
▁המובילות	-10117
▁יתק	-10118
▁ארון	-10119
uf	-10120
וערת	-10121
▁הספק	-10122
▁דעה	-10123
נטיות	-10124
▁שערי	-10125
▁להביע	-10126
,"	-10127
▁יכ	-10128
▁ויס	-10129
▁חוצ	-10130
▁ריגשת	-10131
-70	-10132
yle	-10133
▁Nail	-10134
.18	-10135
▁לחצי	-10136
▁העדה	-10137
▁האחריות	-10138
:-	-10139
לכו	-10140
▁במגזר	-10141
▁invest	-10142
▁העבודות	-10143
▁סיגל	-10144
▁בתנאי	-10145
▁להסתכל	-10146
▁קולנוע	-10147
oren	-10148
▁התוכ	-10149
▁להופעה	-10150
▁תאונות	-10151
▁put	-10152
/2017	-10153
▁בארצות	-10154
ערבות	-10155
▁התקשר	-10156
▁שבס	-10157
▁שדי	-10158
▁מיליוני	-10159
▁לרוץ	-10160
▁בקישור	-10161
▁אמרת	-10162
▁תלונה	-10163
▁חגיגות	-10164
▁במקור	-10165
▁המנהל	-10166
חזר	-10167
/05	-10168
עיני	-10169
▁המשרה	-10170
▁מטרות	-10171
▁יתכן	-10172
▁הריון	-10173
▁עובדיה	-10174
▁שהד	-10175
▁וקור	-10176
אנית	-10177
▁ברצינות	-10178
▁הרופאים	-10179
פסל	-10180
קעה	-10181
▁חודשי	-10182
esh	-10183
▁שואה	-10184
▁important	-10185
ki	-10186
ואני	-10187
▁התמיכה	-10188
asp	-10189
▁ברירה	-10190
▁לדוגמא	-10191
▁di	-10192
▁since	-10193
▁סוכנות	-10194
▁ברצלונה	-10195
▁ולמש	-10196
▁מליון	-10197
▁רונית	-10198
▁הטובות	-10199
▁שנוע	-10200
itan	-10201
▁האלופות	-10202
▁la	-10203
▁בשיחה	-10204
הנ	-10205
▁האחד	-10206
▁34	-10207
▁בנחת	-10208
▁נותרו	-10209
▁הנוסעים	-10210
El	-10211
▁Art	-10212
▁שבש	-10213
▁("	-10214
▁אדיב	-10215
de	-10216
▁שתף	-10217
▁בדצמבר	-10218
▁משרות	-10219
▁ופע	-10220
▁סטיי	-10221
▁little	-10222
▁הכוכבים	-10223
דיף	-10224
רינה	-10225
▁הוצאות	-10226
▁ובעולם	-10227
▁האדמה	-10228
▁הרופא	-10229
▁מתחילת	-10230
לר	-10231
▁ארדן	-10232
▁בגדי	-10233
▁שאומר	-10234
▁תיירים	-10235
▁וחד	-10236
▁2009	-10237
,...	-10238
otem	-10239
▁לבחון	-10240
57	-10241
▁הרצח	-10242
▁משרת	-10243
▁עצמנו	-10244
Ay	-10245
וזמה	-10246
▁בהע	-10247
םםםםם	-10248
▁חמודה	-10249
▁לצחוק	-10250
uel	-10251
▁לחר	-10252
▁בחצר	-10253
קרת	-10254
▁>>>	-10255
▁ידעו	-10256
▁המיועדים	-10257
פיצה	-10258
▁נהנה	-10259
▁effect	-10260
▁חות	-10261
ונאית	-10262
▁היין	-10263
ini	-10264
▁und	-10265
▁מהצד	-10266
דיקת	-10267
▁ניצב	-10268
▁וחברות	-10269
▁שאח	-10270
▁תבוא	-10271
▁£	-10272
▁המנו	-10273
▁פלילי	-10274
שכה	-10275
פולה	-10276
▁Tel	-10277
▁מסל	-10278
▁שתז	-10279
▁להלן	-10280
▁להתב	-10281
▁נוסע	-10282
▁ביאליק	-10283
▁יושבים	-10284
ליג	-10285
וביות	-10286
זיקים	-10287
▁בהתחשב	-10288
גיון	-10289
▁פלט	-10290
צלמות	-10291
▁מתנג	-10292
▁לחתונה	-10293
▁הכלל	-10294
▁אצלכם	-10295
▁מארוחת	-10296
▁בקריית	-10297
▁השיחות	-10298
בהיר	-10299
▁אליעזר	-10300
אלת	-10301
וכנת	-10302
illion	-10303
▁מעורב	-10304
בכל	-10305
כוב	-10306
רבו	-10307
▁מצבו	-10308
oav	-10309
ury	-10310
SS	-10311
▁מאוב	-10312
▁שונא	-10313
▁חיצוני	-10314
▁לאומית	-10315
ym	-10316
ossi	-10317
▁פתוחה	-10318
▁שביצע	-10319
ention	-10320
▁הבניין	-10321
▁50%	-10322
json	-10323
צועות	-10324
▁שמתי	-10325
▁סטייל	-10326
אמת	-10327
▁יתן	-10328
▁מספקת	-10329
▁הוראות	-10330
ליית	-10331
▁לנושא	-10332
▁מוקדמת	-10333
82	-10334
▁מייס	-10335
▁מפריע	-10336
▁ההיסטוריה	-10337
52	-10338
▁כשי	-10339
ocial	-10340
▁במשרדי	-10341
ווד	-10342
מאי	-10343
▁החסי	-10344
ream	-10345
מולה	-10346
▁פוטין	-10347
▁לחינוך	-10348
▁הגורמים	-10349
▁something	-10350
hai	-10351
ampa	-10352
▁הבקשה	-10353
▁הדיווח	-10354
▁מהממות	-10355
חובה	-10356
▁ולתת	-10357
▁אונו	-10358
▁חזקים	-10359
▁כלכלה	-10360
▁לטענת	-10361
dor	-10362
▁בזק	-10363
▁שהז	-10364
▁הליך	-10365
▁אפריקה	-10366
▁בחדשות	-10367
▁להקשיב	-10368
▁באוניברסיטת	-10369
ורם	-10370
▁Tra	-10371
פונית	-10372
▁מספקים	-10373
▁אביגדור	-10374
medi	-10375
▁דירוג	-10376
▁לתקופה	-10377
חילה	-10378
צליחו	-10379
ועלת	-10380
▁ינון	-10381
▁לשון	-10382
▁בארהב	-10383
כאון	-10384
▁ממע	-10385
▁לפתור	-10386
וננת	-10387
▁ערו	-10388
▁חטיבת	-10389
▁תזכ	-10390
▁היעד	-10391
▁שוחח	-10392
No	-10393
▁ולהי	-10394
▁מושב	-10395
▁בקושי	-10396
▁קולי	-10397
▁בסדרה	-10398
▁online	-10399
צוגה	-10400
aster	-10401
זיאון	-10402
מדובר	-10403
▁Beach	-10404
▁אכלנו	-10405
▁אמורים	-10406
המש	-10407
ריא	-10408
reet	-10409
▁head	-10410
▁לחסוך	-10411
inal	-10412
▁number	-10413
▁הכותרת	-10414
▁הזיכרון	-10415
▁מחלה	-10416
▁הסביר	-10417
aftal	-10418
▁עיצ	-10419
▁מצוות	-10420
▁המייל	-10421
▁להרים	-10422
▁האזורית	-10423
▁האוטובוס	-10424
״מ	-10425
סלא	-10426
ours	-10427
▁הדס	-10428
▁כפית	-10429
▁«	-10430
▁חלונות	-10431
▁יוקרתי	-10432
▁נרצ	-10433
▁שחשוב	-10434
▁מפגשים	-10435
▁might	-10436
...]	-10437
▁בהיסטוריה	-10438
Eyal	-10439
לקית	-10440
▁אמסלם	-10441
▁בכיכר	-10442
▁מאחור	-10443
▁שנועדו	-10444
▁נדבר	-10445
▁proble	-10446
▁נתקל	-10447
▁העברי	-10448
▁רשתות	-10449
ומץ	-10450
ומרי	-10451
▁מנשה	-10452
▁פלאש	-10453
▁תרצה	-10454
▁היכנסו	-10455
▁מסכן	-10456
▁תביא	-10457
▁לטווח	-10458
▁Passion	-10459
▁האלימות	-10460
בנית	-10461
▁גנים	-10462
▁יקירה	-10463
▁לונדון	-10464
▁ברציפות	-10465
▁השתתפות	-10466
עתה	-10467
▁חווית	-10468
▁מתקדם	-10469
ried	-10470
▁המפגינים	-10471
▁וצוות	-10472
▁חכמים	-10473
▁וואוו	-10474
92	-10475
ben	-10476
▁הבסיס	-10477
▁נכנסת	-10478
▁הצלחתי	-10479
▁service	-10480
ועץ	-10481
▁גיי	-10482
▁להרוג	-10483
מיון	-10484
▁got	-10485
▁העלייה	-10486
גיב	-10487
inor	-10488
▁אלג	-10489
עשייה	-10490
"?	-10491
▁מגני	-10492
▁עשויה	-10493
▁דש	-10494
ליטו	-10495
▁מזר	-10496
▁הלימוד	-10497
▁הרצאות	-10498
▁current	-10499
▁משפחתית	-10500
▁המובילים	-10501
hana	-10502
ונתן	-10503
ייסים	-10504
▁מציגה	-10505
▁תרגום	-10506
▁סיון	-10507
▁הדיגי	-10508
▁הקבלה	-10509
▁season	-10510
▁קיצוני	-10511
▁עזרי	-10512
אימה	-10513
▁ben	-10514
▁האישית	-10515
▁פתוחים	-10516
▁2.5	-10517
▁Pre	-10518
-22	-10519
ודאות	-10520
▁תוצרת	-10521
▁השליטה	-10522
▁נכנסים	-10523
▁אתיופיה	-10524
▁הניצחון	-10525
▁מכיל	-10526
טיפול	-10527
רוויח	-10528
▁2022	-10529
ירועים	-10530
▁אילנה	-10531
▁stand	-10532
▁העולמית	-10533
ביל	-10534
▁הירש	-10535
▁Pr	-10536
▁מוכשרת	-10537
צבים	-10538
וויית	-10539
▁משמש	-10540
ריטניה	-10541
▁פרנסה	-10542
▁הגבר	-10543
▁נדירה	-10544
▁להטמיע	-10545
▁סופית	-10546
▁וילדים	-10547
▁תמשיכו	-10548
▁קמח	-10549
▁מפחד	-10550
▁נאמן	-10551
▁מרבית	-10552
▁הודיעו	-10553
▁ולראות	-10554
▁בטן	-10555
▁מתאימים	-10556
ister	-10557
▁לאוכל	-10558
שיך	-10559
▁Ag	-10560
▁מגה	-10561
▁page	-10562
▁הגלי	-10563
▁המוג	-10564
▁במהרה	-10565
▁באדיבות	-10566
קיעה	-10567
▁able	-10568
▁הידע	-10569
▁הנדר	-10570
▁עובדה	-10571
▁ההש	-10572
▁זהה	-10573
אהבתי	-10574
▁test	-10575
▁לאשר	-10576
▁שומעים	-10577
1/	-10578
▁resp	-10579
▁מוכשר	-10580
▁ראויה	-10581
▁ממליצים	-10582
ano	-10583
שימו	-10584
▁הפק	-10585
▁כבש	-10586
▁לחזק	-10587
▁אמנון	-10588
▁ובטח	-10589
▁יעיל	-10590
▁שדות	-10591
▁לדירה	-10592
▁להיום	-10593
▁מדריד	-10594
300	-10595
קלחת	-10596
▁הפתעות	-10597
▁ערכים	-10598
▁חוויות	-10599
1<	-10600
▁Amer	-10601
▁נסיך	-10602
▁במשפחה	-10603
שלון	-10604
▁בסין	-10605
▁בדיחה	-10606
▁פנימי	-10607
▁תפקידו	-10608
▁תשתיות	-10609
▁הקמפיין	-10610
▁ובן	-10611
ency	-10612
▁מוזיאון	-10613
▁צער	-10614
▁ולהיות	-10615
▁העירונית	-10616
צן	-10617
img	-10618
▁מחשבה	-10619
▁מעורר	-10620
▁התחייבות	-10621
משה	-10622
▁That	-10623
▁לפרסום	-10624
▁מהירות	-10625
▁הצטרפות	-10626
▁המקומיות	-10627
con	-10628
ובדת	-10629
▁הכפר	-10630
פסור	-10631
▁ושני	-10632
ohn	-10633
▁fact	-10634
▁פנינה	-10635
▁תו	-10636
▁ואבי	-10637
כתבת	-10638
▁מטפלים	-10639
מיץ	-10640
▁HD	-10641
▁אע	-10642
load	-10643
▁לגוף	-10644
▁{	-10645
ism	-10646
▁Par	-10647
▁rest	-10648
ically	-10649
▁מצאתם	-10650
▁grow	-10651
▁המסר	-10652
▁בדיון	-10653
▁Ph	-10654
▁אחורה	-10655
▁מועצה	-10656
▁להפעיל	-10657
▁Ro	-10658
▁הספ	-10659
ועדות	-10660
▁בקיבוץ	-10661
▁האורחים	-10662
▁טק	-10663
amit	-10664
ילתי	-10665
▁בתוספת	-10666
▁לייקים	-10667
▁יומולדת	-10668
▁ולג	-10669
נוביץ	-10670
▁Eden	-10671
▁מדור	-10672
▁מטורפת	-10673
חוף	-10674
▁Med	-10675
▁Amit	-10676
▁טעמים	-10677
▁עציון	-10678
▁Museum	-10679
▁spe	-10680
▁שהוק	-10681
▁לעזרה	-10682
▁איילון	-10683
.14	-10684
▁החגים	-10685
▁טריים	-10686
▁without	-10687
הן	-10688
חלף	-10689
זילי	-10690
עעעע	-10691
ished	-10692
▁הדוג	-10693
חתת	-10694
▁וסט	-10695
▁חולצה	-10696
▁מלאי	-10697
▁רשום	-10698
▁לרפואה	-10699
למו	-10700
osef	-10701
▁הפתעה	-10702
▁Can	-10703
▁ביתו	-10704
IV	-10705
בחים	-10706
דיקים	-10707
כניות	-10708
▁חריף	-10709
▁החלפת	-10710
▁השפעה	-10711
▁מומחים	-10712
▁חיובי	-10713
▁להוכיח	-10714
▁||	-10715
▁לביא	-10716
▁ניקיון	-10717
הק	-10718
REE	-10719
hal	-10720
▁בהצ	-10721
▁לטר	-10722
▁הדלק	-10723
▁מבחינתי	-10724
rap	-10725
ריכות	-10726
▁בטבע	-10727
▁הכרה	-10728
▁Facebook	-10729
▁טעימים	-10730
▁מלונות	-10731
▁הרגשתי	-10732
חסון	-10733
שבים	-10734
▁אשרי	-10735
▁הפגנה	-10736
▁בתגובות	-10737
▁אתא	-10738
▁כבל	-10739
▁קובע	-10740
uccess	-10741
▁להרשמה	-10742
▁החומרים	-10743
/01	-10744
חינת	-10745
▁נדרש	-10746
▁תייגו	-10747
▁תצא	-10748
▁קילו	-10749
▁Air	-10750
▁הגיב	-10751
▁השגר	-10752
▁שגיא	-10753
▁הכלבים	-10754
▁meet	-10755
נחלים	-10756
▁הירוק	-10757
▁תפילה	-10758
twitter	-10759
▁הגברים	-10760
▁today	-10761
▁למדתי	-10762
▁מתמחה	-10763
▁לתכנון	-10764
▁אנרג	-10765
▁המקסי	-10766
Ar	-10767
עימים	-10768
▁אינן	-10769
בריאות	-10770
▁בריאים	-10771
▁הזמנו	-10772
▁תחזור	-10773
▁ליבי	-10774
▁מהות	-10775
▁סופי	-10776
▁האהובה	-10777
▁להילחם	-10778
▁חסרת	-10779
▁שיפוץ	-10780
▁ספטמבר	-10781
▁תוספות	-10782
ומרת	-10783
▁אתגר	-10784
▁עוזי	-10785
▁משעמם	-10786
▁בחדרים	-10787
▁מכונית	-10788
rov	-10789
▁רחמים	-10790
▁העיתון	-10791
Tube	-10792
▁days	-10793
▁זמנית	-10794
▁כשאתם	-10795
▁תחנות	-10796
▁בקרי	-10797
▁וכעת	-10798
▁נשכח	-10799
▁צופה	-10800
▁לאיזה	-10801
▁לתפוס	-10802
▁ארונות	-10803
▁ולר	-10804
▁אונלי	-10805
▁יט	-10806
▁אנה	-10807
▁הנפט	-10808
▁השיחה	-10809
לונן	-10810
▁לרשום	-10811
▁בנושאים	-10812
שבתי	-10813
▁ביג	-10814
▁לרח	-10815
▁הערכת	-10816
▁לשיפור	-10817
▁חלה	-10818
▁בהכר	-10819
▁גמיש	-10820
▁וצריך	-10821
בקות	-10822
▁ברכבת	-10823
▁פורטל	-10824
חלוקת	-10825
פז	-10826
▁יבש	-10827
▁expl	-10828
▁באלי	-10829
▁איריס	-10830
▁מדויק	-10831
▁העלי	-10832
▁מיצ	-10833
▁במופע	-10834
▁עוגיות	-10835
קוש	-10836
▁ואו	-10837
ision	-10838
▁נשלח	-10839
▁בליווי	-10840
fe	-10841
▁הדם	-10842
סטרט	-10843
▁אבק	-10844
▁מאמרים	-10845
ten	-10846
▁בעמ	-10847
▁בעיניי	-10848
▁הכלכלית	-10849
▁pay	-10850
▁הלוי	-10851
▁מגרש	-10852
▁מתאר	-10853
▁באחריות	-10854
▁03	-10855
▁ear	-10856
▁רעה	-10857
▁ותיק	-10858
יני	-10859
וריו	-10860
▁אחדות	-10861
▁מחברת	-10862
תיב	-10863
▁quest	-10864
▁מחלות	-10865
ange	-10866
▁ליבר	-10867
ential	-10868
▁pur	-10869
▁אישר	-10870
▁סבלנות	-10871
▁(@	-10872
סטלג	-10873
▁שרוב	-10874
▁בנובמבר	-10875
ערנו	-10876
▁לוז	-10877
▁לכר	-10878
▁עשינו	-10879
▁המתאים	-10880
ney	-10881
▁ויט	-10882
▁בוגר	-10883
ertain	-10884
▁בציבור	-10885
״ש	-10886
יון	-10887
▁שופט	-10888
▁סינגל	-10889
▁מהרו	-10890
▁לעצמם	-10891
▁עמדות	-10892
▁פישר	-10893
▁נמצאות	-10894
▁מטיילים	-10895
rist	-10896
לויה	-10897
▁האק	-10898
▁full	-10899
▁מיטל	-10900
▁יהפוך	-10901
▁תקצי	-10902
דושה	-10903
▁זיל	-10904
▁נעלי	-10905
▁נפתחה	-10906
ampaign	-10907
nn	-10908
▁rece	-10909
▁התוכן	-10910
נוקות	-10911
▁ספרו	-10912
▁ואומר	-10913
▁תאגיד	-10914
▁תיאור	-10915
▁קח	-10916
▁התיי	-10917
▁יוב	-10918
▁הולי	-10919
▁הנור	-10920
▁Az	-10921
omen	-10922
▁וגר	-10923
▁עסקה	-10924
רס	-10925
בעו	-10926
▁רמלה	-10927
▁הקודש	-10928
▁חפר	-10929
▁לפה	-10930
▁תקלה	-10931
▁פית	-10932
▁ביישוב	-10933
מיי	-10934
▁במועד	-10935
▁שפה	-10936
▁בווי	-10937
▁לאישה	-10938
AP	-10939
עכשיו	-10940
▁דמות	-10941
סריה	-10942
▁חנן	-10943
▁הצלחת	-10944
▁סיבוב	-10945
▁פרח	-10946
▁בידיים	-10947
▁הצעירה	-10948
ען	-10949
▁קוריאה	-10950
ump	-10951
▁החוב	-10952
וווווו	-10953
▁לערוך	-10954
▁אלופים	-10955
▁הביקורת	-10956
נוני	-10957
▁give	-10958
▁וילה	-10959
▁התפריט	-10960
~~~~	-10961
▁נדמה	-10962
▁העסקי	-10963
▁ובעלי	-10964
▁מורים	-10965
▁טכנולוגיות	-10966
ux	-10967
נבו	-10968
לאים	-10969
▁eng	-10970
▁אמו	-10971
▁בכם	-10972
▁איסור	-10973
▁המוביל	-10974
▁בשבועות	-10975
מאה	-10976
▁37	-10977
▁בעיתון	-10978
▁looking	-10979
BC	-10980
סיפור	-10981
▁ברית	-10982
▁שמאפשר	-10983
▁מובילים	-10984
ליהם	-10985
▁מכות	-10986
▁במטבח	-10987
▁זיהום	-10988
▁Twitter	-10989
▁פרוייקט	-10990
טיין	-10991
▁שפות	-10992
נתר	-10993
▁ואוכל	-10994
נדב	-10995
▁חלל	-10996
▁טיל	-10997
▁צדיק	-10998
▁כותבת	-10999
▁כיבוי	-11000
תל	-11001
▁תנ	-11002
מותות	-11003
▁הבול	-11004
▁זהבה	-11005
▁המעבר	-11006
.23	-11007
▁לכלל	-11008
מתין	-11009
ently	-11010
▁food	-11011
▁גלובס	-11012
▁החלמה	-11013
▁בהג	-11014
▁קדוש	-11015
▁מצחוק	-11016
▁בביקור	-11017
IM	-11018
ration	-11019
▁ההצלחה	-11020
.5%	-11021
▁קווי	-11022
▁never	-11023
בינט	-11024
▁עזרא	-11025
▁שלמות	-11026
ung	-11027
▁פרנק	-11028
rac	-11029
▁Ne	-11030
▁ההולדת	-11031
.16	-11032
▁לסדר	-11033
▁פנימה	-11034
▁custom	-11035
▁עיתונאי	-11036
ids	-11037
ured	-11038
▁לוו	-11039
ately	-11040
▁גפני	-11041
▁הדסה	-11042
▁ומרגש	-11043
▁סיפרה	-11044
▁געגועים	-11045
▁מבוגרים	-11046
▁הפיר	-11047
▁שתיקה	-11048
ift	-11049
קרא	-11050
▁לאמץ	-11051
▁proper	-11052
iran	-11053
oyal	-11054
part	-11055
▁בבלוג	-11056
earch	-11057
טיחים	-11058
חלטות	-11059
▁חקירת	-11060
onM	-11061
שוק	-11062
▁old	-11063
▁האז	-11064
▁והמת	-11065
▁[...]	-11066
het	-11067
קנו	-11068
▁שקטה	-11069
▁כולכם	-11070
▁תלמיד	-11071
▁רופאים	-11072
אמ	-11073
▁ומפ	-11074
arch	-11075
▁הדמוקרטיה	-11076
nel	-11077
גריה	-11078
▁בגוש	-11079
▁בובה	-11080
▁בשדה	-11081
▁דפנה	-11082
▁קלים	-11083
▁השינה	-11084
▁ופיתוח	-11085
אף	-11086
▁רד	-11087
ערובת	-11088
▁כשאת	-11089
▁התאונה	-11090
▁יכולתי	-11091
▁ob	-11092
מסגרת	-11093
▁מעין	-11094
רוף	-11095
▁רוטב	-11096
▁חוקים	-11097
▁חלו	-11098
▁הועדה	-11099
▁ליצמן	-11100
▁רגילה	-11101
ודד	-11102
▁קיו	-11103
▁תכשיטים	-11104
מחת	-11105
ohar	-11106
▁הרחוב	-11107
▁להרוס	-11108
▁באוקטובר	-11109
בודת	-11110
▁מצלמה	-11111
ניהן	-11112
▁דצמבר	-11113
▁משימה	-11114
▁הראשית	-11115
▁בישול	-11116
▁לחברים	-11117
בקשים	-11118
▁אביחי	-11119
▁הוצאה	-11120
▁נמצאו	-11121
▁תיקים	-11122
▁must	-11123
ori	-11124
▁enjoy	-11125
rown	-11126
▁לאו	-11127
רוגים	-11128
▁לוחם	-11129
▁להמליץ	-11130
▁יפתח	-11131
▁חומוס	-11132
▁שתיים	-11133
▁hard	-11134
.05	-11135
▁ובמיוחד	-11136
זמים	-11137
▁ואחר	-11138
▁ושאר	-11139
▁סכנה	-11140
▁והופך	-11141
▁לרקוד	-11142
ivan	-11143
וטיוב	-11144
▁האות	-11145
ges	-11146
קדש	-11147
▁דיס	-11148
▁against	-11149
ko	-11150
▁המיני	-11151
▁תקדים	-11152
▁provide	-11153
▁לארוחות	-11154
זרע	-11155
▁ישאר	-11156
▁אונליין	-11157
ling	-11158
▁פינו	-11159
▁אורנה	-11160
▁רצועת	-11161
▁עוסק	-11162
▁צהוב	-11163
▁המושלמת	-11164
▁כשמבקרים	-11165
▁בגרמניה	-11166
▁Chen	-11167
▁עימות	-11168
▁התג	-11169
▁ומאז	-11170
▁הפלסטיני	-11171
▁הבינלאומית	-11172
▁דהן	-11173
▁ותת	-11174
▁המראה	-11175
▁מצטרף	-11176
▁working	-11177
מאן	-11178
▁Qu	-11179
▁קם	-11180
▁ההשקעה	-11181
קיפות	-11182
▁המקרים	-11183
▁מביאים	-11184
▁כשנ	-11185
▁כלכך	-11186
דתי	-11187
▁פליי	-11188
▁ראית	-11189
▁אמנים	-11190
והי	-11191
ards	-11192
פשוט	-11193
▁איום	-11194
▁הבנה	-11195
▁פורת	-11196
▁מגעיל	-11197
▁נסיעות	-11198
rod	-11199
▁סלע	-11200
▁ומרו	-11201
▁במשפט	-11202
▁המבוק	-11203
▁גבוהות	-11204
▁ערכ	-11205
▁נראת	-11206
▁הפעלה	-11207
▁התנאים	-11208
uff	-11209
▁7.	-11210
aren	-11211
מלים	-11212
Cohen	-11213
▁חלילה	-11214
▁רשויות	-11215
כולנו	-11216
▁לוקחת	-11217
זיר	-11218
▁ארוכים	-11219
▁אופק	-11220
▁סכין	-11221
▁הביאו	-11222
▁התקבלה	-11223
▁סושי	-11224
▁בוודאי	-11225
gin	-11226
דורים	-11227
▁חתימה	-11228
▁יקירתי	-11229
▁אן	-11230
▁רם	-11231
▁בליגת	-11232
▁למכבי	-11233
▁החקלאות	-11234
▁מינימום	-11235
▁המתוק	-11236
▁משקאות	-11237
ta	-11238
חון	-11239
▁תיה	-11240
▁area	-11241
▁power	-11242
▁תחליף	-11243
▁גבעתיים	-11244
▁מזוודות	-11245
דוע	-11246
ront	-11247
▁ולו	-11248
▁תלת	-11249
▁access	-11250
▁למלחמה	-11251
״א	-11252
ותן	-11253
▁דגש	-11254
▁שולח	-11255
▁דולרים	-11256
והם	-11257
▁Pe	-11258
▁ירדו	-11259
▁הקדוש	-11260
▁פיזית	-11261
▁ומיזוג	-11262
▁למניעת	-11263
▁42	-11264
▁לאסוף	-11265
אמי	-11266
גיגה	-11267
רויות	-11268
▁Inst	-11269
▁טופס	-11270
▁למוע	-11271
▁כשרות	-11272
ding	-11273
▁אחמד	-11274
▁החלל	-11275
▁זקוק	-11276
▁המינו	-11277
▁השומר	-11278
▁תוצאה	-11279
▁הפגישה	-11280
▁שטרא	-11281
▁פלפל	-11282
▁המוות	-11283
איל	-11284
וזות	-11285
▁וחס	-11286
▁מצפים	-11287
Ha	-11288
גיגות	-11289
▁הדגל	-11290
▁המזרח	-11291
▁הקיים	-11292
▁יוקרה	-11293
▁להחזיק	-11294
מכירה	-11295
▁טענות	-11296
▁המסעדות	-11297
כרים	-11298
▁בועז	-11299
▁הווי	-11300
▁ואחת	-11301
▁משתלם	-11302
▁לקבוצת	-11303
▁שפורסם	-11304
▁המספר	-11305
▁לבג	-11306
▁התור	-11307
▁מברוק	-11308
מוב	-11309
▁למניות	-11310
▁עצמאות	-11311
▁Pol	-11312
▁שנחש	-11313
▁600	-11314
▁המנ	-11315
▁הרבי	-11316
▁צביקה	-11317
▁פעילים	-11318
▁רץ	-11319
ואית	-11320
▁מהמת	-11321
haz	-11322
▁הישן	-11323
▁לייב	-11324
▁נמכר	-11325
▁בישיבת	-11326
מעת	-11327
▁99	-11328
iver	-11329
שימים	-11330
▁טבעוני	-11331
▁ההשקעות	-11332
▁ההופעה	-11333
▁היכרות	-11334
קעת	-11335
ובבים	-11336
▁מתלב	-11337
▁רוזן	-11338
▁במיקום	-11339
▁דיגיטלי	-11340
טיוב	-11341
▁ובט	-11342
כותית	-11343
▁חלון	-11344
טואציה	-11345
▁חתיכת	-11346
▁הצגה	-11347
▁נמשך	-11348
▁קלות	-11349
▁הורסת	-11350
▁אדלשטיין	-11351
לקט	-11352
▁גליק	-11353
▁מתייחס	-11354
▁✅	-11355
ony	-11356
▁מתים	-11357
▁צרכים	-11358
מפרטורות	-11359
OD	-11360
▁ביצ	-11361
▁הבירה	-11362
▁תשתית	-11363
▁האול	-11364
▁נועד	-11365
▁Ham	-11366
▁אכז	-11367
▁בקו	-11368
▁מחאת	-11369
▁הידיים	-11370
כבת	-11371
▁מחוי	-11372
▁בייבי	-11373
▁מנוחה	-11374
▁ממצ	-11375
▁ישנו	-11376
▁בחנויות	-11377
▁האמיתית	-11378
:2	-11379
▁חשק	-11380
▁הכרטיסים	-11381
gi	-11382
Net	-11383
ליד	-11384
▁דתיים	-11385
▁למידע	-11386
orld	-11387
נטרי	-11388
▁לחיל	-11389
▁מרחק	-11390
▁נצרת	-11391
rag	-11392
שיט	-11393
▁dr	-11394
weet	-11395
▁הנשק	-11396
▁רצינית	-11397
fer	-11398
▁והל	-11399
▁השפה	-11400
▁מפלגות	-11401
פיא	-11402
▁לפל	-11403
▁לטייל	-11404
▁האיראני	-11405
▁מחסן	-11406
▁כיסוי	-11407
▁ברשימה	-11408
חקת	-11409
▁לקחו	-11410
▁שוור	-11411
▁מטפלת	-11412
וויזיון	-11413
▁לכלבים	-11414
ills	-11415
▁קוט	-11416
arker	-11417
▁ולמע	-11418
▁מקרי	-11419
▁זוכרים	-11420
▁מחשבות	-11421
▁הרגליים	-11422
שיעה	-11423
▁חתן	-11424
▁שמנת	-11425
▁רשימה	-11426
▁שאיר	-11427
▁שהשת	-11428
▁חשיפה	-11429
▁למקסם	-11430
▁בהריון	-11431
▁פד	-11432
▁pass	-11433
▁בטוב	-11434
▁מועמד	-11435
iny	-11436
▁₪1	-11437
olid	-11438
▁FREE	-11439
▁בשפה	-11440
▁הבנת	-11441
▁תרצו	-11442
▁חיסול	-11443
▁וניהול	-11444
▁לרכישה	-11445
ומטר	-11446
▁חתם	-11447
▁הנשי	-11448
▁הסיכוי	-11449
▁הקבוע	-11450
מריז	-11451
▁ובית	-11452
▁elect	-11453
▁גזענות	-11454
▁חמודים	-11455
▁via	-11456
חברים	-11457
▁הצצה	-11458
▁יקיר	-11459
▁21:00	-11460
▁כיתות	-11461
▁ניצחה	-11462
ems	-11463
וויץ	-11464
▁כיס	-11465
▁בטעם	-11466
▁עברתי	-11467
You	-11468
▁oper	-11469
▁במכבי	-11470
▁לתוכנית	-11471
▁fac	-11472
▁lik	-11473
מוט	-11474
apir	-11475
▁met	-11476
▁הכירו	-11477
▁שאסור	-11478
▁הדמוקר	-11479
▁תלונות	-11480
מלך	-11481
▁היועמ	-11482
▁לילדי	-11483
UR	-11484
▁התפר	-11485
אלון	-11486
▁דאגה	-11487
▁נאור	-11488
▁גלידה	-11489
▁הרס	-11490
▁אוחיון	-11491
▁לתקשורת	-11492
▁תכניות	-11493
▁est	-11494
▁לדון	-11495
▁מהכל	-11496
▁נכונות	-11497
ke	-11498
יישבות	-11499
▁תקיפה	-11500
קשן	-11501
▁בהתאמה	-11502
נדו	-11503
urch	-11504
▁שאינה	-11505
▁נפגשים	-11506
▁בוצ	-11507
▁יוס	-11508
טויות	-11509
▁four	-11510
▁הכאב	-11511
▁הנסיך	-11512
▁לפוסט	-11513
PS	-11514
▁מחובר	-11515
▁לעזאזל	-11516
sw	-11517
▁Sa	-11518
▁Comm	-11519
▁גליל	-11520
▁המקסים	-11521
▁בריטניה	-11522
zi	-11523
-24	-11524
חימה	-11525
▁לתע	-11526
▁שהכ	-11527
▁שהוצ	-11528
▁שנתי	-11529
ording	-11530
▁להשלים	-11531
בקים	-11532
קרון	-11533
▁Moshe	-11534
▁ההיסט	-11535
▁קליין	-11536
▁שמולי	-11537
Dan	-11538
ורק	-11539
צין	-11540
טיול	-11541
▁לקל	-11542
▁char	-11543
▁Gil	-11544
▁אמהות	-11545
▁במציאות	-11546
▁הנל	-11547
72	-11548
חחחחח	-11549
▁היחס	-11550
▁ובכ	-11551
▁חיובית	-11552
▁הסופ	-11553
▁expect	-11554
▁סטי	-11555
בלנות	-11556
▁נמשכת	-11557
▁שולחת	-11558
acher	-11559
▁הורס	-11560
▁שחלק	-11561
פשוק	-11562
▁דורשים	-11563
ואליה	-11564
▁ברקע	-11565
▁ולפי	-11566
קנות	-11567
▁prom	-11568
▁ברגל	-11569
▁יחידה	-11570
זכר	-11571
שלא	-11572
▁מבח	-11573
▁ציר	-11574
▁הכנת	-11575
▁המכירה	-11576
שורה	-11577
▁ייק	-11578
ומכים	-11579
▁גורמי	-11580
▁כשנה	-11581
ערים	-11582
▁pop	-11583
▁אלק	-11584
▁פשע	-11585
▁מפתי	-11586
▁ישנים	-11587
▁לחתום	-11588
▁ליכוד	-11589
▁לשמאל	-11590
▁חשמליים	-11591
▁הבשר	-11592
▁צרפתי	-11593
▁addition	-11594
▁רוכב	-11595
▁בקבוצת	-11596
▁הנס	-11597
▁מסגרת	-11598
▁הגאווה	-11599
ariv	-11600
▁לחול	-11601
▁פסטה	-11602
▁רפואת	-11603
raw	-11604
▁5,	-11605
▁Em	-11606
▁Sm	-11607
יתור	-11608
▁יפעת	-11609
▁מקרוב	-11610
▁לפרו	-11611
▁שכתבתי	-11612
בלבל	-11613
▁המסע	-11614
▁נרחב	-11615
▁באליפות	-11616
▁החוקרים	-11617
OB	-11618
עולם	-11619
▁מושי	-11620
▁המסורת	-11621
▁מ־	-11622
כיים	-11623
ממממ	-11624
▁דעתו	-11625
▁המיל	-11626
▁תתחד	-11627
▁הפגנות	-11628
▁מכינים	-11629
▁באתי	-11630
▁אפריל	-11631
go	-11632
▁עצמאית	-11633
בנים	-11634
גוון	-11635
▁קחו	-11636
▁בצורת	-11637
▁התקבל	-11638
▁לפרגן	-11639
4<	-11640
▁Sun	-11641
▁לרפ	-11642
?)	-11643
▁upd	-11644
▁המתי	-11645
▁טענה	-11646
▁לשכנע	-11647
iversity	-11648
ww	-11649
מלצה	-11650
▁למעט	-11651
Ph	-11652
חסי	-11653
▁10.	-11654
▁משתנה	-11655
▁זועבי	-11656
כויים	-11657
עורים	-11658
▁אולמרט	-11659
▁המכירות	-11660
▁ניב	-11661
raham	-11662
▁ליאל	-11663
▁בכדור	-11664
▁רישום	-11665
▁פלסטיני	-11666
▁180	-11667
▁less	-11668
▁העלה	-11669
▁ומשת	-11670
▁שוחד	-11671
▁כפתור	-11672
▁קורסים	-11673
Id	-11674
▁לימון	-11675
▁לאינטרנט	-11676
▁(2	-11677
וואה	-11678
▁Da	-11679
▁בשבט	-11680
▁וורד	-11681
▁טיבי	-11682
▁קירות	-11683
▁הפורום	-11684
▁air	-11685
▁כור	-11686
▁סמל	-11687
▁מקצועיות	-11688
נדבים	-11689
▁אכלתי	-11690
▁ה־	-11691
nett	-11692
▁בפל	-11693
▁זכאי	-11694
▁visit	-11695
▁לכיתה	-11696
▁לעובדים	-11697
▁מתכ	-11698
▁ואנשים	-11699
זוב	-11700
ליסט	-11701
▁עשור	-11702
▁special	-11703
▁past	-11704
▁זוגית	-11705
▁פינוק	-11706
400	-11707
▁יראה	-11708
▁מתמיד	-11709
.&	-11710
פצ	-11711
״כ	-11712
/2014	-11713
לתם	-11714
▁השער	-11715
▁משופצת	-11716
▁המקומיים	-11717
▁כתבי	-11718
▁מלמד	-11719
▁בעצמך	-11720
▁גמילה	-11721
▁לקבוצות	-11722
▁בודדים	-11723
▁החמי	-11724
▁הפקת	-11725
▁הרבנים	-11726
ירוץ	-11727
▁בהכרח	-11728
▁הקולנוע	-11729
▁Mal	-11730
▁indust	-11731
▁בפיתוח	-11732
59	-11733
צלו	-11734
שיח	-11735
▁הארצי	-11736
▁הירדן	-11737
▁טבעית	-11738
▁public	-11739
egal	-11740
כותל	-11741
▁סנד	-11742
▁החלטנו	-11743
▁u	-11744
ליכה	-11745
נוחות	-11746
▁מבפנים	-11747
לוות	-11748
רגיות	-11749
▁תיכון	-11750
▁כיפה	-11751
▁פריי	-11752
▁email	-11753
▁סוגים	-11754
chen	-11755
▁לחימה	-11756
▁האינטר	-11757
▁האמריקאית	-11758
עס	-11759
▁אחז	-11760
▁בהק	-11761
פושים	-11762
▁תומכים	-11763
▁%	-11764
ases	-11765
▁מוי	-11766
▁לאישור	-11767
פשט	-11768
▁להאז	-11769
▁פרסמה	-11770
ains	-11771
comm	-11772
▁בתאונת	-11773
▁זכרון	-11774
▁קהילה	-11775
▁רגשות	-11776
▁סמסונג	-11777
................	-11778
ביד	-11779
fort	-11780
▁לקול	-11781
▁מעגל	-11782
▁למנות	-11783
▁Per	-11784
ST	-11785
▁39	-11786
▁עצר	-11787
▁making	-11788
שח	-11789
izra	-11790
▁חינ	-11791
דג	-11792
side	-11793
▁חלקה	-11794
▁המבנה	-11795
▁מביאה	-11796
ring	-11797
▁dem	-11798
▁פורט	-11799
רוז	-11800
▁שים	-11801
▁בטון	-11802
▁דוחה	-11803
▁הופכים	-11804
▁הפיתוח	-11805
קעות	-11806
inson	-11807
מנטים	-11808
▁הגעתם	-11809
סטלגיה	-11810
▁הנשמה	-11811
▁להגשים	-11812
▁והשירות	-11813
Yaniv	-11814
▁תרומה	-11815
סיסי	-11816
קאית	-11817
ילויות	-11818
▁17:00	-11819
▁ויצמן	-11820
▁היישוב	-11821
▁מיכאלי	-11822
Yin	-11823
mor	-11824
▁החום	-11825
▁בצרפת	-11826
▁הזוכה	-11827
▁המלאי	-11828
▁סביבה	-11829
555	-11830
oor	-11831
▁Tz	-11832
▁בחסות	-11833
▁בנאדם	-11834
▁בתנאים	-11835
62	-11836
▁z	-11837
▁עצמאי	-11838
ברט	-11839
▁מדעי	-11840
▁לעצמה	-11841
▁הרפואה	-11842
▁לזוגות	-11843
▁צוע	-11844
▁Cont	-11845
▁הנחות	-11846
▁הסופר	-11847
▁בקהילה	-11848
▁לעצמכם	-11849
▁אפליקציית	-11850
▁בעלה	-11851
ואליצי	-11852
▁הוראה	-11853
▁לרשימת	-11854
▁פברואר	-11855
▁להצט	-11856
▁מכני	-11857
▁20:30	-11858
irl	-11859
gil	-11860
oon	-11861
וליה	-11862
שרדים	-11863
▁נובמבר	-11864
OV	-11865
לכ	-11866
/17	-11867
▁Mer	-11868
לילים	-11869
▁למים	-11870
▁הראשונות	-11871
RA	-11872
ait	-11873
פעלה	-11874
▁ואר	-11875
▁שולי	-11876
▁הארוחה	-11877
▁ללימודים	-11878
HE	-11879
▁San	-11880
▁ונד	-11881
stein	-11882
▁וגור	-11883
▁בדברים	-11884
▁למסירה	-11885
▁החשובים	-11886
▁ובהצלחה	-11887
Des	-11888
▁והמס	-11889
▁ההזמנה	-11890
▁משתתפת	-11891
אגה	-11892
▁ל־	-11893
▁Cha	-11894
▁נבד	-11895
▁בתפריט	-11896
irm	-11897
טפו	-11898
ocus	-11899
▁פלג	-11900
▁הקבל	-11901
▁order	-11902
▁נורית	-11903
▁שרשרת	-11904
▁למלון	-11905
▁מסורת	-11906
▁מקווים	-11907
▁הכוללים	-11908
▁חחחחחחחחחחח	-11909
▁גוטליב	-11910
קרי	-11911
ries	-11912
▁1.5	-11913
▁סוס	-11914
▁שומן	-11915
▁משרדים	-11916
▁טס	-11917
▁יוגה	-11918
▁כדורי	-11919
▁פגע	-11920
מערכת	-11921
▁מוציא	-11922
ird	-11923
▁יער	-11924
▁ציור	-11925
YinonM	-11926
▁נכנסו	-11927
YinonMagal	-11928
לכל	-11929
▁ששל	-11930
▁עצרו	-11931
▁התואר	-11932
▁צבוע	-11933
▁גולשים	-11934
▁@_	-11935
▁בנוי	-11936
▁לסוף	-11937
▁חשיבה	-11938
▁בודד	-11939
▁להתעלם	-11940
טרים	-11941
▁ושא	-11942
תתתתת	-11943
▁המוני	-11944
▁ארכיון	-11945
▁למציאות	-11946
▁פוטנציאל	-11947
ternational	-11948
מאיר	-11949
דרגות	-11950
רוכות	-11951
▁להפרי	-11952
▁שישראל	-11953
צול	-11954
ieve	-11955
▁שחל	-11956
▁גלוטן	-11957
▁ליאון	-11958
▁נורמלי	-11959
/2023	-11960
▁שובר	-11961
▁אנושי	-11962
▁רונאל	-11963
ovich	-11964
▁ציוץ	-11965
▁שמחת	-11966
▁בטחון	-11967
GB	-11968
▁eco	-11969
▁יביא	-11970
▁הרוגים	-11971
ico	-11972
▁Te	-11973
בדות	-11974
▁מגב	-11975
▁האוהדים	-11976
נטינה	-11977
▁מצעד	-11978
ichael	-11979
▁בכורה	-11980
▁בסטודיו	-11981
צבת	-11982
לאחר	-11983
▁עליית	-11984
▁מהשהייה	-11985
בעי	-11986
▁היפים	-11987
▁ובסוף	-11988
▁המחזור	-11989
קוי	-11990
שיבו	-11991
▁צפת	-11992
▁במדי	-11993
▁local	-11994
▁success	-11995
▁גרה	-11996
▁cover	-11997
▁ומיני	-11998
▁סטנדר	-11999
▁רבנים	-12000
שלמת	-12001
▁חמות	-12002
▁מהמח	-12003
▁תחילה	-12004
▁בשיטת	-12005
ציונ	-12006
▁אשם	-12007
▁אויר	-12008
▁בנגב	-12009
▁הקפ	-12010
▁ורג	-12011
▁במשמ	-12012
בג	-12013
ונך	-12014
צבן	-12015
▁supp	-12016
▁הדתי	-12017
▁להית	-12018
▁הצהרת	-12019
▁מתנדבים	-12020
טאות	-12021
מיין	-12022
▁חגית	-12023
▁סיעת	-12024
Li	-12025
בואו	-12026
▁דוחות	-12027
osed	-12028
▁מייצ	-12029
▁בלשון	-12030
▁להגשת	-12031
8<	-12032
▁הספי	-12033
▁מדיני	-12034
נרי	-12035
נועת	-12036
▁Mon	-12037
▁צעדים	-12038
▁המשותף	-12039
▁בעין	-12040
▁ברקת	-12041
▁רחלי	-12042
▁הרגשה	-12043
▁באוטובוס	-12044
ros	-12045
rive	-12046
▁turn	-12047
▁שימש	-12048
IG	-12049
כימו	-12050
▁אחיו	-12051
▁החזר	-12052
עוט	-12053
▁נחום	-12054
▁תהיי	-12055
▁להיפגש	-12056
▁services	-12057
chi	-12058
אמא	-12059
בקה	-12060
▁מעריב	-12061
▁הנסיכה	-12062
וויד	-12063
▁שמלה	-12064
81	-12065
▁כלשהי	-12066
▁equ	-12067
▁צול	-12068
ands	-12069
▁learn	-12070
▁RE	-12071
▁הודה	-12072
▁ומאו	-12073
▁שהופ	-12074
▁לעתיד	-12075
▁פלסטיק	-12076
▁שומרים	-12077
אאאאאאאא	-12078
.20	-12079
til	-12080
▁ונפ	-12081
▁המלי	-12082
▁לואי	-12083
0,0,0,	-12084
▁לגייס	-12085
▁להתקיים	-12086
▁משקיעים	-12087
לחם	-12088
ican	-12089
vious	-12090
צץ	-12091
בדי	-12092
ript	-12093
▁אנט	-12094
▁לעודד	-12095
▁נשארו	-12096
ילר	-12097
▁רכש	-12098
▁משכנתא	-12099
-60	-12100
גורר	-12101
▁let	-12102
▁בגני	-12103
▁בינינו	-12104
kann	-12105
אשמח	-12106
צרית	-12107
▁השרה	-12108
▁לשבור	-12109
▁לחיילים	-12110
ental	-12111
▁ההוא	-12112
▁לחדש	-12113
▁19:00	-12114
▁בשטחים	-12115
▁present	-12116
▁לזרוק	-12117
▁לדברים	-12118
רצאה	-12119
▁קרובה	-12120
▁תחזית	-12121
▁change	-12122
▁בתה	-12123
▁פאב	-12124
▁אומץ	-12125
▁גרסת	-12126
▁עצים	-12127
▁ויהיה	-12128
▁הסתיים	-12129
▁ותש	-12130
▁בבנק	-12131
▁נאות	-12132
▁כדורסל	-12133
וסיות	-12134
▁feat	-12135
▁בגמר	-12136
▁הקליפ	-12137
▁שהולך	-12138
▁Sar	-12139
ונאות	-12140
▁Fran	-12141
▁גרפי	-12142
▁השיא	-12143
▁הדו	-12144
▁הוו	-12145
כניסה	-12146
ending	-12147
▁שאלתי	-12148
ika	-12149
▁באוכל	-12150
▁חמורה	-12151
▁יאפשר	-12152
▁within	-12153
▁האיתות	-12154
ציאת	-12155
▁אשתקד	-12156
▁הערים	-12157
▁למעוניינים	-12158
ane	-12159
▁אבישי	-12160
▁יעמוד	-12161
▁הצלחות	-12162
▁החלומות	-12163
ומני	-12164
iber	-12165
▁אוקטובר	-12166
▁צח	-12167
▁באמ	-12168
▁פעילי	-12169
אנס	-12170
נגו	-12171
ילון	-12172
▁לעסק	-12173
▁אלירן	-12174
▁מבוסס	-12175
zal	-12176
▁הסקר	-12177
▁המיקום	-12178
▁הצבאית	-12179
▁רגליים	-12180
שיפת	-12181
pping	-12182
▁חלוקת	-12183
▁ידועה	-12184
▁מוסיף	-12185
▁בתמורה	-12186
▁Na	-12187
ynet	-12188
מטום	-12189
▁Min	-12190
▁ענבל	-12191
▁הרבנות	-12192
▁מטומטם	-12193
וטובוסים	-12194
▁ההק	-12195
▁בהלם	-12196
▁הטרי	-12197
רוסופט	-12198
▁ההצגה	-12199
▁התקנת	-12200
▁למוקד	-12201
▁לתחום	-12202
נדרואיד	-12203
▁בחתונה	-12204
▁בבח	-12205
▁שנעשה	-12206
פקוד	-12207
▁Our	-12208
▁שלק	-12209
▁פשפשוק	-12210
ify	-12211
ivid	-12212
ונדאי	-12213
רונים	-12214
▁הנאה	-12215
▁לכלא	-12216
▁מעשי	-12217
▁activ	-12218
▁בטלוויזיה	-12219
אוס	-12220
▁02	-12221
▁cr	-12222
▁מהל	-12223
▁המזל	-12224
▁מנגד	-12225
▁הצט	-12226
▁אתכן	-12227
▁התרגשות	-12228
▁students	-12229
▁עלולה	-12230
▁הביטוי	-12231
▁שאומרים	-12232
▁ידו	-12233
▁שליח	-12234
▁משובח	-12235
▁מצויינת	-12236
▁).	-12237
itive	-12238
רונית	-12239
▁המכר	-12240
▁הסתה	-12241
▁קלאסי	-12242
▁אזורית	-12243
she	-12244
חידת	-12245
▁מינו	-12246
▁נתנאל	-12247
▁המכללה	-12248
▁למקומות	-12249
▁ויו	-12250
▁לקו	-12251
קית	-12252
ערבים	-12253
▁אומנם	-12254
▁הבלוג	-12255
▁הצילום	-12256
▁בביה	-12257
▁בטענה	-12258
▁שפשוט	-12259
▁מוצאים	-12260
▁By	-12261
▁sal	-12262
▁גוד	-12263
רגשתי	-12264
▁גרוס	-12265
▁ושלי	-12266
▁קייט	-12267
▁רושם	-12268
▁יצאתי	-12269
▁מעצרו	-12270
ומיניום	-12271
▁אחראית	-12272
"-	-12273
▁הסרת	-12274
▁הפוט	-12275
▁המוסיקה	-12276
▁בפס	-12277
דווקא	-12278
יתיות	-12279
דברים	-12280
▁מסחרי	-12281
▁המוצעים	-12282
▁הומור	-12283
▁מכולם	-12284
▁aff	-12285
וקול	-12286
מטית	-12287
▁הגעת	-12288
▁בצוות	-12289
▁משפטים	-12290
▁שואלים	-12291
ספי	-12292
udio	-12293
נפלד	-12294
▁employ	-12295
רבות	-12296
▁באינסטגרם	-12297
obi	-12298
▁ברוח	-12299
▁התחלה	-12300
▁וכה	-12301
ופלים	-12302
▁גדולי	-12303
▁הכותל	-12304
ומס	-12305
צלח	-12306
▁עמנו	-12307
▁allow	-12308
▁בסניף	-12309
▁מתברר	-12310
bal	-12311
מכת	-12312
▁מיש	-12313
חולים	-12314
▁סגנון	-12315
▁עסקית	-12316
▁במלחמה	-12317
▁מתכוונת	-12318
▁לטל	-12319
▁light	-12320
▁במפעל	-12321
▁וחרפה	-12322
▁בוועדת	-12323
▁תערוכת	-12324
▁Bo	-12325
▁es	-12326
לבוע	-12327
▁דאעש	-12328
▁ושבת	-12329
ission	-12330
▁התובע	-12331
▁האיתותים	-12332
(:	-12333
▁אפר	-12334
▁מדיה	-12335
▁פאנל	-12336
▁ירושל	-12337
▁underst	-12338
▁חברתיים	-12339
סיף	-12340
דרגה	-12341
למרות	-12342
▁במכרז	-12343
▁הכשרה	-12344
ray	-12345
טרינג	-12346
▁Eyal	-12347
▁חזרו	-12348
▁ביקשה	-12349
▁ואיפה	-12350
▁לעתים	-12351
▁כותבים	-12352
▁מיץ	-12353
▁בסיסי	-12354
▁ריבית	-12355
▁כשע	-12356
▁שהתר	-12357
It	-12358
▁85	-12359
▁שנוס	-12360
▁עשרים	-12361
▁ההפגנה	-12362
.*	-12363
חזיר	-12364
▁שנר	-12365
▁בלעד	-12366
▁ברצח	-12367
▁הטקס	-12368
מדיקים	-12369
נקציות	-12370
da	-12371
טד	-12372
▁2:	-12373
▁בפת	-12374
▁היצר	-12375
▁בשדרות	-12376
▁Her	-12377
▁מעריך	-12378
▁הזדמנויות	-12379
דותי	-12380
▁fbid	-12381
▁אינטי	-12382
▁פניות	-12383
isc	-12384
רומה	-12385
▁אלדד	-12386
▁עיני	-12387
▁ריצה	-12388
▁שגריר	-12389
▁תומכת	-12390
▁חבילות	-12391
bin	-12392
oms	-12393
גשם	-12394
פויה	-12395
▁סיים	-12396
▁תכלס	-12397
▁share	-12398
▁היהדות	-12399
▁ויז	-12400
▁חזה	-12401
▁ליהודים	-12402
פשת	-12403
▁מחיי	-12404
▁מכינה	-12405
▁בילדים	-12406
▁לבחירות	-12407
וארת	-12408
▁הרוש	-12409
▁מקיף	-12410
▁creat	-12411
▁בבסיס	-12412
▁במחירי	-12413
▁music	-12414
▁הבטחון	-12415
טרית	-12416
▁נמס	-12417
itions	-12418
▁pract	-12419
▁מאליו	-12420
▁המיוחדת	-12421
טף	-12422
זבז	-12423
▁רט	-12424
▁חוגג	-12425
▁ערבית	-12426
ציץ	-12427
▁10,	-12428
Hotel	-12429
▁לתקוף	-12430
6<	-12431
בציה	-12432
קאות	-12433
▁להפיץ	-12434
▁מבטיחה	-12435
▁שעשיתי	-12436
▁ידידותית	-12437
▁43	-12438
ודיה	-12439
קשות	-12440
ories	-12441
akov	-12442
ייעץ	-12443
ariel	-12444
▁שמבקרים	-12445
ובוק	-12446
פתיע	-12447
וויתי	-12448
צליחי	-12449
פתעה	-12450
▁חית	-12451
▁יסת	-12452
▁דרכי	-12453
Bl	-12454
סוס	-12455
שבי	-12456
▁why	-12457
▁המשיך	-12458
▁profess	-12459
▁אוטומטית	-12460
שקעה	-12461
▁גשר	-12462
זרחות	-12463
▁במוקד	-12464
▁סימני	-12465
▁שיגיע	-12466
▁סובלים	-12467
▁הניסיון	-12468
וחח	-12469
קלית	-12470
▁הפא	-12471
▁במאה	-12472
▁נחמן	-12473
ירתיות	-12474
▁המשבר	-12475
▁עבורי	-12476
▁מתקיים	-12477
▁היסטורי	-12478
▁בשפע	-12479
▁לשטח	-12480
▁הבניה	-12481
▁הבנים	-12482
▁עיסוי	-12483
▁כדורים	-12484
▁למועדון	-12485
אלים	-12486
ראלי	-12487
▁מהמו	-12488
▁מסוב	-12489
▁במפגש	-12490
▁זוכים	-12491
▁הצופים	-12492
פיס	-12493
arin	-12494
▁וחל	-12495
▁אוכלת	-12496
▁וחברים	-12497
▁בכדורגל	-12498
▁מסוימים	-12499
▁לתש	-12500
▁שבט	-12501
▁הגשם	-12502
▁שימי	-12503
▁העובד	-12504
ng	-12505
sch	-12506
▁סטריט	-12507
▁עורכת	-12508
▁רויטרס	-12509
▁שאמרתי	-12510
ela	-12511
קבוק	-12512
▁sing	-12513
▁לממש	-12514
▁בגליל	-12515
▁המסור	-12516
▁התחילו	-12517
כיל	-12518
atter	-12519
חקנים	-12520
▁אסרף	-12521
▁ביטח	-12522
▁וההת	-12523
▁נחשף	-12524
בקשה	-12525
ייטק	-12526
▁לשה	-12527
▁case	-12528
▁ומתי	-12529
▁ברעננה	-12530
▁-)	-12531
כלתי	-12532
naftal	-12533
▁אחשלי	-12534
▁ציפור	-12535
▁וישראל	-12536
▁800	-12537
▁שנח	-12538
▁המוכר	-12539
▁להעתיק	-12540
overnment	-12541
▁זין	-12542
▁נלך	-12543
כורים	-12544
▁ובהת	-12545
נלאומיים	-12546
MA	-12547
▁יופ	-12548
▁שהוב	-12549
gether	-12550
▁מיקרו	-12551
▁מצטרפת	-12552
▁נוכחות	-12553
800	-12554
וטית	-12555
▁נעלם	-12556
▁עינת	-12557
▁מחקרים	-12558
ללה	-12559
▁אנס	-12560
▁השוטר	-12561
▁דיגיטל	-12562
▁הסיבות	-12563
:20	-12564
שתות	-12565
▁מעץ	-12566
▁אונס	-12567
▁לנוער	-12568
▁תעופה	-12569
▁תרגיל	-12570
▁להודיע	-12571
▁מצביעים	-12572
▁together	-12573
כמת	-12574
▁Vill	-12575
▁בכלי	-12576
▁הלחץ	-12577
▁מטרי	-12578
גז	-12579
▁קג	-12580
▁אקו	-12581
▁ניכר	-12582
▁סגורה	-12583
900	-12584
▁רבקה	-12585
▁שירת	-12586
▁הקשור	-12587
▁ומקרר	-12588
▁תתחיל	-12589
▁אייפון	-12590
▁הרשמית	-12591
▁פרסומות	-12592
▁רקטות	-12593
▁בריאיון	-12594
פטים	-12595
▁ספא	-12596
▁במאבק	-12597
▁ניח	-12598
▁שעת	-12599
▁למתן	-12600
▁פניה	-12601
▁לצרכן	-12602
▁שאוכל	-12603
▁מעכשיו	-12604
▁מתקדמת	-12605
▁44	-12606
דהות	-12607
▁ענה	-12608
▁בנמל	-12609
▁נאום	-12610
▁וממש	-12611
▁protect	-12612
yl	-12613
ושש	-12614
▁תבע	-12615
▁וטרי	-12616
▁בפסטיבל	-12617
▁ייא	-12618
▁מעד	-12619
▁גילו	-12620
▁משוג	-12621
▁הופכת	-12622
▁זולים	-12623
מלות	-12624
פלות	-12625
▁דליה	-12626
▁לברוח	-12627
▁במועצה	-12628
▁לסטודנטים	-12629
פוז	-12630
▁גו	-12631
▁אללה	-12632
▁החיות	-12633
▁וניל	-12634
▁מהארץ	-12635
▁בתאונה	-12636
▁However	-12637
oft	-12638
▁בכול	-12639
▁המרת	-12640
▁כאבים	-12641
▁מוריה	-12642
▁אמריקאי	-12643
▁האידיאלי	-12644
▁קולקציית	-12645
נדים	-12646
▁job	-12647
▁מייד	-12648
dition	-12649
▁18:00	-12650
▁Yuval	-12651
▁הזמרת	-12652
▁buy	-12653
▁השקת	-12654
▁בלינק	-12655
▁הגברת	-12656
מהלך	-12657
everal	-12658
נחלויות	-12659
▁הדיווחים	-12660
▁06	-12661
▁לזי	-12662
חונות	-12663
▁נחזור	-12664
▁key	-12665
▁הבעיות	-12666
ושם	-12667
▁state	-12668
▁להתקדם	-12669
בתו	-12670
▁הזבל	-12671
▁למסעדה	-12672
▁community	-12673
ora	-12674
ורש	-12675
itzan	-12676
▁שוד	-12677
▁בקונ	-12678
▁להקל	-12679
▁בעידן	-12680
רגו	-12681
ready	-12682
▁הגעה	-12683
▁לאיש	-12684
▁נעמה	-12685
▁איננו	-12686
▁להופיע	-12687
▁אוזן	-12688
▁ויקי	-12689
▁רמון	-12690
סטינים	-12691
▁והפקה	-12692
▁חיינו	-12693
פסקת	-12694
▁והיו	-12695
▁היותר	-12696
▁בחברות	-12697
▁ולהתרענן	-12698
כשה	-12699
▁Che	-12700
▁דיני	-12701
▁החשמ	-12702
▁לארה	-12703
▁משפטית	-12704
▁עשויים	-12705
▁התנ	-12706
▁והתח	-12707
▁along	-12708
▁העוגה	-12709
▁הירשמו	-12710
▁ומיוחד	-12711
▁חובשים	-12712
ves	-12713
vir	-12714
פגשים	-12715
▁night	-12716
▁Michal	-12717
▁בסביבת	-12718
▁10%	-12719
ניקוי	-12720
▁המבוס	-12721
▁החסימה	-12722
▁תמשיכי	-12723
▁בתש	-12724
▁שנש	-12725
▁Shlom	-12726
▁נערים	-12727
▁לוועדה	-12728
▁בסביבות	-12729
▁הקיצוני	-12730
▁לגמר	-12731
▁נפשי	-12732
▁ממשרד	-12733
חג	-12734
▁Off	-12735
▁הנזק	-12736
הההההה	-12737
▁העיקרית	-12738
▁04	-12739
▁הבתים	-12740
-23	-12741
aviv	-12742
source	-12743
גוריות	-12744
ita	-12745
▁לברר	-12746
▁קולה	-12747
▁הסיכון	-12748
▁במכון	-12749
▁700	-12750
▁lov	-12751
▁לשמח	-12752
▁רותי	-12753
▁ללחוץ	-12754
▁שנוכל	-12755
▁תפסיקו	-12756
▁גמור	-12757
▁יתרונות	-12758
aba	-12759
טלר	-12760
▁רול	-12761
סמו	-12762
▁6,	-12763
▁הדגם	-12764
▁חנוך	-12765
▁המועמדים	-12766
/06	-12767
▁היפ	-12768
▁מדוי	-12769
▁חובות	-12770
▁שיעורים	-12771
=2	-12772
uture	-12773
▁חסון	-12774
▁יחזק	-12775
▁בנפרד	-12776
▁having	-12777
▁הבטיחות	-12778
▁להצטרפות	-12779
▁לוה	-12780
▁פיג	-12781
▁ובתי	-12782
▁ממול	-12783
▁צורה	-12784
▁שומרת	-12785
נרים	-12786
▁קרובות	-12787
▁מושלמים	-12788
▁הנג	-12789
▁לאבד	-12790
▁בביתו	-12791
▁חבילת	-12792
▁נהדרים	-12793
che	-12794
ker	-12795
▁יוון	-12796
▁הבריטי	-12797
RO	-12798
por	-12799
סטו	-12800
▁המלכה	-12801
▁העלאת	-12802
▁Ha	-12803
ably	-12804
rove	-12805
▁האחת	-12806
▁החשבון	-12807
▁מעריכים	-12808
▁Nat	-12809
▁ששת	-12810
▁Pere	-12811
▁בשעת	-12812
▁סמנכ	-12813
▁חוגגת	-12814
▁נקיים	-12815
▁קריאת	-12816
בקשת	-12817
▁3.5	-12818
▁לחו	-12819
uli	-12820
לטת	-12821
▁סה	-12822
ails	-12823
גשמו	-12824
▁נפטר	-12825
▁אוקיי	-12826
▁המעור	-12827
▁הסעות	-12828
▁חוקית	-12829
▁תשכחו	-12830
▁משאלות	-12831
osp	-12832
זכרת	-12833
נתית	-12834
▁מולי	-12835
▁מישל	-12836
▁ממקום	-12837
▁Center	-12838
▁ולמרות	-12839
ירקטוריון	-12840
▁”	-12841
-80	-12842
מלץ	-12843
נוש	-12844
מספר	-12845
▁שמיר	-12846
▁הבכיר	-12847
▁כוונה	-12848
ניש	-12849
..."	-12850
חזרו	-12851
▁איב	-12852
▁לזכר	-12853
▁שקרא	-12854
▁דוגמה	-12855
▁המצלמה	-12856
▁הביטחוני	-12857
ci	-12858
▁מיט	-12859
עיצוב	-12860
▁side	-12861
▁כאבי	-12862
igital	-12863
▁מהעיר	-12864
חיפה	-12865
▁לנקות	-12866
יפו	-12867
נעם	-12868
צאפ	-12869
שמות	-12870
▁חלש	-12871
▁בטרם	-12872
▁בכירי	-12873
▁נוחים	-12874
▁עומרי	-12875
MS	-12876
▁מבש	-12877
▁מרצה	-12878
▁מתרח	-12879
▁ליותר	-12880
▁שומעת	-12881
צאתי	-12882
▁הורדת	-12883
▁Eur	-12884
▁הפחד	-12885
▁בפרשת	-12886
▁להסיר	-12887
▁מוסמך	-12888
▁נערכה	-12889
▁עליהן	-12890
▁רכישה	-12891
▁התחילה	-12892
צדק	-12893
▁Reg	-12894
▁בסדרת	-12895
▁course	-12896
▁quality	-12897
▁פקי	-12898
▁away	-12899
▁בתחומים	-12900
guy	-12901
▁ולפ	-12902
▁דברו	-12903
▁הגביע	-12904
▁המחוז	-12905
▁מכשירי	-12906
eter	-12907
▁פצוע	-12908
▁הבדיקה	-12909
ככה	-12910
ella	-12911
▁אבוק	-12912
▁12:00	-12913
▁ואנשי	-12914
▁מעשים	-12915
▁סימון	-12916
▁Sharon	-12917
▁החיפוש	-12918
▁כוללים	-12919
להלן	-12920
▁htt	-12921
▁היב	-12922
▁כשהי	-12923
▁הכתבות	-12924
▁אסטרטגי	-12925
▁8.	-12926
ייעת	-12927
ליפה	-12928
▁ושב	-12929
▁גינו	-12930
▁בחדרה	-12931
▁המשנה	-12932
▁הסניף	-12933
▁אפשרית	-12934
▁התופעה	-12935
▁הנמצאות	-12936
▁ורוד	-12937
▁הסכמה	-12938
▁בתשובה	-12939
יפ	-12940
עיר	-12941
▁הקצ	-12942
▁כרם	-12943
▁סנט	-12944
וצרות	-12945
ליטים	-12946
סטיות	-12947
▁שמשת	-12948
▁לדחות	-12949
▁בנהריה	-12950
yair	-12951
▁בנאי	-12952
▁money	-12953
▁ביקשו	-12954
▁יצליח	-12955
▁הביניים	-12956
▁הפופולריות	-12957
-90	-12958
ראן	-12959
▁בשיא	-12960
▁עסוק	-12961
▁10:	-12962
▁פעל	-12963
!!!!!!	-12964
▁needs	-12965
▁הזמנתי	-12966
aly	-12967
פלט	-12968
פורת	-12969
נתניהו	-12970
▁שליטא	-12971
▁באנשים	-12972
▁יתקיימו	-12973
▁לתלמידים	-12974
pped	-12975
דיחה	-12976
▁החמים	-12977
▁חגיגה	-12978
▁חברתיות	-12979
נחת	-12980
▁Sim	-12981
▁לאס	-12982
▁מחד	-12983
▁מעלפת	-12984
▁מעצבן	-12985
ליקה	-12986
כליים	-12987
▁מפרי	-12988
▁הייחוד	-12989
▁כלכליסט	-12990
ially	-12991
▁name	-12992
▁שאלו	-12993
▁המדריך	-12994
▁לשאלות	-12995
▁האהובים	-12996
כיה	-12997
anel	-12998
טרכו	-12999
▁תמצ	-13000
▁מייצג	-13001
▁שחרור	-13002
▁העניקו	-13003
רתית	-13004
▁העץ	-13005
▁site	-13006
▁מהאי	-13007
▁After	-13008
▁(0	-13009
▁Ge	-13010
רכנים	-13011
▁ביטן	-13012
▁שנשאר	-13013
▁השאירו	-13014
וזל	-13015
▁rese	-13016
▁אוסף	-13017
▁לירן	-13018
▁שיחת	-13019
▁תקבלו	-13020
▁הניתוח	-13021
era	-13022
ball	-13023
▁near	-13024
▁הוגן	-13025
▁ובהם	-13026
▁ואיזה	-13027
▁יוזמה	-13028
▁05	-13029
כללת	-13030
▁סטנד	-13031
▁שואלת	-13032
▁האבטחה	-13033
▁aut	-13034
▁החופ	-13035
▁לגעת	-13036
קעי	-13037
▁ללה	-13038
▁בונה	-13039
▁ימני	-13040
▁10:00	-13041
▁משו	-13042
▁צמר	-13043
▁שכדאי	-13044
-45	-13045
גלגל	-13046
סטין	-13047
▁kind	-13048
▁המית	-13049
▁מעקב	-13050
▁לקריאה	-13051
▁Yael	-13052
▁התברר	-13053
▁חגיגי	-13054
ization	-13055
▁מעורבים	-13056
להם	-13057
פטן	-13058
סיבי	-13059
▁ומוש	-13060
▁נועדו	-13061
▁לאחרים	-13062
Eld	-13063
unch	-13064
▁These	-13065
▁בגרות	-13066
▁ואחרים	-13067
▁דוגמאות	-13068
Avi	-13069
ille	-13070
רצית	-13071
▁ולט	-13072
▁לאחת	-13073
▁בעצמי	-13074
▁האושר	-13075
▁לנשיא	-13076
הז	-13077
▁ך	-13078
▁(19	-13079
▁Get	-13080
▁תקן	-13081
▁חושף	-13082
▁שזאת	-13083
▁הטיסה	-13084
▁יגידו	-13085
הכי	-13086
▁יצאנו	-13087
▁סובלת	-13088
▁להפליא	-13089
נכם	-13090
▁Mag	-13091
▁talk	-13092
▁משמר	-13093
▁offer	-13094
▁הקונס	-13095
▁וגד	-13096
▁ואוו	-13097
▁מחבר	-13098
▁דעתכם	-13099
▁זיהוי	-13100
▁עדיפות	-13101
▁TV	-13102
▁שבהן	-13103
▁במכתב	-13104
▁חברון	-13105
▁עבורך	-13106
▁applic	-13107
▁מעורבות	-13108
▁במוזיאון	-13109
טוסים	-13110
▁אביה	-13111
▁גברת	-13112
▁הערוץ	-13113
ca	-13114
חלק	-13115
▁1.2	-13116
זרחית	-13117
מריקה	-13118
▁טכנאי	-13119
▁הקלעים	-13120
ua	-13121
רכבת	-13122
▁Val	-13123
▁דעתך	-13124
▁ובעל	-13125
▁ספרות	-13126
▁לדר	-13127
▁שתק	-13128
▁גדות	-13129
▁החברתי	-13130
םםםםםםםם	-13131
600	-13132
בטח	-13133
▁ענף	-13134
urity	-13135
▁בהיר	-13136
▁וליה	-13137
▁שמסת	-13138
▁יעזרו	-13139
וסטון	-13140
▁הסמו	-13141
הט	-13142
▁ובצ	-13143
▁עשן	-13144
▁האנושי	-13145
▁Sw	-13146
hemia	-13147
▁נורה	-13148
▁שיעשה	-13149
▁ימשיכו	-13150
▁רגילים	-13151
לקח	-13152
chaim	-13153
וסטים	-13154
▁חימום	-13155
▁בממוצע	-13156
▁הנושאים	-13157
play	-13158
מפוס	-13159
▁אשתי	-13160
כחת	-13161
/2018	-13162
למידי	-13163
▁הטבות	-13164
▁הכללית	-13165
▁צילומי	-13166
פרסום	-13167
▁הישר	-13168
▁ואופ	-13169
▁ולפעמים	-13170
▁לסד	-13171
▁נאה	-13172
▁בנסי	-13173
▁thing	-13174
▁השכרת	-13175
not	-13176
▁net	-13177
וצאים	-13178
▁נהנו	-13179
▁האוטו	-13180
▁העורף	-13181
hav	-13182
אנשים	-13183
▁עזוב	-13184
▁עלית	-13185
▁פניו	-13186
▁כחודש	-13187
▁כספית	-13188
pro	-13189
ging	-13190
ולית	-13191
▁pic	-13192
▁קנה	-13193
נגליה	-13194
▁תורג	-13195
▁שהתקיים	-13196
ips	-13197
▁קק	-13198
▁דפי	-13199
▁אצלו	-13200
▁בשלי	-13201
▁גרסה	-13202
▁שטיי	-13203
▁בבדיקה	-13204
▁בבריטניה	-13205
ken	-13206
חקן	-13207
ופסא	-13208
▁טליה	-13209
▁פרדס	-13210
▁ירוקה	-13211
ביני	-13212
▁שבל	-13213
▁גלריה	-13214
▁להסכם	-13215
פוג	-13216
utes	-13217
▁סחר	-13218
ריפות	-13219
▁מתקן	-13220
▁המגזר	-13221
▁עבירה	-13222
▁החייאה	-13223
▁לתיירים	-13224
יישן	-13225
▁עני	-13226
▁פוק	-13227
▁ומוע	-13228
▁house	-13229
▁בוועדה	-13230
▁ניצח	-13231
▁בחורף	-13232
▁המחלה	-13233
▁שהג	-13234
▁תני	-13235
מונית	-13236
▁בוחר	-13237
▁ועדה	-13238
▁לצבא	-13239
▁מאוח	-13240
▁הסכום	-13241
▁יהושע	-13242
▁טורקיה	-13243
▁אקטואליה	-13244
סך	-13245
▁פונ	-13246
ודעים	-13247
▁move	-13248
גינו	-13249
▁בצק	-13250
▁בהור	-13251
▁התקיימה	-13252
▁נפח	-13253
▁האמא	-13254
▁דורית	-13255
▁לביבי	-13256
▁הברכות	-13257
זיז	-13258
אליים	-13259
▁בקשות	-13260
▁חנייה	-13261
▁שכחתי	-13262
▁הכרטיס	-13263
▁למינוי	-13264
▁thought	-13265
▁מוזמנות	-13266
לאס	-13267
vent	-13268
▁בלוג	-13269
▁ולהד	-13270
▁Golan	-13271
▁short	-13272
▁איזור	-13273
▁עמיחי	-13274
ומנויות	-13275
▁באיראן	-13276
▁מסמכים	-13277
▁דונלד	-13278
▁הוכחה	-13279
▁פנימית	-13280
▁products	-13281
▁Tr	-13282
king	-13283
מיום	-13284
▁חווה	-13285
▁לחשוף	-13286
▁לחייך	-13287
.19	-13288
כבים	-13289
▁appe	-13290
▁לנהוג	-13291
▁לרחוב	-13292
▁פטריות	-13293
▁קשורים	-13294
חלת	-13295
ציא	-13296
פדיה	-13297
▁מאש	-13298
▁קפי	-13299
▁שלילי	-13300
LE	-13301
עמים	-13302
▁למסור	-13303
▁שלחתי	-13304
▁נסיבות	-13305
▁collect	-13306
/200	-13307
antz	-13308
ones	-13309
▁שהוש	-13310
▁יושבת	-13311
▁למשהו	-13312
▁איומים	-13313
▁יצירות	-13314
▁צא	-13315
▁התס	-13316
▁לשתי	-13317
▁already	-13318
דרין	-13319
▁Noa	-13320
ummer	-13321
▁ולמי	-13322
▁סערה	-13323
▁ביידן	-13324
▁חזרתי	-13325
▁אימונים	-13326
▁עניינים	-13327
▁Int	-13328
▁סוח	-13329
▁רדי	-13330
▁והמק	-13331
▁חייך	-13332
▁Sapir	-13333
▁שעולה	-13334
ability	-13335
▁הדרכים	-13336
אך	-13337
▁mult	-13338
▁עזרת	-13339
▁פיקוח	-13340
▁הלוחמים	-13341
▁התייחסות	-13342
”,	-13343
▁ואכן	-13344
▁אביטל	-13345
▁בונים	-13346
▁זכיתי	-13347
▁שוויון	-13348
▁במדינות	-13349
ושן	-13350
unic	-13351
▁החם	-13352
▁כיי	-13353
▁המין	-13354
▁מודע	-13355
▁שבכל	-13356
▁מפנקת	-13357
123	-13358
Dor	-13359
▁Part	-13360
▁אפור	-13361
▁ומדה	-13362
▁תשעה	-13363
▁times	-13364
▁ללקוח	-13365
▁שריפה	-13366
▁חולצות	-13367
▁אוטומטי	-13368
▁children	-13369
oud	-13370
▁ארצה	-13371
▁שירן	-13372
▁היוצר	-13373
▁לאנשי	-13374
▁במלחמת	-13375
▁המבורגר	-13376
iben	-13377
▁ירח	-13378
round	-13379
▁חווים	-13380
▁opport	-13381
▁ומקצועי	-13382
נזי	-13383
▁pict	-13384
▁הוקמה	-13385
▁שעברו	-13386
▁connect	-13387
▁למרגיעה	-13388
▁תשלומים	-13389
זלים	-13390
▁אירופ	-13391
▁ראייה	-13392
▁תשתפו	-13393
▁לתנועה	-13394
▁לפור	-13395
▁קפלן	-13396
ייקטים	-13397
▁עושות	-13398
▁הרכבים	-13399
▁מרגלית	-13400
יימס	-13401
▁התחתון	-13402
eld	-13403
▁Ac	-13404
▁חיפש	-13405
טיחו	-13406
שובי	-13407
▁וחבר	-13408
▁מאזור	-13409
אלב	-13410
סטן	-13411
viron	-13412
▁ומנה	-13413
▁שהתח	-13414
▁הלשכה	-13415
▁שוטרי	-13416
▁Suites	-13417
set	-13418
ובעת	-13419
סקנה	-13420
▁תשא	-13421
חישות	-13422
▁בסלון	-13423
▁הרכישה	-13424
▁ההכנסות	-13425
▁עירונית	-13426
NE	-13427
ערת	-13428
▁bas	-13429
ively	-13430
▁across	-13431
anding	-13432
▁אפרים	-13433
▁social	-13434
=5	-13435
המח	-13436
טורי	-13437
▁לצרף	-13438
▁המודר	-13439
▁שחורה	-13440
כבה	-13441
▁רך	-13442
ביתר	-13443
agram	-13444
▁לאיכות	-13445
פעלת	-13446
▁כוא	-13447
▁מרא	-13448
יינית	-13449
▁אבקת	-13450
▁חזון	-13451
▁האלופה	-13452
▁מכונות	-13453
▁22:00	-13454
▁גיליתי	-13455
▁כרמיאל	-13456
GA	-13457
oe	-13458
▁(3	-13459
▁ובד	-13460
צבעות	-13461
▁עצרה	-13462
▁בהיכל	-13463
▁מהשעה	-13464
▁במסיבת	-13465
▁שיטה	-13466
▁הציוץ	-13467
▁למפגש	-13468
▁ההתאחדות	-13469
▁מעודכנים	-13470
oin	-13471
▁Dr	-13472
▁left	-13473
▁אבני	-13474
▁יפתי	-13475
▁beaut	-13476
▁ההנהלה	-13477
מלח	-13478
▁iOS	-13479
▁בכפוף	-13480
▁תאונה	-13481
Nehemia	-13482
▁לוחמים	-13483
▁עונ	-13484
▁אלופ	-13485
▁הסיר	-13486
▁במחנה	-13487
▁עבורם	-13488
▁מסוימת	-13489
▁כוע	-13490
▁stat	-13491
▁יגיד	-13492
▁השעון	-13493
▁וחברי	-13494
▁לצפיה	-13495
▁באווירה	-13496
וקרה	-13497
▁Mad	-13498
בעתיים	-13499
▁כוכבי	-13500
▁מועיל	-13501
פורה	-13502
pere	-13503
שירה	-13504
▁שמל	-13505
וטבול	-13506
▁בלומ	-13507
▁לרמה	-13508
▁משיח	-13509
▁להרבה	-13510
▁השופטת	-13511
ified	-13512
▁נעמי	-13513
▁focus	-13514
▁מייקל	-13515
▁ביקורות	-13516
▁pot	-13517
עדיות	-13518
▁אדוני	-13519
▁השחור	-13520
▁שפורס	-13521
▁מאחלים	-13522
ouch	-13523
▁וור	-13524
ניסיון	-13525
▁המגרש	-13526
▁המכון	-13527
▁התגעגעתי	-13528
וגרת	-13529
▁העיקרי	-13530
▁להתקין	-13531
▁getting	-13532
▁המועילים	-13533
▁האוניברסיטה	-13534
gel	-13535
back	-13536
ביאה	-13537
▁הסוד	-13538
▁למאבק	-13539
▁Design	-13540
▁המבצעים	-13541
phot	-13542
▁קשב	-13543
▁until	-13544
▁מתקרב	-13545
▁בכוונה	-13546
▁האגודה	-13547
HD	-13548
טחי	-13549
▁דגן	-13550
▁פיצוץ	-13551
▁שקיים	-13552
▁באיטליה	-13553
▁מוניטין	-13554
▁possible	-13555
▁משך	-13556
▁לאבא	-13557
▁בקורס	-13558
▁התשלום	-13559
▁וכדומה	-13560
▁חוקרים	-13561
▁לבניית	-13562
▁משמרות	-13563
▁חקיקה	-13564
▁בתולדות	-13565
ule	-13566
אדה	-13567
▁Cor	-13568
▁חשף	-13569
▁קמה	-13570
▁המפעל	-13571
▁הארצית	-13572
71	-13573
טימ	-13574
▁קאר	-13575
▁מתכת	-13576
▁שקרן	-13577
▁בסכום	-13578
▁מילוי	-13579
▁שנתניהו	-13580
▁בקואליציה	-13581
OP	-13582
/2012	-13583
▁stay	-13584
▁מאוכ	-13585
▁מעוצב	-13586
▁ציינו	-13587
▁אמבטיה	-13588
rain	-13589
גידול	-13590
▁2006	-13591
▁היסוד	-13592
▁משיקה	-13593
▁ישיבות	-13594
▁עזריאלי	-13595
בתה	-13596
iven	-13597
▁אזע	-13598
▁נרד	-13599
▁אורט	-13600
▁נבנה	-13601
צוניים	-13602
▁שכולו	-13603
inat	-13604
▁easy	-13605
▁והמע	-13606
▁שעומד	-13607
▁מוזיקלית	-13608
Ch	-13609
ונל	-13610
ושך	-13611
▁IS	-13612
▁אגודת	-13613
▁מרהיב	-13614
▁בקריאה	-13615
▁צריכות	-13616
▁המשפחות	-13617
Gal	-13618
enn	-13619
פללים	-13620
▁וקצת	-13621
▁לכנס	-13622
levinson	-13623
▁תאי	-13624
קורות	-13625
▁המפכ	-13626
▁מתפר	-13627
isha	-13628
ונתה	-13629
ייבר	-13630
▁ומור	-13631
▁קצרים	-13632
▁להרוויח	-13633
▁האופניים	-13634
Yair	-13635
aken	-13636
▁בגץ	-13637
▁הפינ	-13638
▁לינה	-13639
▁לפיה	-13640
▁שמאלנים	-13641
אגו	-13642
ולכים	-13643
▁Comp	-13644
▁סלול	-13645
▁תדעו	-13646
▁בלשכת	-13647
▁נמצאה	-13648
▁תצליח	-13649
▁מקבוצת	-13650
jp	-13651
זהו	-13652
▁Rev	-13653
▁שקור	-13654
▁אלאור	-13655
mog	-13656
▁ייתן	-13657
▁ההכנה	-13658
▁הוגשה	-13659
וחרר	-13660
▁שכך	-13661
▁לעור	-13662
▁לפרי	-13663
▁לבקשת	-13664
▁עבורו	-13665
▁שהיום	-13666
chaimlevinson	-13667
מרק	-13668
סקות	-13669
▁בדם	-13670
לומים	-13671
▁שמחות	-13672
▁לצערנו	-13673
מקום	-13674
▁Cal	-13675
▁לאש	-13676
ייעוץ	-13677
▁הלהקה	-13678
▁ועושה	-13679
▁hum	-13680
▁תדע	-13681
▁הארי	-13682
▁הרים	-13683
▁ריקי	-13684
▁טכנית	-13685
▁בישיבה	-13686
▁החמישי	-13687
aby	-13688
▁555	-13689
מטרים	-13690
▁line	-13691
▁Michael	-13692
▁הטוויטר	-13693
▁השוקולד	-13694
▁פרופסור	-13695
Guy	-13696
▁Hal	-13697
▁ונס	-13698
▁הביאה	-13699
▁לשלוט	-13700
▁מסודר	-13701
▁עולמי	-13702
▁לצרכים	-13703
▁קריירה	-13704
▁ומוצלחת	-13705
ena	-13706
קוף	-13707
▁?!	-13708
▁צמד	-13709
▁אוצר	-13710
▁ביצה	-13711
▁איטום	-13712
▁קארין	-13713
▁לארגון	-13714
▁ש״ח	-13715
ondon	-13716
▁הבעל	-13717
▁לטוס	-13718
▁נוגע	-13719
▁אוסטר	-13720
▁שלווה	-13721
▁et	-13722
▁דינו	-13723
▁להשוות	-13724
חתו	-13725
מרכז	-13726
▁בסיפור	-13727
▁תעשיית	-13728
תא	-13729
ופף	-13730
פירה	-13731
▁לשום	-13732
indows	-13733
▁האדמו	-13734
▁development	-13735
מלט	-13736
adio	-13737
פארת	-13738
ction	-13739
▁Frid	-13740
▁create	-13741
▁להפגין	-13742
שמחה	-13743
▁נוט	-13744
▁עוקב	-13745
▁משאית	-13746
▁המובילה	-13747
▁הבטן	-13748
▁המפק	-13749
▁ספרד	-13750
▁makes	-13751
▁המציע	-13752
▁טעויות	-13753
ene	-13754
▁מנחה	-13755
▁קושי	-13756
▁שאמור	-13757
▁■	-13758
ושבת	-13759
וריהם	-13760
▁השתנה	-13761
רוב	-13762
יילי	-13763
▁התכ	-13764
▁רובר	-13765
▁בטווח	-13766
▁כותרת	-13767
▁מתרגשת	-13768
▁אשפה	-13769
▁מובה	-13770
▁חה	-13771
קולטה	-13772
כנתאות	-13773
▁often	-13774
▁גיטרה	-13775
▁לילדה	-13776
▁הפנימי	-13777
IA	-13778
רפת	-13779
ותרים	-13780
▁Port	-13781
▁גבריאל	-13782
▁סיפורי	-13783
Desk	-13784
כיות	-13785
▁ובג	-13786
▁ופל	-13787
▁חצר	-13788
owitz	-13789
▁חזיר	-13790
▁האומה	-13791
▁צינור	-13792
▁אוהדים	-13793
▁היצירה	-13794
▁updated	-13795
vers	-13796
ייהם	-13797
יקים	-13798
▁לביטוח	-13799
ןןןןןןןן	-13800
▁בבריאות	-13801
▁מסוגלים	-13802
חף	-13803
ומטרי	-13804
▁עזבו	-13805
▁רפאלי	-13806
▁שמורה	-13807
Me	-13808
▁בפה	-13809
▁השקט	-13810
▁מצאנו	-13811
▁שטרית	-13812
▁והצוות	-13813
▁להאריך	-13814
▁לתכנית	-13815
ציעות	-13816
▁במיטה	-13817
▁החלפה	-13818
כף	-13819
דיר	-13820
▁Sch	-13821
▁יאל	-13822
ובעים	-13823
▁Count	-13824
▁במחוז	-13825
▁מבחוץ	-13826
▁תפקידים	-13827
▁יפר	-13828
ument	-13829
▁דרמטי	-13830
▁תעבור	-13831
▁לתושבים	-13832
סינג	-13833
▁תנסה	-13834
▁חידוש	-13835
▁לביתו	-13836
▁מעביר	-13837
▁מורכבת	-13838
▁שיאפשר	-13839
▁הלוואות	-13840
AY	-13841
ימה	-13842
וזרת	-13843
כומים	-13844
▁פייר	-13845
▁פיש	-13846
ירושין	-13847
ניע	-13848
aper	-13849
כנסה	-13850
▁אימא	-13851
▁לנשי	-13852
טיסטיקה	-13853
▁ברגעים	-13854
שהוא	-13855
▁soft	-13856
▁ליטל	-13857
▁לקהילה	-13858
▁מעדיפים	-13859
▁אורטל	-13860
▁מוקדש	-13861
ריימריז	-13862
▁בפגישה	-13863
▁several	-13864
▁הסרטונים	-13865
כלך	-13866
פגע	-13867
▁ורצ	-13868
▁פוקס	-13869
▁מפואר	-13870
▁קשורה	-13871
▁מיותרת	-13872
facebook	-13873
.”	-13874
OW	-13875
▁יעלו	-13876
▁רעים	-13877
▁נרשמו	-13878
▁תופעה	-13879
NET	-13880
reg	-13881
קרוא	-13882
▁האלוף	-13883
▁בעייתי	-13884
זכה	-13885
פכו	-13886
ווכח	-13887
▁ובכן	-13888
▁זקוקה	-13889
▁לתחנת	-13890
▁משפיע	-13891
▁הערכות	-13892
▁לכולכם	-13893
״ב	-13894
700	-13895
וכמה	-13896
▁Not	-13897
house	-13898
שלנות	-13899
▁נוכח	-13900
▁שטרן	-13901
▁16:00	-13902
▁תעודות	-13903
▁המסתננים	-13904
נבי	-13905
▁ישע	-13906
▁אירו	-13907
▁ודור	-13908
▁לבשל	-13909
פריסין	-13910
▁קוסמטי	-13911
▁]	-13912
▁לשלי	-13913
▁לכביש	-13914
▁לסבול	-13915
▁תפסיק	-13916
▁מקורית	-13917
▁64	-13918
▁בזמנו	-13919
▁ראיות	-13920
▁שביבי	-13921
▁החודשים	-13922
נכן	-13923
ליפו	-13924
משלי	-13925
▁מאפ	-13926
▁חמאה	-13927
▁החניה	-13928
▁הלכנו	-13929
▁להתיי	-13930
▁בקמפיין	-13931
IIII	-13932
פרות	-13933
▁140	-13934
▁וצע	-13935
▁גרים	-13936
▁שלכן	-13937
▁להזמנת	-13938
▁לתמונה	-13939
▁התשובות	-13940
/04	-13941
org	-13942
iful	-13943
▁חסד	-13944
▁Your	-13945
▁הינם	-13946
▁האמנות	-13947
▁מוחלטת	-13948
והד	-13949
eder	-13950
ended	-13951
▁Down	-13952
▁מרהי	-13953
▁מריה	-13954
▁שקשה	-13955
▁דגמים	-13956
▁לחניה	-13957
▁שקשור	-13958
▁מרב	-13959
▁המדיני	-13960
▁לאמנות	-13961
פאל	-13962
▁עט	-13963
▁וחבל	-13964
▁לארח	-13965
forman	-13966
▁למחוק	-13967
הארץ	-13968
▁היכל	-13969
▁לאלה	-13970
▁ראשל	-13971
▁בהקשר	-13972
▁בפריז	-13973
▁תושבת	-13974
▁שהיינו	-13975
▁הפופ	-13976
▁ללוח	-13977
▁פעמי	-13978
▁צריכת	-13979
▁נחמדים	-13980
▁49	-13981
ירוק	-13982
▁עים	-13983
▁הומו	-13984
▁ביתית	-13985
▁מתכננים	-13986
▁says	-13987
בוט	-13988
▁61	-13989
▁ישוב	-13990
▁פנוי	-13991
▁טוענת	-13992
▁מוגבלות	-13993
:10	-13994
גריות	-13995
▁הוגש	-13996
▁הקניות	-13997
▁משכורת	-13998
▁נוסטלגיה	-13999
פתה	-14000
▁מבצעי	-14001
▁וורדפרס	-14002
באום	-14003
▁Shani	-14004
▁מימין	-14005
▁מרווח	-14006
▁שעובר	-14007
▁בטבריה	-14008
idd	-14009
ולדו	-14010
▁הדואר	-14011
▁הצטרף	-14012
▁הרוסי	-14013
▁אהובתי	-14014
▁ייע	-14015
▁רמב	-14016
▁ונשים	-14017
▁המועמד	-14018
ibennett	-14019
▁דמוקרטיה	-14020
יית	-14021
▁20%	-14022
▁אירן	-14023
▁דביר	-14024
▁לתואר	-14025
▁שבתאי	-14026
▁מהמסעדות	-14027
::	-14028
הבית	-14029
▁הקב	-14030
▁יציב	-14031
▁מצפון	-14032
▁פותחת	-14033
▁שכתבת	-14034
EyalDesk	-14035
▁המציעים	-14036
apid	-14037
▁וכת	-14038
▁זיק	-14039
פושות	-14040
▁דרמה	-14041
▁להתפלל	-14042
▁perfect	-14043
NadavEyalDesk	-14044
naftalibennett	-14045
▁low	-14046
▁וחג	-14047
igal	-14048
▁ערי	-14049
ניעות	-14050
▁done	-14051
▁השלב	-14052
▁ברזיל	-14053
▁גיבוש	-14054
מאלי	-14055
▁large	-14056
▁הנוגע	-14057
▁review	-14058
@@	-14059
כד	-14060
▁ילך	-14061
▁שמפ	-14062
כניון	-14063
▁הגיש	-14064
▁Thank	-14065
▁שוורץ	-14066
▁......	-14067
נתק	-14068
▁Guy	-14069
▁נקל	-14070
▁גלים	-14071
▁לשהות	-14072
▁שיכולים	-14073
lay	-14074
אומו	-14075
▁וקס	-14076
▁חריג	-14077
▁מחוס	-14078
▁הציוד	-14079
▁יוצרת	-14080
▁סוכות	-14081
קסון	-14082
▁Bit	-14083
▁דינה	-14084
▁מנכל	-14085
▁treat	-14086
▁שיטות	-14087
▁מיועדת	-14088
נני	-14089
▁באלימות	-14090
▁הבורסה	-14091
▁fav	-14092
cohen	-14093
▁מייק	-14094
▁לסמוך	-14095
▁ומאפשר	-14096
▁מסוגלת	-14097
As	-14098
▁פוש	-14099
▁כשזה	-14100
▁קורע	-14101
▁מחודש	-14102
▁תבואו	-14103
▁המתוקה	-14104
▁לבחירה	-14105
▁לדוגמה	-14106
▁להתעסק	-14107
▁השיניים	-14108
לבליט	-14109
▁יראו	-14110
▁בטרור	-14111
▁מרחוק	-14112
▁בונ	-14113
▁Engl	-14114
▁בגדר	-14115
▁הקלא	-14116
▁space	-14117
▁מצלמת	-14118
▁נתחיל	-14119
▁ארגונים	-14120
▁מציינים	-14121
מפס	-14122
oman	-14123
▁בורא	-14124
▁נשבר	-14125
▁אפליקציות	-14126
יריון	-14127
▁Levy	-14128
▁לממן	-14129
▁גורמת	-14130
▁יונדאי	-14131
▁בעיריית	-14132
▁אוקראינה	-14133
inc	-14134
▁שנא	-14135
▁והתק	-14136
עיונות	-14137
▁ריקוד	-14138
▁בנושאי	-14139
▁שנמצאים	-14140
▁שמעוניין	-14141
חבר	-14142
yd	-14143
נגה	-14144
נמן	-14145
▁Im	-14146
▁מצה	-14147
▁תחל	-14148
▁news	-14149
▁based	-14150
▁זונות	-14151
▁צמיחה	-14152
▁קשרים	-14153
▁דוקטור	-14154
▁דמויות	-14155
!"	-14156
ולק	-14157
נוף	-14158
בקשו	-14159
▁chall	-14160
▁לרצות	-14161
▁מלפני	-14162
▁הוותיק	-14163
▁המוזיק	-14164
▁June	-14165
▁היות	-14166
▁ידידי	-14167
▁יסודי	-14168
▁למניה	-14169
▁הדיירים	-14170
ead	-14171
▁Ber	-14172
▁מתוח	-14173
▁שבור	-14174
▁עלולים	-14175
נסטלט	-14176
▁יפיי	-14177
▁רשמה	-14178
▁במילה	-14179
▁הזמנת	-14180
▁יינות	-14181
▁כמוהו	-14182
▁account	-14183
ראק	-14184
▁Af	-14185
▁קים	-14186
וקרתי	-14187
▁24/7	-14188
▁מימי	-14189
▁תורת	-14190
▁הכתובת	-14191
▁מהעולם	-14192
▁בעירייה	-14193
IR	-14194
בקי	-14195
▁מהנ	-14196
וערים	-14197
טורים	-14198
▁לעסוק	-14199
▁פוליטיקה	-14200
ING	-14201
פקו	-14202
צפה	-14203
ולנד	-14204
▁West	-14205
▁משתתף	-14206
שינגטון	-14207
▁taking	-14208
▁שטראוס	-14209
▁תחומים	-14210
למשל	-14211
▁פיס	-14212
כוונה	-14213
▁המרה	-14214
▁עומק	-14215
▁מהנדס	-14216
▁קילומטר	-14217
קוק	-14218
בוטי	-14219
▁מנק	-14220
▁התרג	-14221
▁שווא	-14222
▁שכמות	-14223
▁ויד	-14224
▁סגר	-14225
ובדות	-14226
▁comes	-14227
▁וניתן	-14228
▁לשאלה	-14229
למ	-14230
iki	-14231
וניס	-14232
▁עזרו	-14233
▁happy	-14234
▁הפשוט	-14235
▁סטודנט	-14236
וריא	-14237
כבות	-14238
▁חזי	-14239
▁עטר	-14240
▁השכל	-14241
▁מתכוונים	-14242
▁bar	-14243
▁מבול	-14244
▁החיבור	-14245
▁בעם	-14246
▁Idan	-14247
▁מוצע	-14248
.)	-14249
UN	-14250
▁7,	-14251
▁ורב	-14252
▁בחיל	-14253
▁ואלי	-14254
▁רוסי	-14255
Tal	-14256
קיס	-14257
▁קרני	-14258
▁מצטער	-14259
▁months	-14260
▁בראשית	-14261
most	-14262
ודשת	-14263
▁קנו	-14264
▁דרכה	-14265
▁באיזו	-14266
▁במסלול	-14267
▁השמיים	-14268
▁תעסוקה	-14269
▁במודיעין	-14270
cle	-14271
▁whe	-14272
זינים	-14273
▁ימות	-14274
▁נגיע	-14275
▁סרטי	-14276
▁הצבעים	-14277
▁ובמקום	-14278
▁בהש	-14279
▁גרא	-14280
.2017	-14281
▁conc	-14282
▁World	-14283
▁doesn	-14284
▁במחאה	-14285
▁הוביל	-14286
▁האתיופית	-14287
▁המו	-14288
▁prod	-14289
▁תיקי	-14290
▁become	-14291
▁future	-14292
8)	-14293
דיב	-14294
בעיה	-14295
▁וככה	-14296
▁משולב	-14297
YouTube	-14298
▁רלוונטיים	-14299
שראה	-14300
▁law	-14301
▁אסד	-14302
פריקה	-14303
▁הנוף	-14304
▁האולי	-14305
▁עוסקת	-14306
▁התקווה	-14307
כאן	-14308
onom	-14309
כנין	-14310
▁וקט	-14311
▁שעי	-14312
▁הציע	-14313
▁לרצח	-14314
▁מארג	-14315
▁שהצי	-14316
▁ביהודה	-14317
▁התקדמות	-14318
▁מוציאים	-14319
▁consider	-14320
▁fre	-14321
▁חברו	-14322
▁דורשת	-14323
▁רויטל	-14324
▁רוצות	-14325
▁לעולמו	-14326
▁מקס	-14327
▁כלול	-14328
▁לכבד	-14329
▁שהות	-14330
▁ולהשת	-14331
▁המקצועית	-14332
orm	-14333
נאדם	-14334
▁סימה	-14335
▁השמחה	-14336
▁בתקווה	-14337
▁המיסים	-14338
בעל	-14339
wards	-14340
▁שרופה	-14341
▁התחלנו	-14342
▁אנרגיות	-14343
▁העיתונאים	-14344
רכך	-14345
▁וחת	-14346
▁זהר	-14347
▁וליי	-14348
▁בשמחות	-14349
▁שאוהבים	-14350
;&	-14351
פרש	-14352
אולה	-14353
▁יכל	-14354
▁מיס	-14355
פרייה	-14356
▁הפול	-14357
▁עצות	-14358
▁שוקי	-14359
▁ביוטיוב	-14360
פקט	-14361
▁9.	-14362
orts	-14363
Eldad	-14364
▁גריי	-14365
▁אבטחת	-14366
▁הרדיו	-14367
▁למחרת	-14368
▁וטיפול	-14369
▁הממלכתי	-14370
▁חחחחחחחחחחחח	-14371
▁קיד	-14372
▁התאמה	-14373
hazinor	-14374
▁בהזמנה	-14375
▁בתו	-14376
שולים	-14377
▁games	-14378
▁לקחתי	-14379
▁לגיטימי	-14380
▁גוטמן	-14381
▁חבורת	-14382
▁חשמלאי	-14383
▁ומבורכת	-14384
▁Ros	-14385
▁far	-14386
▁גנב	-14387
ברכים	-14388
רכישת	-14389
▁לגדל	-14390
▁להתרשם	-14391
ואט	-14392
▁בנתב	-14393
▁ושלא	-14394
▁דרושה	-14395
▁מסריח	-14396
▁London	-14397
▁ברזילי	-14398
▁הנחיות	-14399
▁שמאלני	-14400
ריו	-14401
חזיק	-14402
▁Sol	-14403
▁בעמק	-14404
▁ערכי	-14405
idence	-14406
יתונות	-14407
▁מצביע	-14408
▁ברצועת	-14409
Phone	-14410
▁יחדיו	-14411
▁לתיקון	-14412
▁Article	-14413
▁101	-14414
בוצים	-14415
▁appro	-14416
▁לצמצם	-14417
▁קיימות	-14418
▁ראשונים	-14419
קוזי	-14420
▁בלע	-14421
▁בנד	-14422
▁אביר	-14423
▁אדירה	-14424
▁מתחבר	-14425
▁נהגים	-14426
▁שנפצע	-14427
▁52	-14428
חינו	-14429
▁האיסלא	-14430
▁לתוצאות	-14431
▁אלומיניום	-14432
בדיל	-14433
▁Red	-14434
▁mar	-14435
עודית	-14436
▁view	-14437
▁לילך	-14438
▁משעה	-14439
Sharon	-14440
ised	-14441
▁level	-14442
▁למטרה	-14443
▁סיפרו	-14444
▁הקריירה	-14445
▁נישואין	-14446
ubl	-14447
▁מילר	-14448
▁מבוגר	-14449
▁ריאלי	-14450
מטר	-14451
צמן	-14452
▁ינ	-14453
▁ליו	-14454
▁סיס	-14455
▁עוצר	-14456
▁לחופשה	-14457
oker	-14458
▁לכדורגל	-14459
ived	-14460
▁לרצי	-14461
▁בשלוש	-14462
▁למשרה	-14463
וסטרליה	-14464
▁התחתונה	-14465
▁סף	-14466
▁Now	-14467
▁החוג	-14468
▁מעלים	-14469
▁בהפגנה	-14470
▁מגיעות	-14471
נוחה	-14472
▁ובאי	-14473
▁ענבר	-14474
▁price	-14475
▁quick	-14476
▁בסופר	-14477
▁בעבודת	-14478
▁הלוואה	-14479
▁המתמחה	-14480
▁מרכזית	-14481
▁תרומות	-14482
EldadYaniv	-14483
ומנה	-14484
▁John	-14485
▁לומד	-14486
▁משפי	-14487
ותרפיה	-14488
▁אביעד	-14489
▁הנייד	-14490
▁למל	-14491
▁קוח	-14492
▁writ	-14493
medium	-14494
▁סיימה	-14495
חתים	-14496
▁2007	-14497
▁מונו	-14498
▁מיזם	-14499
▁הצרפת	-14500
▁פגישות	-14501
irt	-14502
▁body	-14503
▁יזרע	-14504
▁פטור	-14505
▁החתול	-14506
▁לאילת	-14507
▁בבורסה	-14508
▁לשולחן	-14509
▁include	-14510
vironment	-14511
▁110	-14512
▁See	-14513
ציבות	-14514
▁קרים	-14515
▁בהסכם	-14516
▁מהמדינה	-14517
סטה	-14518
ריחה	-14519
▁בנס	-14520
▁קצה	-14521
▁תחז	-14522
שמיים	-14523
▁הרמה	-14524
▁חשבו	-14525
▁יריד	-14526
▁לימי	-14527
▁watch	-14528
▁בהרכב	-14529
▁החיוך	-14530
▁לטעום	-14531
▁משתפת	-14532
▁הייצור	-14533
▁הפסטיבל	-14534
bb	-14535
▁דחה	-14536
▁ביפו	-14537
▁מנוי	-14538
▁המחיה	-14539
▁ומאוד	-14540
▁פסיכי	-14541
▁בתחתית	-14542
▁האקדמית	-14543
▁ובשורות	-14544
▁industry	-14545
טיף	-14546
▁Bat	-14547
▁Spa	-14548
▁yes	-14549
▁הצגת	-14550
▁benef	-14551
▁פנסיה	-14552
▁started	-14553
וגמת	-14554
▁חפץ	-14555
▁במחזור	-14556
▁הידיעות	-14557
להב	-14558
▁pi	-14559
▁סנ	-14560
▁למחר	-14561
▁לדרוש	-14562
▁פיצוי	-14563
▁קרנות	-14564
▁מחזיקה	-14565
▁National	-14566
...?	-14567
▁Hen	-14568
▁שהסת	-14569
▁בטיול	-14570
▁ונחזור	-14571
קקק	-14572
▁מחוסר	-14573
>_	-14574
▁האפש	-14575
▁הוקם	-14576
▁ארנון	-14577
▁בדואר	-14578
▁לייזר	-14579
▁מיסים	-14580
▁שכונה	-14581
▁תדמית	-14582
▁השיעור	-14583
0000	-14584
ural	-14585
▁ההמ	-14586
▁Word	-14587
▁תנור	-14588
▁מעצבת	-14589
▁מצורף	-14590
▁היחידי	-14591
▁הצינור	-14592
▁מצטרפים	-14593
▁קלוריות	-14594
▁הרלוונטי	-14595
BS	-14596
כותי	-14597
לוחים	-14598
▁ומיד	-14599
▁מוסד	-14600
▁מוגבלת	-14601
▁מודרני	-14602
▁בוודאות	-14603
▁←	-14604
cher	-14605
eleb	-14606
▁רובם	-14607
▁כפולה	-14608
▁פשוטים	-14609
▁‍	-14610
rem	-14611
נושא	-14612
▁דיוק	-14613
▁הפרשה	-14614
▁וחשוב	-14615
▁מקלחת	-14616
▁תצוגה	-14617
▁לצל	-14618
▁הקומ	-14619
▁שהוז	-14620
▁באוניברסיטה	-14621
7/	-14622
ides	-14623
ising	-14624
בינים	-14625
▁ויחד	-14626
▁מלמעלה	-14627
כנולוגיות	-14628
ילתה	-14629
▁דונם	-14630
▁חובת	-14631
▁בתנור	-14632
▁הבינו	-14633
▁הסערה	-14634
▁הראיון	-14635
▁והייתי	-14636
▁million	-14637
שאית	-14638
▁אלח	-14639
▁hist	-14640
▁פיני	-14641
▁IN	-14642
▁גרג	-14643
▁הרך	-14644
ופרסל	-14645
▁Just	-14646
▁זכור	-14647
▁הסיום	-14648
▁עליזה	-14649
▁איטלקי	-14650
▁טון	-14651
▁טוק	-14652
▁יקח	-14653
▁בוצע	-14654
▁הדולר	-14655
ividual	-14656
▁טלפוני	-14657
▁אבוטבול	-14658
▁University	-14659
קורת	-14660
▁שנג	-14661
מישהו	-14662
▁ומשם	-14663
▁נטען	-14664
▁הקליקו	-14665
▁הסתיימה	-14666
▁בינלאומית	-14667
.-	-14668
▁Club	-14669
▁Post	-14670
▁לאחור	-14671
AA	-14672
גנת	-14673
סלב	-14674
שתית	-14675
▁בשער	-14676
פעילות	-14677
▁הממונה	-14678
פלו	-14679
▁גלבוע	-14680
▁compet	-14681
now	-14682
itch	-14683
ברית	-14684
מימות	-14685
▁city	-14686
▁בתוכו	-14687
▁מעניק	-14688
▁עמוקה	-14689
▁גרינברג	-14690
RM	-14691
.04	-14692
come	-14693
▁Don	-14694
▁הפח	-14695
▁אזורי	-14696
▁שומרון	-14697
▁cost	-14698
▁ביקשתי	-14699
▁ושיווק	-14700
▁walk	-14701
▁שושן	-14702
▁בדומה	-14703
▁Church	-14704
▁מזכירה	-14705
שף	-14706
פדפן	-14707
▁Ori	-14708
▁won	-14709
▁didn	-14710
▁main	-14711
▁מעוז	-14712
▁הטבעי	-14713
▁טורבו	-14714
resh	-14715
▁תפוח	-14716
▁לחיצה	-14717
▁מורשת	-14718
▁סודות	-14719
ליין	-14720
▁עליות	-14721
▁record	-14722
▁כבישים	-14723
▁מועמדים	-14724
iah	-14725
פשי	-14726
▁1/2	-14727
▁כאל	-14728
▁Alon	-14729
▁משאבי	-14730
▁מסויים	-14731
▁פרופיל	-14732
חקתי	-14733
▁בוב	-14734
▁קיש	-14735
▁פיזי	-14736
▁ברלין	-14737
יימר	-14738
▁room	-14739
oliday	-14740
▁doing	-14741
▁וקבלו	-14742
▁להכיל	-14743
▁לעומק	-14744
▁מתגעגע	-14745
120	-14746
oel	-14747
▁Dev	-14748
▁עומס	-14749
▁שהפך	-14750
▁ושתפו	-14751
▁ניצול	-14752
▁הבריכה	-14753
כרו	-14754
משק	-14755
▁95	-14756
time	-14757
חשוב	-14758
▁מופר	-14759
▁המיטה	-14760
▁כלבה	-14761
▁כוונת	-14762
▁לתייג	-14763
▁צמיגים	-14764
▁content	-14765
▁control	-14766
▁Tom	-14767
▁נשבעת	-14768
▁המדיניות	-14769
▁מתמודדים	-14770
▁ברד	-14771
▁מטפל	-14772
▁משטר	-14773
▁Christ	-14774
GL	-14775
iCohen	-14776
▁אמרנו	-14777
▁הבטיח	-14778
▁ללבוש	-14779
▁הדירוג	-14780
▁המשתמש	-14781
▁עבודתו	-14782
▁מדווחים	-14783
▁Mic	-14784
▁לזר	-14785
▁פריז	-14786
▁Mizra	-14787
▁מותאם	-14788
▁תאמינו	-14789
---	-14790
elsm	-14791
▁Mot	-14792
▁cli	-14793
bezal	-14794
ניפים	-14795
▁דואג	-14796
▁הגדר	-14797
▁משלי	-14798
▁שהור	-14799
▁תיהיה	-14800
▁announ	-14801
▁הידיעה	-14802
▁המדובר	-14803
▁Rep	-14804
שלכות	-14805
▁אימוץ	-14806
▁strong	-14807
▁האימון	-14808
9<	-14809
▁41	-14810
ches	-14811
▁דדון	-14812
▁הציג	-14813
▁יזכה	-14814
▁קומי	-14815
▁bring	-14816
▁נמוכים	-14817
▁שאפילו	-14818
▁מיקרוסופט	-14819
real	-14820
▁enough	-14821
ארית	-14822
▁Sec	-14823
▁והמי	-14824
▁מוצאת	-14825
▁מלאות	-14826
▁רובין	-14827
▁תעזור	-14828
▁מקומיות	-14829
bezalelsm	-14830
obal	-14831
שילד	-14832
▁IPA	-14833
▁ליש	-14834
▁המסים	-14835
▁לזכרו	-14836
מקס	-14837
▁וווא	-14838
▁אטיאס	-14839
▁אילון	-14840
▁שרותי	-14841
▁תפוחי	-14842
▁הסיפורים	-14843
▁סיב	-14844
▁עופ	-14845
▁האשה	-14846
▁שזכה	-14847
▁הרחבה	-14848
▁פרטנר	-14849
▁תמורה	-14850
▁במקצוע	-14851
▁ברוסיה	-14852
▁להעריך	-14853
LV	-14854
▁הולם	-14855
▁ליבך	-14856
▁הערות	-14857
asa	-14858
▁seen	-14859
▁ואמא	-14860
▁מפרסם	-14861
▁ניקול	-14862
ייקונים	-14863
▁אילנית	-14864
▁בסל	-14865
▁שוו	-14866
▁מכללת	-14867
▁בתכנון	-14868
▁זמינות	-14869
▁התמודדות	-14870
יזר	-14871
אותו	-14872
מונד	-14873
▁צוק	-14874
▁מזהה	-14875
▁שעלה	-14876
▁למבצע	-14877
▁צבאית	-14878
▁דואגים	-14879
▁שכולנו	-14880
TR	-14881
sm	-14882
▁פשי	-14883
▁בסיר	-14884
▁השביתה	-14885
▁מעבירים	-14886
▁),	-14887
head	-14888
▁Shay	-14889
▁והשת	-14890
▁להפיל	-14891
▁נכנסה	-14892
מכרו	-14893
▁האמצ	-14894
טיילים	-14895
▁סביבת	-14896
▁הקשורים	-14897
▁להתעורר	-14898
כונן	-14899
נוכה	-14900
▁12:	-14901
▁סלא	-14902
▁הישג	-14903
▁מוזס	-14904
▁פגישת	-14905
▁ההחלטות	-14906
▁וליהנות	-14907
▁maj	-14908
▁כמח	-14909
▁למשוך	-14910
▁שאוהב	-14911
▁בסיכון	-14912
▁לקריאת	-14913
nik	-14914
מינל	-14915
▁וקב	-14916
▁שאן	-14917
▁שהט	-14918
▁tell	-14919
▁כחצי	-14920
ald	-14921
uce	-14922
▁ens	-14923
▁סדנה	-14924
▁אזהרה	-14925
▁Street	-14926
▁מהעבודה	-14927
▁שיתקיים	-14928
▁ניסיונות	-14929
ye	-14930
ליפ	-14931
קפות	-14932
▁בגב	-14933
Marker	-14934
▁ביצעו	-14935
▁במחלקת	-14936
▁סעודיה	-14937
▁קנאביס	-14938
▁מאפשרים	-14939
▁האוק	-14940
▁הבצק	-14941
▁ומספר	-14942
▁פסולת	-14943
▁350	-14944
▁רמק	-14945
הייתי	-14946
▁פעלו	-14947
▁דיבור	-14948
▁דרישה	-14949
▁מטוסי	-14950
▁לשידור	-14951
▁תכונות	-14952
▁במסעדות	-14953
▁שהמדינה	-14954
פאר	-14955
ועוד	-14956
▁12.	-14957
▁בוס	-14958
▁סנו	-14959
▁רוחב	-14960
וגרפיה	-14961
▁השנאה	-14962
▁מתקדמות	-14963
ילדה	-14964
▁שרכ	-14965
בינות	-14966
ופטים	-14967
▁South	-14968
▁וקנין	-14969
▁ורוצה	-14970
▁שלשום	-14971
▁התרופות	-14972
ריץ	-14973
▁רשם	-14974
▁קשיים	-14975
men	-14976
▁אדון	-14977
▁ניסן	-14978
/03/201	-14979
▁בתקציב	-14980
▁גופנית	-14981
▁שנערכה	-14982
זא	-14983
▁Mr	-14984
וכנן	-14985
ample	-14986
מוניה	-14987
▁מצטע	-14988
▁גילוי	-14989
aterial	-14990
▁להשקעה	-14991
גיעת	-14992
▁מעמ	-14993
▁ששר	-14994
▁deal	-14995
▁pati	-14996
▁טענו	-14997
כרונות	-14998
▁בחופש	-14999
▁שטחים	-15000
▁לייצור	-15001
״י	-15002
▁1:	-15003
anies	-15004
שיתוף	-15005
▁ומסת	-15006
▁לברך	-15007
▁מתעל	-15008
▁מחברי	-15009
▁לייעוץ	-15010
▁מנהיגות	-15011
מסטר	-15012
▁דלי	-15013
▁הסח	-15014
onder	-15015
▁לדור	-15016
▁במחשב	-15017
▁בעבור	-15018
▁שיודע	-15019
▁להעמיד	-15020
nes	-15021
pak	-15022
ved	-15023
ודרג	-15024
ופין	-15025
▁Rec	-15026
▁קנס	-15027
▁ששון	-15028
utions	-15029
▁לוזון	-15030
▁פרסומי	-15031
▁אינסטגרם	-15032
cy	-15033
▁Alex	-15034
▁כוסית	-15035
▁מניית	-15036
▁רומנטית	-15037
▁non	-15038
▁התלב	-15039
▁נופל	-15040
▁פונו	-15041
▁בהפועל	-15042
▁עבורנו	-15043
▁ייש	-15044
▁לימים	-15045
DS	-15046
Ron	-15047
ienc	-15048
▁Del	-15049
▁לוט	-15050
▁שלוק	-15051
▁הטענה	-15052
▁האמונה	-15053
▁מסודרת	-15054
);	-15055
=1<	-15056
▁mean	-15057
▁הנער	-15058
▁הפסק	-15059
▁לגבר	-15060
▁מאגר	-15061
▁עינב	-15062
▁אוד	-15063
חקרים	-15064
▁הפער	-15065
▁מעזה	-15066
ציון	-15067
▁sit	-15068
▁אמיתיים	-15069
▁משמעותיים	-15070
▁Fe	-15071
fbid	-15072
ומור	-15073
ונדי	-15074
▁ישב	-15075
▁News	-15076
▁עצמן	-15077
▁אוטובוסים	-15078
▁sw	-15079
▁ממן	-15080
▁hold	-15081
▁אבנר	-15082
▁מוצל	-15083
▁שהחל	-15084
▁מחייב	-15085
▁שרואים	-15086
▁מיליונים	-15087
bd	-15088
▁דקל	-15089
▁מתר	-15090
▁הכוכב	-15091
▁הצמיחה	-15092
▁וביטחון	-15093
▁ca	-15094
וונית	-15095
▁הבהיר	-15096
▁מלאכי	-15097
▁זהירות	-15098
=4	-15099
nin	-15100
צמה	-15101
קסל	-15102
atural	-15103
urther	-15104
▁להשיב	-15105
▁מקובל	-15106
▁מהמלון	-15107
-28	-15108
עלה	-15109
▁mom	-15110
▁Home	-15111
▁במעט	-15112
▁הגון	-15113
▁שראש	-15114
allery	-15115
▁אשכרה	-15116
▁הארוך	-15117
▁המומחים	-15118
רית	-15119
ival	-15120
ריאל	-15121
▁lim	-15122
▁הופי	-15123
▁המצוי	-15124
▁העלמין	-15125
▁discuss	-15126
/09	-15127
פוצ	-15128
▁NE	-15129
▁תוע	-15130
▁רגיש	-15131
▁מאיים	-15132
▁מוצקין	-15133
▁members	-15134
▁הרחובות	-15135
▁רוטשילד	-15136
????????????????	-15137
ida	-15138
ided	-15139
כולה	-15140
▁hig	-15141
▁typ	-15142
▁תופס	-15143
▁עשייה	-15144
▁בשלושה	-15145
יס	-15146
אתו	-15147
גירת	-15148
▁בלחץ	-15149
▁שממש	-15150
erence	-15151
▁האסלא	-15152
▁השתמש	-15153
▁בדימוס	-15154
▁והזמנות	-15155
?!?!	-15156
ברון	-15157
נדסה	-15158
פיסה	-15159
▁שפרס	-15160
▁אחוזי	-15161
▁נפגשו	-15162
▁תאונת	-15163
▁research	-15164
▁לחות	-15165
▁למנהל	-15166
▁מראים	-15167
▁הכיבוש	-15168
▁שמגיעים	-15169
▁מלו	-15170
▁ביני	-15171
▁הרצי	-15172
▁פריט	-15173
▁means	-15174
▁ושבוע	-15175
▁הפגיעה	-15176
▁התקיפה	-15177
▁סבירים	-15178
isk	-15179
וול	-15180
▁מנט	-15181
▁נהר	-15182
עונים	-15183
▁קבלן	-15184
▁רינת	-15185
estern	-15186
▁מונית	-15187
בוטינסקי	-15188
DA	-15189
עקו	-15190
אישה	-15191
ביום	-15192
▁tem	-15193
להבות	-15194
▁יבין	-15195
▁רביב	-15196
▁מבריק	-15197
▁אופציות	-15198
App	-15199
▁Gab	-15200
▁סקי	-15201
▁חוקר	-15202
▁הכדורסל	-15203
▁תורם	-15204
▁בדרכו	-15205
▁לשיחה	-15206
הרבה	-15207
ומכת	-15208
נגוף	-15209
▁מחמד	-15210
▁מלאת	-15211
enberg	-15212
▁בגביע	-15213
▁בסיוע	-15214
מאר	-15215
▁בשמי	-15216
▁שאלת	-15217
ashion	-15218
▁בהנחה	-15219
▁שלטים	-15220
▁למבוגרים	-15221
/18	-15222
pper	-15223
אמים	-15224
עודת	-15225
▁הסול	-15226
▁ותהנו	-15227
▁למקרה	-15228
▁ארנונה	-15229
▁בהנחיית	-15230
raft	-15231
תמיד	-15232
זמורת	-15233
▁טבעת	-15234
▁יואל	-15235
▁הרצפה	-15236
▁ומשפחת	-15237
▁תערוכה	-15238
▁מוטיבציה	-15239
lo	-15240
▁ולל	-15241
▁פרצה	-15242
/14	-15243
:-)	-15244
ola	-15245
קני	-15246
▁זא	-15247
▁ren	-15248
▁בברלין	-15249
▁במחצית	-15250
▁המכונה	-15251
▁האפשרויות	-15252
olf	-15253
נשא	-15254
▁Ya	-15255
▁ירק	-15256
▁כיסא	-15257
▁press	-15258
▁תבערה	-15259
orowitz	-15260
▁yet	-15261
▁בוכ	-15262
▁step	-15263
▁החשש	-15264
▁המיי	-15265
▁Rotem	-15266
▁הודיה	-15267
▁מתקני	-15268
▁הסלולר	-15269
▁המיוחדים	-15270
yr	-15271
ots	-15272
▁התמ	-15273
▁Maya	-15274
▁נפלה	-15275
▁קינג	-15276
▁בכמות	-15277
▁בעיית	-15278
▁הסדנה	-15279
▁גמישות	-15280
▁לפניכם	-15281
▁לפתיחת	-15282
קיו	-15283
▁inf	-15284
▁בקל	-15285
▁מרגע	-15286
uction	-15287
פורניה	-15288
▁ציטוט	-15289
▁פופולרי	-15290
באס	-15291
aces	-15292
ched	-15293
▁בום	-15294
▁בצהל	-15295
▁ההשפ	-15296
▁מחלת	-15297
▁חבורה	-15298
▁travel	-15299
סטור	-15300
▁sect	-15301
ancher	-15302
▁במפלגת	-15303
▁לביטול	-15304
▁עמודים	-15305
געגע	-15306
וליים	-15307
▁fore	-15308
▁מורשה	-15309
▁נפרדת	-15310
▁קוסמטיקה	-15311
▁40%	-15312
▁אהה	-15313
חחחחחח	-15314
▁מוגדר	-15315
▁ילדיהם	-15316
apt	-15317
▁רמז	-15318
▁שעם	-15319
חידות	-15320
▁אעשה	-15321
▁הקטל	-15322
hannel	-15323
▁וחוסר	-15324
▁מודעת	-15325
▁עונות	-15326
▁specific	-15327
▁כשבועיים	-15328
utz	-15329
החל	-15330
▁Bel	-15331
▁ותא	-15332
בחנים	-15333
▁נענע	-15334
▁קבועה	-15335
▁הילדות	-15336
amb	-15337
אונות	-15338
▁והרי	-15339
▁עסקת	-15340
▁חבריו	-15341
▁כתיבת	-15342
▁דיברנו	-15343
פתחת	-15344
▁חסן	-15345
חיפות	-15346
▁אחיות	-15347
▁מודעים	-15348
▁באפליקציה	-15349
▁מילות	-15350
▁נחשבת	-15351
▁called	-15352
▁וואווו	-15353
▁מירושלים	-15354
▁mind	-15355
▁ליעד	-15356
▁מטבע	-15357
▁שנפל	-15358
▁בחקירת	-15359
▁להתחתן	-15360
▁מעצבים	-15361
▁שחיתות	-15362
מתח	-15363
דיאל	-15364
▁איננה	-15365
▁בספורט	-15366
▁במהדורה	-15367
▁customers	-15368
▁individual	-15369
וללת	-15370
ethod	-15371
▁אינד	-15372
▁הפיל	-15373
▁עלוב	-15374
▁בילוי	-15375
▁טיפוח	-15376
▁ניפגש	-15377
פורסמים	-15378
▁נהנינו	-15379
▁איינשטיין	-15380
php	-15381
יותר	-15382
▁Will	-15383
▁משתי	-15384
▁שהשי	-15385
▁ובלתי	-15386
▁הסיכויים	-15387
ova	-15388
ומח	-15389
Haim	-15390
זזזז	-15391
פקות	-15392
▁אצלם	-15393
▁בעצמם	-15394
▁מעדיפה	-15395
▁הקיימים	-15396
▁נפלאים	-15397
▁התעללות	-15398
jpg	-15399
itor	-15400
פוצץ	-15401
▁פדי	-15402
▁שגב	-15403
▁הפיס	-15404
▁ידני	-15405
▁נתיב	-15406
▁במדבר	-15407
▁הסמוך	-15408
▁פרידה	-15409
▁ראיתם	-15410
▁מקה	-15411
▁נפט	-15412
▁במנה	-15413
▁אכיפה	-15414
▁הנכים	-15415
▁העצמי	-15416
▁בתיכון	-15417
Gil	-15418
▁אגיד	-15419
▁ופרי	-15420
▁יצור	-15421
▁להרצ	-15422
▁לגדול	-15423
▁מכוער	-15424
▁ממגוון	-15425
פורד	-15426
▁צפי	-15427
▁למדו	-15428
▁לפחד	-15429
▁מביך	-15430
▁קינן	-15431
▁Black	-15432
▁store	-15433
▁לימין	-15434
▁מסרים	-15435
▁though	-15436
▁אקספרס	-15437
▁ההצעות	-15438
▁תתחדשי	-15439
▁הנמצאים	-15440
list	-15441
סלול	-15442
▁Haz	-15443
▁due	-15444
▁הגיר	-15445
▁ומיי	-15446
ership	-15447
▁major	-15448
▁יעקוב	-15449
▁מטופל	-15450
▁לחדשות	-15451
▁הסג	-15452
❤❤❤❤	-15453
▁כפיר	-15454
▁מארז	-15455
ידיעות	-15456
▁require	-15457
פוד	-15458
▁High	-15459
▁tool	-15460
▁בזאת	-15461
▁מציי	-15462
▁המפתח	-15463
כתם	-15464
▁הנב	-15465
▁וגל	-15466
▁ממכ	-15467
▁שמז	-15468
ביאים	-15469
▁גופי	-15470
▁נוהג	-15471
▁הפעלת	-15472
▁מצבים	-15473
▁לתמיכה	-15474
מחר	-15475
▁תלך	-15476
inger	-15477
▁הכני	-15478
▁ואלה	-15479
▁ומתח	-15480
▁פרסים	-15481
▁הבחורה	-15482
▁שמתאים	-15483
▁performan	-15484
BB	-15485
▁46	-15486
בקשי	-15487
צערי	-15488
קופה	-15489
▁Rac	-15490
aviad	-15491
▁2021	-15492
photos	-15493
▁ולשתף	-15494
▁חבילה	-15495
▁עירית	-15496
▁היוזמה	-15497
▁המשיכו	-15498
▁אנדרואיד	-15499
וואר	-15500
כיתי	-15501
▁גדר	-15502
▁פרש	-15503
▁five	-15504
▁חבלה	-15505
ונתי	-15506
▁ולכ	-15507
נטיים	-15508
▁בבעיה	-15509
▁מבקרים	-15510
rez	-15511
▁״ה	-15512
▁ואינו	-15513
▁הצביעו	-15514
▁שוברים	-15515
erancher	-15516
erancherpak	-15517
והל	-15518
▁Go	-15519
▁נוש	-15520
▁ענו	-15521
▁משטח	-15522
▁break	-15523
▁ההלכה	-15524
▁לצרכי	-15525
▁סקירה	-15526
▁אינטרס	-15527
▁גוונים	-15528
▁טלפונים	-15529
פיתי	-15530
▁הגרסה	-15531
▁למגוון	-15532
▁העובדות	-15533
ima	-15534
לבן	-15535
▁mil	-15536
▁וכש	-15537
▁תרי	-15538
תרבות	-15539
▁מונע	-15540
▁אביתר	-15541
▁יונים	-15542
▁יישאר	-15543
▁series	-15544
▁שתוכלו	-15545
▁government	-15546
gantz	-15547
במקום	-15548
▁החזק	-15549
▁מרפא	-15550
▁State	-15551
▁התנצל	-15552
▁כיר	-15553
▁דתית	-15554
▁מהשי	-15555
▁איתנה	-15556
▁להעיף	-15557
▁ציבוריים	-15558
CH	-15559
▁בחג	-15560
▁קני	-15561
בעלות	-15562
▁Dana	-15563
▁חנין	-15564
▁אמירה	-15565
▁אמונים	-15566
▁מאמצים	-15567
▁comment	-15568
סע	-15569
ואז	-15570
▁Apr	-15571
▁אגם	-15572
▁בפא	-15573
▁מסח	-15574
▁ההפסד	-15575
▁לבסוף	-15576
▁קווים	-15577
▁נציגים	-15578
▁בקבוצות	-15579
▁טובבבבב	-15580
▁ונט	-15581
ained	-15582
▁Best	-15583
▁אינץ	-15584
▁רוטר	-15585
▁שוחרר	-15586
▁שיקול	-15587
▁problem	-15588
▁53	-15589
even	-15590
▁Rob	-15591
▁הפתוח	-15592
gantzbe	-15593
lf	-15594
type	-15595
▁קרח	-15596
astic	-15597
▁העדי	-15598
▁כיפת	-15599
▁כנרת	-15600
▁לילי	-15601
▁לשוב	-15602
▁משיק	-15603
lement	-15604
▁במגרש	-15605
.02	-15606
▁AP	-15607
▁דע	-15608
▁11:	-15609
▁במתן	-15610
▁וחוץ	-15611
▁מסרה	-15612
▁דחופה	-15613
▁תוכלי	-15614
▁דיברתי	-15615
▁לתינוק	-15616
ude	-15617
גתי	-15618
▁לער	-15619
▁נכה	-15620
▁הקוס	-15621
▁מאמא	-15622
▁נערה	-15623
▁ומתוקה	-15624
▁להינות	-15625
▁לליכוד	-15626
▁מזגנים	-15627
▁מרשימה	-15628
▁צדיקים	-15629
▁המשקיעים	-15630
Sc	-15631
רחבה	-15632
▁הלח	-15633
?????	-15634
▁נאלץ	-15635
▁sound	-15636
ION	-15637
ייז	-15638
abor	-15639
יתכן	-15640
▁נעם	-15641
קדמים	-15642
▁hours	-15643
▁super	-15644
▁כפיים	-15645
▁למעצר	-15646
▁מציאה	-15647
ציל	-15648
▁מלק	-15649
▁ישנן	-15650
▁מינה	-15651
נרגיות	-15652
▁בתחנה	-15653
▁לאותו	-15654
▁בכוונת	-15655
▁המיועד	-15656
▁רשומות	-15657
▁article	-15658
▁הפרלמנט	-15659
▁following	-15660
▁ויצא	-15661
▁מדגם	-15662
▁הכושר	-15663
▁מסמים	-15664
▁התכוונתי	-15665
פיו	-15666
▁₪.	-15667
▁Haim	-15668
▁שטחי	-15669
▁הכרתי	-15670
▁המוצע	-15671
▁וביקש	-15672
▁מייסד	-15673
▁מרתקת	-15674
3<	-15675
▁נדע	-15676
▁בעסק	-15677
▁לרופא	-15678
▁דיווחה	-15679
▁כצ	-15680
▁יחל	-15681
▁once	-15682
▁מלאך	-15683
▁רשאי	-15684
▁למחשב	-15685
▁certain	-15686
Amir	-15687
▁Amir	-15688
▁took	-15689
▁דופק	-15690
▁חלוץ	-15691
▁שכלל	-15692
▁במבנה	-15693
▁מבוקש	-15694
▁פולין	-15695
▁appear	-15696
▁כישרון	-15697
עבד	-15698
/18,	-15699
קדמת	-15700
▁occ	-15701
▁במב	-15702
▁נסת	-15703
▁במראה	-15704
▁השתתף	-15705
▁לפנים	-15706
▁ניגוד	-15707
▁הסינית	-15708
▁הצרפתי	-15709
▁שקיבלתי	-15710
ij	-15711
-26	-15712
kin	-15713
▁לסל	-15714
▁דבורה	-15715
▁שהיית	-15716
▁recomm	-15717
▁אידיאלי	-15718
▁פופולרית	-15719
ויש	-15720
▁לאלו	-15721
▁ההרצאה	-15722
רגם	-15723
▁השד	-15724
▁סוכן	-15725
▁עוטף	-15726
ליקציות	-15727
▁הבגדים	-15728
▁המחשבה	-15729
▁שהגיעה	-15730
▁גס	-15731
▁במלי	-15732
▁מתקר	-15733
▁בימוי	-15734
▁הביטח	-15735
▁חביבי	-15736
▁כבדים	-15737
▁בגלריה	-15738
▁הסרטים	-15739
ief	-15740
פלומ	-15741
תחבר	-15742
▁ההא	-15743
פורמת	-15744
▁שיצאו	-15745
▁אזרחית	-15746
▁וכנראה	-15747
▁נערכים	-15748
▁האתיופים	-15749
▁גלגל	-15750
▁היבוא	-15751
▁בתערוכה	-15752
▁bro	-15753
▁באף	-15754
▁Noam	-15755
▁York	-15756
▁בחייו	-15757
▁בכייף	-15758
▁הלינק	-15759
▁לנשום	-15760
▁נרשמה	-15761
▁קוקוס	-15762
▁תהליכי	-15763
▁דמוקרטית	-15764
hak	-15765
▁סן	-15766
פרסו	-15767
▁בטא	-15768
▁פטי	-15769
▁השמי	-15770
גוריית	-15771
▁לקורס	-15772
▁Garden	-15773
▁כביכול	-15774
▁הקודמים	-15775
מטכל	-15776
▁ודר	-15777
▁טיפש	-15778
▁Green	-15779
ייייייי	-15780
פיט	-15781
בירת	-15782
▁שאה	-15783
▁הכבד	-15784
▁הישיבות	-15785
קיא	-15786
מחשה	-15787
עיקר	-15788
ועלים	-15789
קדמיה	-15790
▁נמרץ	-15791
▁שמנה	-15792
ograph	-15793
▁נקווה	-15794
▁return	-15795
ובץ	-15796
קיץ	-15797
וכני	-15798
glick	-15799
▁בלוד	-15800
▁זמרת	-15801
▁מירון	-15802
▁עוצמת	-15803
▁לחרדים	-15804
)?	-15805
.06	-15806
▁IT	-15807
רוצה	-15808
▁דשא	-15809
▁נפגעו	-15810
▁אלימלך	-15811
▁מצחיקה	-15812
▁עסקאות	-15813
▁בהזדמנות	-15814
׳י	-15815
▁130	-15816
▁רבני	-15817
▁איזון	-15818
▁בעלים	-15819
▁התעור	-15820
▁מקסימום	-15821
בדקו	-15822
ברכה	-15823
▁mess	-15824
▁ident	-15825
▁ההפקה	-15826
▁המבחן	-15827
▁הספיק	-15828
▁יהונתן	-15829
▁מדרגות	-15830
▁בשנתיים	-15831
ilt	-15832
▁1.6	-15833
רגוני	-15834
▁בחרה	-15835
▁מרפאת	-15836
▁סינית	-15837
▁קנייה	-15838
▁טבעיים	-15839
▁מנדלבליט	-15840
ככ	-15841
▁מספרי	-15842
▁מפורט	-15843
▁מנגנון	-15844
▁ראויים	-15845
תתתתתתתת	-15846
press	-15847
▁pick	-15848
▁הערך	-15849
▁בעפולה	-15850
▁להאשים	-15851
▁160	-15852
▁הנר	-15853
לוואי	-15854
▁החיס	-15855
▁העונש	-15856
▁שעשית	-15857
Fi	-15858
iter	-15859
▁תרד	-15860
▁בורג	-15861
▁בטופס	-15862
▁הכלבה	-15863
▁עדינה	-15864
▁טויוטה	-15865
▁מבזקים	-15866
▁תופעות	-15867
▁במערכות	-15868
▁מהשירות	-15869
▁בבלעדיות	-15870
פגעים	-15871
▁went	-15872
▁ירדה	-15873
▁פרסי	-15874
▁הכריז	-15875
▁הרצועה	-15876
▁דופ	-15877
▁לפח	-15878
▁תמו	-15879
▁הצדק	-15880
▁תרגי	-15881
מחירים	-15882
▁energ	-15883
▁תקלות	-15884
▁מסוכנים	-15885
וקו	-15886
▁cou	-15887
סטיים	-15888
▁הרקע	-15889
▁הדעה	-15890
▁זולה	-15891
▁יהוה	-15892
▁הפרצוף	-15893
▁מציגים	-15894
▁תהילים	-15895
.#	-15896
UT	-15897
▁וטע	-15898
▁קופת	-15899
▁ואוהב	-15900
▁יעדים	-15901
▁מכונה	-15902
▁מהמשטרה	-15903
▁האוכלוסייה	-15904
.13	-15905
ole	-15906
מצן	-15907
▁הקא	-15908
▁שהנ	-15909
ולדאי	-15910
▁Omer	-15911
▁שהוע	-15912
רופאים	-15913
▁early	-15914
▁המעולה	-15915
▁חוששים	-15916
▁להפסיד	-15917
▁לטלפון	-15918
שששששששש	-15919
rav	-15920
נקס	-15921
▁כרא	-15922
uthor	-15923
▁ועושר	-15924
▁רוטמן	-15925
▁שחושב	-15926
▁הובלות	-15927
▁מרכיבים	-15928
▁פן	-15929
יטים	-15930
▁Ser	-15931
▁והצי	-15932
▁טונה	-15933
▁שמעו	-15934
▁contact	-15935
▁ולהדביק	-15936
-01	-15937
▁ובק	-15938
▁Sant	-15939
▁טיים	-15940
▁להיט	-15941
▁סדרות	-15942
▁שמיים	-15943
▁שתדעו	-15944
AV	-15945
llll	-15946
▁הגזע	-15947
▁חפשו	-15948
▁נחמה	-15949
Ayelet	-15950
▁המדור	-15951
▁והגיע	-15952
▁חריפה	-15953
▁מהסוג	-15954
▁הפליטים	-15955
pec	-15956
ither	-15957
▁הידוע	-15958
▁מיטות	-15959
▁בכיוון	-15960
▁נכנסתי	-15961
▁התעסוקה	-15962
יצ	-15963
cel	-15964
▁פו	-15965
▁גוא	-15966
▁לביה	-15967
▁improve	-15968
ניט	-15969
▁האתגר	-15970
▁בקבוקי	-15971
▁העליונה	-15972
imor	-15973
▁סלק	-15974
▁חיוב	-15975
▁media	-15976
▁companies	-15977
כורת	-15978
נתקות	-15979
▁הכלה	-15980
▁נשבע	-15981
פורמות	-15982
▁היפות	-15983
▁בהובלת	-15984
▁המקורית	-15985
▁מניסיון	-15986
▁בברצלונה	-15987
▁‬	-15988
▁Ram	-15989
▁cal	-15990
▁ליז	-15991
▁תשי	-15992
געגעת	-15993
▁חרדה	-15994
▁פסיכ	-15995
▁פראי	-15996
▁clear	-15997
▁אפייה	-15998
▁בוזגלו	-15999
▁הזמינו	-16000
▁התחושה	-16001
▁מומלצת	-16002
▁results	-16003
הרב	-16004
וסין	-16005
▁פלד	-16006
▁המשא	-16007
▁הקצר	-16008
▁בחרתי	-16009
▁המרגש	-16010
▁בשלטון	-16011
▁וכהטבה	-16012
▁מעוצבים	-16013
▁העדכונים	-16014
4/	-16015
ורוב	-16016
▁יועצת	-16017
▁הנכסים	-16018
▁מאתמול	-16019
▁מציוני	-16020
Ma	-16021
▁♥	-16022
אלא	-16023
צרט	-16024
פשות	-16025
ilton	-16026
ליקון	-16027
▁הקופ	-16028
▁לכתב	-16029
▁שמתח	-16030
▁מומלצים	-16031
-:	-16032
ישג	-16033
lege	-16034
דורי	-16035
▁כלא	-16036
Press	-16037
▁נובע	-16038
▁פוטר	-16039
▁תקנון	-16040
▁שלומית	-16041
▁אלכסנדר	-16042
ShaiCohen	-16043
וציה	-16044
▁תנח	-16045
חרויות	-16046
▁ומנהל	-16047
▁לירות	-16048
▁complet	-16049
▁גולדברג	-16050
▁מקרקעין	-16051
.08	-16052
ברא	-16053
▁שוות	-16054
▁גרועה	-16055
▁הירידה	-16056
▁בעיצומה	-16057
ווס	-16058
ייצג	-16059
ליפי	-16060
▁חבד	-16061
▁והלא	-16062
▁אינדי	-16063
▁בסימן	-16064
▁מפחדת	-16065
▁עוזרת	-16066
ilities	-16067
▁הוסיפה	-16068
▁אביזרים	-16069
▁לגב	-16070
▁ואיר	-16071
▁החובה	-16072
▁עשירה	-16073
IF	-16074
mat	-16075
▁LG	-16076
שומה	-16077
▁גונ	-16078
▁הפט	-16079
▁שדר	-16080
ופיות	-16081
▁חפצים	-16082
▁יחזרו	-16083
▁מפסיק	-16084
▁להתאמץ	-16085
בחור	-16086
חלתי	-16087
מוטה	-16088
רווי	-16089
▁nec	-16090
▁כפל	-16091
▁הלכו	-16092
▁ישלם	-16093
▁שדרוג	-16094
נום	-16095
עלי	-16096
נטנים	-16097
▁השיב	-16098
▁שקול	-16099
▁least	-16100
▁וכיצד	-16101
▁מהממם	-16102
▁רימון	-16103
▁שלאחר	-16104
▁happen	-16105
▁features	-16106
▁הנמו	-16107
▁להיע	-16108
▁שוטף	-16109
▁Keren	-16110
▁בסיבוב	-16111
▁העבירה	-16112
▁להפתיע	-16113
▁מומחית	-16114
▁להסתובב	-16115
״ד	-16116
▁67	-16117
▁Wi	-16118
מכור	-16119
▁סוי	-16120
▁ששם	-16121
▁המקב	-16122
▁תעזרו	-16123
▁אמינות	-16124
▁הצרכים	-16125
▁מהרגיל	-16126
odge	-16127
▁באס	-16128
▁סימ	-16129
▁גופת	-16130
▁תחקיר	-16131
▁ביניהן	-16132
▁קנ	-16133
aily	-16134
erus	-16135
▁עניי	-16136
▁רינה	-16137
▁שינו	-16138
▁תקנה	-16139
שלומים	-16140
▁ביכולת	-16141
ייסת	-16142
▁כשח	-16143
radio	-16144
▁בחלל	-16145
▁בכסף	-16146
▁שהילדים	-16147
irit	-16148
דורת	-16149
▁ומזל	-16150
▁מכלל	-16151
▁משקה	-16152
▁שכתוב	-16153
▁תישאר	-16154
▁הטענות	-16155
▁וגברים	-16156
▁להתאמן	-16157
▁שאלוהים	-16158
▁העיתונאי	-16159
ותק	-16160
טקט	-16161
ופשת	-16162
רכוש	-16163
▁המנכ	-16164
▁ושמח	-16165
▁הירוש	-16166
▁שתייה	-16167
▁בשבילו	-16168
▁וביצוע	-16169
▁לחיזוק	-16170
רכתי	-16171
▁סטר	-16172
▁השיח	-16173
▁לשאת	-16174
▁תמצא	-16175
▁האיום	-16176
▁שראוי	-16177
▁האסטרט	-16178
▁ממוקמת	-16179
========	-16180
לללללללל	-16181
pi	-16182
uri	-16183
▁orig	-16184
▁כשמח	-16185
▁לעזה	-16186
▁מחליף	-16187
▁תרופה	-16188
▁המונים	-16189
ded	-16190
▁AM	-16191
ואלה	-16192
מדתי	-16193
▁125	-16194
▁לזו	-16195
▁הנית	-16196
▁דרוקר	-16197
▁שאותו	-16198
▁במפלגה	-16199
▁שחורים	-16200
▁actually	-16201
▁ישמע	-16202
▁להפועל	-16203
▁לתיאום	-16204
▁שחושבים	-16205
וריס	-16206
▁לול	-16207
htein	-16208
▁miss	-16209
▁קאסם	-16210
▁אנוני	-16211
▁בתורה	-16212
▁עברנו	-16213
▁הולדתך	-16214
דגל	-16215
▁רס	-16216
פצים	-16217
▁North	-16218
▁במחקר	-16219
▁הסרטן	-16220
▁פינות	-16221
▁יזרעאל	-16222
▁ההפגנות	-16223
▁הפצועים	-16224
ניחה	-16225
▁רגש	-16226
▁צלחת	-16227
▁בוגרי	-16228
▁כהונת	-16229
▁לגלוש	-16230
▁מדוייק	-16231
▁הנדרשים	-16232
כינה	-16233
וספות	-16234
▁והפר	-16235
▁להיש	-16236
▁חדשני	-16237
▁שעובד	-16238
▁במחלקה	-16239
▁ובהמשך	-16240
EM	-16241
▁זצוק	-16242
▁אוראל	-16243
▁ולפני	-16244
▁שקרים	-16245
▁מטוסים	-16246
▁סיימתי	-16247
▁צבעוני	-16248
▁ברקוביץ	-16249
ופעת	-16250
▁דוי	-16251
▁הסתם	-16252
▁ולהר	-16253
▁מסרו	-16254
▁לחלוק	-16255
▁הכשרות	-16256
▁למסעדות	-16257
▁הקואליצי	-16258
bu	-16259
sel	-16260
▁Di	-16261
▁אמה	-16262
▁land	-16263
▁ונוח	-16264
▁נרות	-16265
▁יומית	-16266
▁לשלושה	-16267
▁תביעות	-16268
בעלי	-16269
חדות	-16270
מתוך	-16271
עיפים	-16272
▁הכהן	-16273
▁המיק	-16274
▁לכפר	-16275
▁לפטר	-16276
▁שוקל	-16277
resent	-16278
▁14:00	-16279
▁study	-16280
▁מינהל	-16281
▁צוואר	-16282
▁האדומים	-16283
eek	-16284
רוי	-16285
▁מרתון	-16286
▁הקטנות	-16287
▁לפרויקט	-16288
▁material	-16289
המו	-16290
עקב	-16291
רכור	-16292
בונות	-16293
▁שמכיר	-16294
▁חיסכון	-16295
▁לקישור	-16296
-29	-16297
מלאים	-16298
משפחה	-16299
▁באות	-16300
▁לטוב	-16301
arning	-16302
▁האמור	-16303
▁שלמים	-16304
▁להגדיר	-16305
▁appeared	-16306
7<	-16307
לף	-16308
▁רלוו	-16309
▁בגינה	-16310
▁החולה	-16311
▁למשפט	-16312
▁ממילא	-16313
▁הפרוייקט	-16314
room	-16315
uter	-16316
▁par	-16317
▁ברבי	-16318
▁לפיו	-16319
▁מהלב	-16320
▁למראה	-16321
▁לפרוש	-16322
▁מהרגע	-16323
▁שיעשו	-16324
▁כיסאות	-16325
▁11.	-16326
עבודה	-16327
פעלים	-16328
▁ביוב	-16329
▁קירל	-16330
▁ואמרה	-16331
▁יוחאי	-16332
▁לנוכח	-16333
▁מסתובב	-16334
▁מגוונים	-16335
גיז	-16336
▁ST	-16337
▁דיא	-16338
▁pack	-16339
▁בהחל	-16340
▁ההשת	-16341
▁כפרי	-16342
▁ברוטב	-16343
[...]
